{
  "version": "1.0",
  "truncation": null,
  "padding": null,
  "added_tokens": [
    {
      "id": 0,
      "content": "<unk>",
      "single_word": false,
      "lstrip": false,
      "rstrip": false,
      "normalized": false,
      "special": true
    },
    {
      "id": 1,
      "content": "<pad>",
      "single_word": false,
      "lstrip": false,
      "rstrip": false,
      "normalized": false,
      "special": true
    },
    {
      "id": 2,
      "content": "<eos>",
      "single_word": false,
      "lstrip": false,
      "rstrip": false,
      "normalized": false,
      "special": true
    }
  ],
  "normalizer": null,
  "pre_tokenizer": {
    "type": "Sequence",
    "pretokenizers": [
      {
        "type": "Split",
        "pattern": {
          "Regex": "\\p{L}+|\\p{N}|[^\\s\\p{L}\\p{N}]|\\s+"
        },
        "behavior": "Isolated",
        "invert": false
      },
      {
        "type": "ByteLevel",
        "add_prefix_space": false,
        "trim_offsets": true,
        "use_regex": false
      }
    ]
  },
  "post_processor": null,
  "decoder": {
    "type": "ByteLevel",
    "add_prefix_space": true,
    "trim_offsets": true,
    "use_regex": true
  },
  "model": {
    "type": "BPE",
    "dropout": null,
    "unk_token": "<unk>",
    "continuing_subword_prefix": null,
    "end_of_word_suffix": null,
    "fuse_unk": false,
    "byte_fallback": false,
    "ignore_merges": false,
    "vocab": {
      "<unk>": 0,
      "<pad>": 1,
      "<eos>": 2,
      "!": 3,
      "\"": 4,
      "#": 5,
      "$": 6,
      "%": 7,
      "&": 8,
      "'": 9,
      "(": 10,
      ")": 11,
      "*": 12,
      "+": 13,
      ",": 14,
      "-": 15,
      ".": 16,
      "/": 17,
      "0": 18,
      "1": 19,
      "2": 20,
      "3": 21,
      "4": 22,
      "5": 23,
      "6": 24,
      "7": 25,
      "8": 26,
      "9": 27,
      ":": 28,
      ";": 29,
      "<": 30,
      "=": 31,
      ">": 32,
      "?": 33,
      "@": 34,
      "A": 35,
      "B": 36,
      "C": 37,
      "D": 38,
      "E": 39,
      "F": 40,
      "G": 41,
      "H": 42,
      "I": 43,
      "J": 44,
      "K": 45,
      "L": 46,
      "M": 47,
      "N": 48,
      "O": 49,
      "P": 50,
      "Q": 51,
      "R": 52,
      "S": 53,
      "T": 54,
      "U": 55,
      "V": 56,
      "W": 57,
      "X": 58,
      "Y": 59,
      "Z": 60,
      "[": 61,
      "\\": 62,
      "]": 63,
      "^": 64,
      "_": 65,
      "`": 66,
      "a": 67,
      "b": 68,
      "c": 69,
      "d": 70,
      "e": 71,
      "f": 72,
      "g": 73,
      "h": 74,
      "i": 75,
      "j": 76,
      "k": 77,
      "l": 78,
      "m": 79,
      "n": 80,
      "o": 81,
      "p": 82,
      "q": 83,
      "r": 84,
      "s": 85,
      "t": 86,
      "u": 87,
      "v": 88,
      "w": 89,
      "x": 90,
      "y": 91,
      "z": 92,
      "{": 93,
      "|": 94,
      "}": 95,
      "~": 96,
      "¡": 97,
      "¢": 98,
      "£": 99,
      "¤": 100,
      "¥": 101,
      "¦": 102,
      "§": 103,
      "¨": 104,
      "©": 105,
      "ª": 106,
      "«": 107,
      "¬": 108,
      "®": 109,
      "¯": 110,
      "°": 111,
      "±": 112,
      "²": 113,
      "³": 114,
      "´": 115,
      "µ": 116,
      "¶": 117,
      "·": 118,
      "¸": 119,
      "¹": 120,
      "º": 121,
      "»": 122,
      "¼": 123,
      "½": 124,
      "¾": 125,
      "¿": 126,
      "À": 127,
      "Á": 128,
      "Â": 129,
      "Ã": 130,
      "Ä": 131,
      "Å": 132,
      "Æ": 133,
      "Ç": 134,
      "È": 135,
      "É": 136,
      "Ê": 137,
      "Ë": 138,
      "Ì": 139,
      "Í": 140,
      "Î": 141,
      "Ï": 142,
      "Ð": 143,
      "Ñ": 144,
      "Ò": 145,
      "Ó": 146,
      "Ô": 147,
      "Õ": 148,
      "Ö": 149,
      "×": 150,
      "Ø": 151,
      "Ù": 152,
      "Ú": 153,
      "Û": 154,
      "Ü": 155,
      "Ý": 156,
      "Þ": 157,
      "ß": 158,
      "à": 159,
      "á": 160,
      "â": 161,
      "ã": 162,
      "ä": 163,
      "å": 164,
      "æ": 165,
      "ç": 166,
      "è": 167,
      "é": 168,
      "ê": 169,
      "ë": 170,
      "ì": 171,
      "í": 172,
      "î": 173,
      "ï": 174,
      "ð": 175,
      "ñ": 176,
      "ò": 177,
      "ó": 178,
      "ô": 179,
      "õ": 180,
      "ö": 181,
      "÷": 182,
      "ø": 183,
      "ù": 184,
      "ú": 185,
      "û": 186,
      "ü": 187,
      "ý": 188,
      "þ": 189,
      "ÿ": 190,
      "Ā": 191,
      "ā": 192,
      "Ă": 193,
      "ă": 194,
      "Ą": 195,
      "ą": 196,
      "Ć": 197,
      "ć": 198,
      "Ĉ": 199,
      "ĉ": 200,
      "Ċ": 201,
      "ċ": 202,
      "Č": 203,
      "č": 204,
      "Ď": 205,
      "ď": 206,
      "Đ": 207,
      "đ": 208,
      "Ē": 209,
      "ē": 210,
      "Ĕ": 211,
      "ĕ": 212,
      "Ė": 213,
      "ė": 214,
      "Ę": 215,
      "ę": 216,
      "Ě": 217,
      "ě": 218,
      "Ĝ": 219,
      "ĝ": 220,
      "Ğ": 221,
      "ğ": 222,
      "Ġ": 223,
      "ġ": 224,
      "Ģ": 225,
      "ģ": 226,
      "Ĥ": 227,
      "ĥ": 228,
      "Ħ": 229,
      "ħ": 230,
      "Ĩ": 231,
      "ĩ": 232,
      "Ī": 233,
      "ī": 234,
      "Ĭ": 235,
      "ĭ": 236,
      "Į": 237,
      "į": 238,
      "İ": 239,
      "ı": 240,
      "Ĳ": 241,
      "ĳ": 242,
      "Ĵ": 243,
      "ĵ": 244,
      "Ķ": 245,
      "ķ": 246,
      "ĸ": 247,
      "Ĺ": 248,
      "ĺ": 249,
      "Ļ": 250,
      "ļ": 251,
      "Ľ": 252,
      "ľ": 253,
      "Ŀ": 254,
      "ŀ": 255,
      "Ł": 256,
      "ł": 257,
      "Ń": 258,
      "ĠĠ": 259,
      "ĠĠĠĠ": 260,
      "čĊ": 261,
      "ĠĠĠĠĠĠĠĠ": 262,
      "in": 263,
      "er": 264,
      "on": 265,
      "th": 266,
      "re": 267,
      "se": 268,
      "at": 269,
      "st": 270,
      "en": 271,
      "an": 272,
      "or": 273,
      "al": 274,
      "le": 275,
      "ar": 276,
      "ing": 277,
      "ou": 278,
      "de": 279,
      "me": 280,
      "the": 281,
      "ti": 282,
      "te": 283,
      "sel": 284,
      "self": 285,
      "ce": 286,
      "to": 287,
      "as": 288,
      "ĠĠĠĠĠĠĠĠĠĠĠĠ": 289,
      "is": 290,
      "ro": 291,
      "and": 292,
      "li": 293,
      "ch": 294,
      "es": 295,
      "ed": 296,
      "ĠĠĠĠĠĠĠĠĠĠĠĠĠĠĠĠ": 297,
      "co": 298,
      "it": 299,
      "of": 300,
      "ent": 301,
      "ion": 302,
      "mp": 303,
      "et": 304,
      "el": 305,
      "ur": 306,
      "fi": 307,
      "lo": 308,
      "ct": 309,
      "ad": 310,
      "ri": 311,
      "ame": 312,
      "ue": 313,
      "tion": 314,
      "for": 315,
      "con": 316,
      "id": 317,
      "ex": 318,
      "pe": 319,
      "un": 320,
      "ab": 321,
      "ag": 322,
      "res": 323,
      "mo": 324,
      "di": 325,
      "ate": 326,
      "no": 327,
      "ap": 328,
      "ser": 329,
      "def": 330,
      "ver": 331,
      "ul": 332,
      "ation": 333,
      "ac": 334,
      "if": 335,
      "he": 336,
      "tr": 337,
      "ly": 338,
      "name": 339,
      "wi": 340,
      "ter": 341,
      "si": 342,
      "pro": 343,
      "ort": 344,
      "ve": 345,
      "be": 346,
      "ay": 347,
      "one": 348,
      "op": 349,
      "our": 350,
      "ke": 351,
      "urn": 352,
      "ty": 353,
      "ret": 354,
      "am": 355,
      "wh": 356,
      "ne": 357,
      "gh": 358,
      "ld": 359,
      "cl": 360,
      "qu": 361,
      "su": 362,
      "out": 363,
      "end": 364,
      "with": 365,
      "ma": 366,
      "ic": 367,
      "get": 368,
      "ut": 369,
      "val": 370,
      "ment": 371,
      "vi": 372,
      "str": 373,
      "sh": 374,
      "ss": 375,
      "imp": 376,
      "return": 377,
      "po": 378,
      "par": 379,
      "pa": 380,
      "rom": 381,
      "per": 382,
      "so": 383,
      "all": 384,
      "oun": 385,
      "ow": 386,
      "from": 387,
      "ci": 388,
      "ck": 389,
      "ther": 390,
      "oo": 391,
      "able": 392,
      "set": 393,
      "ata": 394,
      "ted": 395,
      "ai": 396,
      "ass": 397,
      "age": 398,
      "int": 399,
      "import": 400,
      "xt": 401,
      "that": 402,
      "bu": 403,
      "test": 404,
      "ult": 405,
      "sert": 406,
      "are": 407,
      "um": 408,
      "gr": 409,
      "not": 410,
      "ction": 411,
      "up": 412,
      "we": 413,
      "ll": 414,
      "None": 415,
      "assert": 416,
      "pl": 417,
      "text": 418,
      "us": 419,
      "cre": 420,
      "ob": 421,
      "time": 422,
      "der": 423,
      "que": 424,
      "ir": 425,
      "arg": 426,
      "ght": 427,
      "ect": 428,
      "ang": 429,
      "file": 430,
      "ance": 431,
      "wor": 432,
      "ds": 433,
      "ers": 434,
      "fo": 435,
      "ĉĉ": 436,
      "In": 437,
      "du": 438,
      "app": 439,
      "ĠĠĠĠĠĠĠĠĠĠĠĠĠĠĠĠĠĠĠĠ": 440,
      "data": 441,
      "com": 442,
      "ase": 443,
      "ine": 444,
      "do": 445,
      "AR": 446,
      "type": 447,
      "ject": 448,
      "Tr": 449,
      "ack": 450,
      "ror": 451,
      "form": 452,
      "ain": 453,
      "The": 454,
      "by": 455,
      "Th": 456,
      "fe": 457,
      "path": 458,
      "cal": 459,
      "im": 460,
      "use": 461,
      "ol": 462,
      "pre": 463,
      "value": 464,
      "ist": 465,
      "quest": 466,
      "you": 467,
      "sp": 468,
      "key": 469,
      "sion": 470,
      "ces": 471,
      "ure": 472,
      "ity": 473,
      "che": 474,
      "comp": 475,
      "cont": 476,
      "class": 477,
      "ĠĠĠĠĠĠ": 478,
      "iz": 479,
      "ust": 480,
      "True": 481,
      "can": 482,
      "del": 483,
      "this": 484,
      "ind": 485,
      "od": 486,
      "list": 487,
      "Re": 488,
      "act": 489,
      "ould": 490,
      "ts": 491,
      "her": 492,
      "led": 493,
      "ččĊ": 494,
      "len": 495,
      "cep": 496,
      "lient": 497,
      "ho": 498,
      "eld": 499,
      "low": 500,
      "inst": 501,
      "qual": 502,
      "enti": 503,
      "LE": 504,
      "ĠĠĠ": 505,
      "IN": 506,
      "log": 507,
      "om": 508,
      "py": 509,
      "sc": 510,
      "pr": 511,
      "au": 512,
      "ren": 513,
      "ER": 514,
      "args": 515,
      "ge": 516,
      "tions": 517,
      "put": 518,
      "ound": 519,
      "ded": 520,
      "ace": 521,
      "ated": 522,
      "ms": 523,
      "ach": 524,
      "add": 525,
      "try": 526,
      "lic": 527,
      "pon": 528,
      "ff": 529,
      "meth": 530,
      "col": 531,
      "ev": 532,
      "sy": 533,
      "ip": 534,
      "new": 535,
      "sen": 536,
      "request": 537,
      "ite": 538,
      "gn": 539,
      "ile": 540,
      "dis": 541,
      "spe": 542,
      "tt": 543,
      "Er": 544,
      "ave": 545,
      "ere": 546,
      "my": 547,
      "atch": 548,
      "their": 549,
      "AT": 550,
      "av": 551,
      "Error": 552,
      "os": 553,
      "they": 554,
      "your": 555,
      "comm": 556,
      "red": 557,
      "ast": 558,
      "alse": 559,
      "ans": 560,
      "other": 561,
      "was": 562,
      "ong": 563,
      "cur": 564,
      "any": 565,
      "ings": 566,
      "client": 567,
      "bo": 568,
      "ary": 569,
      "ever": 570,
      "coun": 571,
      "ence": 572,
      "est": 573,
      "read": 574,
      "fig": 575,
      "date": 576,
      "work": 577,
      "rou": 578,
      "ber": 579,
      "ous": 580,
      "ations": 581,
      "ant": 582,
      "cess": 583,
      "als": 584,
      "model": 585,
      "ful": 586,
      "ault": 587,
      "Con": 588,
      "il": 589,
      "port": 590,
      "result": 591,
      "user": 592,
      "art": 593,
      "fun": 594,
      "about": 595,
      "endof": 596,
      "endoftext": 597,
      "code": 598,
      "ory": 599,
      "dule": 600,
      "False": 601,
      "respon": 602,
      "ild": 603,
      "object": 604,
      "ĠĠĠĠĠĠĠĠĠĠĠĠĠĠĠĠĠĠĠĠĠĠĠĠ": 605,
      "ub": 606,
      "now": 607,
      "sub": 608,
      "rip": 609,
      "RE": 610,
      "else": 611,
      "ies": 612,
      "ep": 613,
      "ot": 614,
      "aw": 615,
      "ses": 616,
      "amp": 617,
      "min": 618,
      "ON": 619,
      "arn": 620,
      "ally": 621,
      "param": 622,
      "Equal": 623,
      "inter": 624,
      "module": 625,
      "table": 626,
      "default": 627,
      "ext": 628,
      "ard": 629,
      "ments": 630,
      "instance": 631,
      "ource": 632,
      "ribu": 633,
      "ls": 634,
      "oup": 635,
      "under": 636,
      "reg": 637,
      "vice": 638,
      "ask": 639,
      "em": 640,
      "line": 641,
      "CH": 642,
      "like": 643,
      "Ex": 644,
      "This": 645,
      "met": 646,
      "its": 647,
      "br": 648,
      "stat": 649,
      "ble": 650,
      "SE": 651,
      "row": 652,
      "own": 653,
      "num": 654,
      "cted": 655,
      "create": 656,
      "mi": 657,
      "hel": 658,
      "but": 659,
      "group": 660,
      "excep": 661,
      "son": 662,
      "St": 663,
      "assertEqual": 664,
      "ari": 665,
      "les": 666,
      "vel": 667,
      "ig": 668,
      "call": 669,
      "ener": 670,
      "ense": 671,
      "ak": 672,
      "over": 673,
      "ca": 674,
      "db": 675,
      "has": 676,
      "some": 677,
      "ns": 678,
      "back": 679,
      "config": 680,
      "ating": 681,
      "into": 682,
      "cu": 683,
      "An": 684,
      "ved": 685,
      "ties": 686,
      "when": 687,
      "url": 688,
      "string": 689,
      "ati": 690,
      "ze": 691,
      "cor": 692,
      "exp": 693,
      "ange": 694,
      "response": 695,
      "ok": 696,
      "tes": 697,
      "conne": 698,
      "gle": 699,
      "RO": 700,
      "ress": 701,
      "ield": 702,
      "af": 703,
      "ST": 704,
      "dict": 705,
      "way": 706,
      "sed": 707,
      "Ch": 708,
      "valu": 709,
      "goo": 710,
      "will": 711,
      "method": 712,
      "ink": 713,
      "Se": 714,
      "count": 715,
      "how": 716,
      "rough": 717,
      "rent": 718,
      "his": 719,
      "IT": 720,
      "rai": 721,
      "error": 722,
      "qui": 723,
      "âĢ": 724,
      "day": 725,
      "them": 726,
      "aliz": 727,
      "stru": 728,
      "ry": 729,
      "ree": 730,
      "ten": 731,
      "have": 732,
      "version": 733,
      "sign": 734,
      "AN": 735,
      "ess": 736,
      "load": 737,
      "ark": 738,
      "OR": 739,
      "print": 740,
      "fl": 741,
      "ors": 742,
      "jo": 743,
      "info": 744,
      "help": 745,
      "mem": 746,
      "node": 747,
      "uni": 748,
      "VAR": 749,
      "ves": 750,
      "CHAR": 751,
      "ttp": 752,
      "more": 753,
      "scrip": 754,
      "Wh": 755,
      "CT": 756,
      "dir": 757,
      "temp": 758,
      "pass": 759,
      "format": 760,
      "ail": 761,
      "net": 762,
      "fic": 763,
      "VARCHAR": 764,
      "state": 765,
      "ery": 766,
      "she": 767,
      "Mo": 768,
      "man": 769,
      "these": 770,
      "pri": 771,
      "ĠĠĠĠĠĠĠĠĠĠĠĠĠĠĠĠĠĠĠĠĠĠĠĠĠĠĠĠĠĠĠĠ": 772,
      "ffer": 773,
      "Lic": 774,
      "License": 775,
      "bet": 776,
      "base": 777,
      "tic": 778,
      "ID": 779,
      "function": 780,
      "play": 781,
      "Field": 782,
      "ents": 783,
      "Test": 784,
      "EN": 785,
      "run": 786,
      "ili": 787,
      "AB": 788,
      "ef": 789,
      "kw": 790,
      "speci": 791,
      "Un": 792,
      "arr": 793,
      "ref": 794,
      "project": 795,
      "elds": 796,
      "http": 797,
      "ele": 798,
      "stand": 799,
      "dist": 800,
      "dex": 801,
      "know": 802,
      "ew": 803,
      "head": 804,
      "rel": 805,
      "mat": 806,
      "ook": 807,
      "tive": 808,
      "context": 809,
      "tw": 810,
      "size": 811,
      "every": 812,
      "rite": 813,
      "Pro": 814,
      "main": 815,
      "fil": 816,
      "field": 817,
      "ich": 818,
      "check": 819,
      "fields": 820,
      "google": 821,
      "ding": 822,
      "who": 823,
      "ron": 824,
      "fore": 825,
      "mess": 826,
      "hand": 827,
      "emp": 828,
      "append": 829,
      "oud": 830,
      "while": 831,
      "abel": 832,
      "expe": 833,
      "gi": 834,
      "through": 835,
      "raise": 836,
      "En": 837,
      "mock": 838,
      "ph": 839,
      "start": 840,
      "ting": 841,
      "ator": 842,
      "arch": 843,
      "ish": 844,
      "Name": 845,
      "should": 846,
      "used": 847,
      "ake": 848,
      "ual": 849,
      "fir": 850,
      "what": 851,
      "peri": 852,
      "right": 853,
      "ey": 854,
      "If": 855,
      "learn": 856,
      "As": 857,
      "max": 858,
      "tional": 859,
      "ml": 860,
      "vari": 861,
      "ures": 862,
      "ATE": 863,
      "which": 864,
      "auth": 865,
      "Val": 866,
      "iter": 867,
      "rect": 868,
      "pes": 869,
      "had": 870,
      "except": 871,
      "ger": 872,
      "att": 873,
      "see": 874,
      "output": 875,
      "less": 876,
      "cr": 877,
      "For": 878,
      "ann": 879,
      "init": 880,
      "AL": 881,
      "ype": 882,
      "host": 883,
      "ample": 884,
      "index": 885,
      "uring": 886,
      "cer": 887,
      "come": 888,
      "requi": 889,
      "there": 890,
      "ight": 891,
      "clu": 892,
      "input": 893,
      "models": 894,
      "ill": 895,
      "point": 896,
      "ates": 897,
      "using": 898,
      "each": 899,
      "wr": 900,
      "vis": 901,
      "write": 902,
      "make": 903,
      "tag": 904,
      "off": 905,
      "So": 906,
      "values": 907,
      "ore": 908,
      "find": 909,
      "fri": 910,
      "mark": 911,
      "It": 912,
      "where": 913,
      "ages": 914,
      "ax": 915,
      "attr": 916,
      "trans": 917,
      "AS": 918,
      "kwargs": 919,
      "open": 920,
      "thon": 921,
      "api": 922,
      "build": 923,
      "just": 924,
      "ven": 925,
      "gth": 926,
      "ving": 927,
      "names": 928,
      "could": 929,
      "label": 930,
      "sor": 931,
      "DE": 932,
      "valid": 933,
      "sess": 934,
      "ĠĠĠĠĠĠĠĠĠĠĠĠĠĠĠĠĠĠĠĠĠĠĠĠĠĠĠĠ": 935,
      "proper": 936,
      "place": 937,
      "sing": 938,
      "expected": 939,
      "uti": 940,
      "lock": 941,
      "No": 942,
      "TAB": 943,
      "entials": 944,
      "mon": 945,
      "mis": 946,
      "params": 947,
      "Ad": 948,
      "ters": 949,
      "ken": 950,
      "eli": 951,
      "ĠĠĠĠĠĠĠĠĠĠ": 952,
      "cs": 953,
      "word": 954,
      "join": 955,
      "ear": 956,
      "ĠčĊ": 957,
      "first": 958,
      "cket": 959,
      "Ret": 960,
      "mer": 961,
      "arget": 962,
      "only": 963,
      "sup": 964,
      "array": 965,
      "ango": 966,
      "even": 967,
      "fr": 968,
      "friend": 969,
      "Set": 970,
      "go": 971,
      "fel": 972,
      "may": 973,
      "ud": 974,
      "np": 975,
      "loc": 976,
      "query": 977,
      "action": 978,
      "jango": 979,
      "sk": 980,
      "pi": 981,
      "Res": 982,
      "ath": 983,
      "differ": 984,
      "feel": 985,
      "Type": 986,
      "clo": 987,
      "eng": 988,
      "ape": 989,
      "connection": 990,
      "ature": 991,
      "json": 992,
      "To": 993,
      "ople": 994,
      "ater": 995,
      "cred": 996,
      "parse": 997,
      "ream": 998,
      "message": 999,
      "vol": 1000,
      "called": 1001,
      "pos": 1002,
      "obj": 1003,
      "sport": 1004,
      "lete": 1005,
      "lect": 1006,
      "CRE": 1007,
      "UT": 1008,
      "source": 1009,
      "struct": 1010,
      "bl": 1011,
      "cour": 1012,
      "med": 1013,
      "options": 1014,
      "late": 1015,
      "char": 1016,
      "descrip": 1017,
      "dep": 1018,
      "match": 1019,
      "ell": 1020,
      "vo": 1021,
      "down": 1022,
      "ical": 1023,
      "django": 1024,
      "were": 1025,
      "Op": 1026,
      "ines": 1027,
      "Ser": 1028,
      "update": 1029,
      "Get": 1030,
      "token": 1031,
      "found": 1032,
      "than": 1033,
      "TABLE": 1034,
      "order": 1035,
      "member": 1036,
      "service": 1037,
      "experi": 1038,
      "process": 1039,
      "const": 1040,
      "elif": 1041,
      "ES": 1042,
      "tran": 1043,
      "produ": 1044,
      "We": 1045,
      "cloud": 1046,
      "gu": 1047,
      "vid": 1048,
      "org": 1049,
      "target": 1050,
      "LI": 1051,
      "SQ": 1052,
      "Ar": 1053,
      "map": 1054,
      "number": 1055,
      "By": 1056,
      "core": 1057,
      "king": 1058,
      "adata": 1059,
      "Value": 1060,
      "fix": 1061,
      "face": 1062,
      "cover": 1063,
      "lib": 1064,
      "part": 1065,
      "copy": 1066,
      "tal": 1067,
      "Str": 1068,
      "war": 1069,
      "ulti": 1070,
      "inclu": 1071,
      "thou": 1072,
      "ose": 1073,
      "viron": 1074,
      "level": 1075,
      "would": 1076,
      "stor": 1077,
      "AP": 1078,
      "ways": 1079,
      "CREATE": 1080,
      "chema": 1081,
      "ative": 1082,
      "pc": 1083,
      "local": 1084,
      "cle": 1085,
      "view": 1086,
      "ww": 1087,
      "wer": 1088,
      "people": 1089,
      "gener": 1090,
      "Par": 1091,
      "cy": 1092,
      "sent": 1093,
      "move": 1094,
      "But": 1095,
      "indi": 1096,
      "sys": 1097,
      "SQL": 1098,
      "credentials": 1099,
      "foo": 1100,
      "hi": 1101,
      "List": 1102,
      "oper": 1103,
      "acti": 1104,
      "TE": 1105,
      "exist": 1106,
      "ool": 1107,
      "ner": 1108,
      "such": 1109,
      "lit": 1110,
      "ĠĠĠĠĠ": 1111,
      "Return": 1112,
      "ĉĉĉ": 1113,
      "Lo": 1114,
      "status": 1115,
      "let": 1116,
      "He": 1117,
      "pack": 1118,
      "ini": 1119,
      "argu": 1120,
      "item": 1121,
      "Co": 1122,
      "types": 1123,
      "understand": 1124,
      "ody": 1125,
      "ru": 1126,
      "ION": 1127,
      "session": 1128,
      "task": 1129,
      "mu": 1130,
      "life": 1131,
      "vent": 1132,
      "look": 1133,
      "ME": 1134,
      "ROM": 1135,
      "Key": 1136,
      "after": 1137,
      "pace": 1138,
      "ribute": 1139,
      "bre": 1140,
      "resource": 1141,
      "then": 1142,
      "fin": 1143,
      "felt": 1144,
      "side": 1145,
      "mething": 1146,
      "msg": 1147,
      "men": 1148,
      "chang": 1149,
      "FROM": 1150,
      "How": 1151,
      "metadata": 1152,
      "star": 1153,
      "sm": 1154,
      "description": 1155,
      "tle": 1156,
      "before": 1157,
      "something": 1158,
      "many": 1159,
      "ship": 1160,
      "flo": 1161,
      "UR": 1162,
      "ith": 1163,
      "length": 1164,
      "And": 1165,
      "LECT": 1166,
      "current": 1167,
      "âĢĵ": 1168,
      "times": 1169,
      "ĠĠĠĠĠĠĠĠĠĠĠĠĠĠĠĠĠĠĠ": 1170,
      "SELECT": 1171,
      "aph": 1172,
      "gether": 1173,
      "lename": 1174,
      "show": 1175,
      "Que": 1176,
      "child": 1177,
      "You": 1178,
      "allow": 1179,
      "cho": 1180,
      "tain": 1181,
      "sur": 1182,
      "contain": 1183,
      "CO": 1184,
      "exe": 1185,
      "thing": 1186,
      "sure": 1187,
      "need": 1188,
      "event": 1189,
      "cent": 1190,
      "also": 1191,
      "gin": 1192,
      "pub": 1193,
      "lim": 1194,
      "world": 1195,
      "job": 1196,
      "sol": 1197,
      "Data": 1198,
      "cls": 1199,
      "old": 1200,
      "filter": 1201,
      "command": 1202,
      "environ": 1203,
      "range": 1204,
      "Cl": 1205,
      "within": 1206,
      "annel": 1207,
      "search": 1208,
      "lex": 1209,
      "ences": 1210,
      "sible": 1211,
      "extr": 1212,
      "content": 1213,
      "ween": 1214,
      "colum": 1215,
      "ness": 1216,
      "dat": 1217,
      "required": 1218,
      "ility": 1219,
      "flow": 1220,
      "fact": 1221,
      "direct": 1222,
      "share": 1223,
      "posi": 1224,
      "top": 1225,
      "bin": 1226,
      "shape": 1227,
      "different": 1228,
      "ali": 1229,
      "IS": 1230,
      "tri": 1231,
      "provi": 1232,
      "image": 1233,
      "body": 1234,
      "Request": 1235,
      "contin": 1236,
      "last": 1237,
      "filename": 1238,
      "ular": 1239,
      "between": 1240,
      "transport": 1241,
      "cap": 1242,
      "during": 1243,
      "server": 1244,
      "ning": 1245,
      "ler": 1246,
      "parent": 1247,
      "fol": 1248,
      "sq": 1249,
      "des": 1250,
      "soci": 1251,
      "gre": 1252,
      "cause": 1253,
      "Id": 1254,
      "den": 1255,
      "stem": 1256,
      "book": 1257,
      "spec": 1258,
      "ception": 1259,
      "files": 1260,
      "One": 1261,
      "fied": 1262,
      "ids": 1263,
      "Cre": 1264,
      "ily": 1265,
      "ick": 1266,
      "fam": 1267,
      "next": 1268,
      "sa": 1269,
      "python": 1270,
      "File": 1271,
      "contro": 1272,
      "those": 1273,
      "De": 1274,
      "ost": 1275,
      "stion": 1276,
      "lob": 1277,
      "gs": 1278,
      "conn": 1279,
      "equal": 1280,
      "ager": 1281,
      "option": 1282,
      "adi": 1283,
      "page": 1284,
      "orm": 1285,
      "around": 1286,
      "link": 1287,
      "air": 1288,
      "does": 1289,
      "ait": 1290,
      "step": 1291,
      "him": 1292,
      "expl": 1293,
      "mag": 1294,
      "They": 1295,
      "long": 1296,
      "delete": 1297,
      "dr": 1298,
      "timeout": 1299,
      "tial": 1300,
      "TI": 1301,
      "HER": 1302,
      "wid": 1303,
      "might": 1304,
      "yn": 1305,
      "TT": 1306,
      "Schema": 1307,
      "lang": 1308,
      "network": 1309,
      "ather": 1310,
      "ice": 1311,
      "utils": 1312,
      "Client": 1313,
      "rc": 1314,
      "light": 1315,
      "float": 1316,
      "String": 1317,
      "ute": 1318,
      "two": 1319,
      "together": 1320,
      "mail": 1321,
      "ster": 1322,
      "change": 1323,
      "did": 1324,
      "UL": 1325,
      "results": 1326,
      "store": 1327,
      "proto": 1328,
      "hist": 1329,
      "ely": 1330,
      "patch": 1331,
      "por": 1332,
      "ling": 1333,
      "ops": 1334,
      "vers": 1335,
      "happ": 1336,
      "Question": 1337,
      "ank": 1338,
      "sions": 1339,
      "parame": 1340,
      "fer": 1341,
      "tern": 1342,
      "most": 1343,
      "ime": 1344,
      "product": 1345,
      "ging": 1346,
      "follow": 1347,
      "multi": 1348,
      "block": 1349,
      "unit": 1350,
      "ize": 1351,
      "Exception": 1352,
      "ht": 1353,
      "unique": 1354,
      "Not": 1355,
      "ide": 1356,
      "ateg": 1357,
      "example": 1358,
      "channel": 1359,
      "identi": 1360,
      "Di": 1361,
      "must": 1362,
      "objects": 1363,
      "hum": 1364,
      "medi": 1365,
      "title": 1366,
      "without": 1367,
      "mode": 1368,
      "ric": 1369,
      "stream": 1370,
      "root": 1371,
      "da": 1372,
      "split": 1373,
      "ions": 1374,
      "lead": 1375,
      "ustom": 1376,
      "md": 1377,
      "fy": 1378,
      "Al": 1379,
      "being": 1380,
      "ccess": 1381,
      "here": 1382,
      "func": 1383,
      "lay": 1384,
      "tool": 1385,
      "items": 1386,
      "uid": 1387,
      "isinstance": 1388,
      "On": 1389,
      "html": 1390,
      "account": 1391,
      "abase": 1392,
      "stud": 1393,
      "Py": 1394,
      "real": 1395,
      "lection": 1396,
      "tings": 1397,
      "OF": 1398,
      "chall": 1399,
      "distribu": 1400,
      "address": 1401,
      "CON": 1402,
      "both": 1403,
      "ead": 1404,
      "ources": 1405,
      "bucket": 1406,
      "ING": 1407,
      "year": 1408,
      "With": 1409,
      "property": 1410,
      "case": 1411,
      "true": 1412,
      "xx": 1413,
      "ah": 1414,
      "auto": 1415,
      "sec": 1416,
      "connect": 1417,
      "FI": 1418,
      "mple": 1419,
      "UN": 1420,
      "formation": 1421,
      "super": 1422,
      "been": 1423,
      "err": 1424,
      "td": 1425,
      "gen": 1426,
      "person": 1427,
      "keys": 1428,
      "graph": 1429,
      "LO": 1430,
      "commun": 1431,
      "det": 1432,
      "post": 1433,
      "others": 1434,
      "env": 1435,
      "Add": 1436,
      "ready": 1437,
      "std": 1438,
      "course": 1439,
      "sum": 1440,
      "discover": 1441,
      "ull": 1442,
      "Po": 1443,
      "ie": 1444,
      "datetime": 1445,
      "sch": 1446,
      "coding": 1447,
      "location": 1448,
      "access": 1449,
      "variable": 1450,
      "close": 1451,
      "Au": 1452,
      "langu": 1453,
      "HERE": 1454,
      "amb": 1455,
      "came": 1456,
      "land": 1457,
      "Gener": 1458,
      "oftw": 1459,
      "oftware": 1460,
      "WHERE": 1461,
      "ash": 1462,
      "conf": 1463,
      "What": 1464,
      "ons": 1465,
      "lish": 1466,
      "ign": 1467,
      "known": 1468,
      "az": 1469,
      "Time": 1470,
      "avi": 1471,
      "pb": 1472,
      "lot": 1473,
      "support": 1474,
      "Att": 1475,
      "ENT": 1476,
      "Returns": 1477,
      "fail": 1478,
      "care": 1479,
      "too": 1480,
      "Up": 1481,
      "docu": 1482,
      "gram": 1483,
      "bug": 1484,
      "ants": 1485,
      "ializ": 1486,
      "licy": 1487,
      "rand": 1488,
      "home": 1489,
      "always": 1490,
      "ced": 1491,
      "again": 1492,
      "ks": 1493,
      "recor": 1494,
      "ars": 1495,
      "ft": 1496,
      "power": 1497,
      "pop": 1498,
      "Is": 1499,
      "noti": 1500,
      "PO": 1501,
      "ValueError": 1502,
      "template": 1503,
      "because": 1504,
      "region": 1505,
      "uster": 1506,
      "prefix": 1507,
      "Com": 1508,
      "See": 1509,
      "dest": 1510,
      "lines": 1511,
      "system": 1512,
      "Inst": 1513,
      "NO": 1514,
      "uture": 1515,
      "present": 1516,
      "atures": 1517,
      "ics": 1518,
      "Create": 1519,
      "settings": 1520,
      "high": 1521,
      "oring": 1522,
      "sets": 1523,
      "CE": 1524,
      "uple": 1525,
      "iting": 1526,
      "non": 1527,
      "deci": 1528,
      "applic": 1529,
      "things": 1530,
      "thought": 1531,
      "along": 1532,
      "made": 1533,
      "alth": 1534,
      "mean": 1535,
      "ume": 1536,
      "tech": 1537,
      "parser": 1538,
      "TO": 1539,
      "ails": 1540,
      "common": 1541,
      "appro": 1542,
      "header": 1543,
      "partic": 1544,
      "These": 1545,
      "wards": 1546,
      "Des": 1547,
      "another": 1548,
      "orig": 1549,
      "sty": 1550,
      "When": 1551,
      "retry": 1552,
      "turn": 1553,
      "doc": 1554,
      "ni": 1555,
      "sql": 1556,
      "inte": 1557,
      "password": 1558,
      "loy": 1559,
      "train": 1560,
      "database": 1561,
      "friends": 1562,
      "Now": 1563,
      "ural": 1564,
      "aring": 1565,
      "cache": 1566,
      "ression": 1567,
      "pat": 1568,
      "mt": 1569,
      "Col": 1570,
      "Base": 1571,
      "ributes": 1572,
      "don": 1573,
      "pp": 1574,
      "ens": 1575,
      "sco": 1576,
      "big": 1577,
      "column": 1578,
      "She": 1579,
      "Service": 1580,
      "custom": 1581,
      "break": 1582,
      "imple": 1583,
      "specific": 1584,
      "tak": 1585,
      "execu": 1586,
      "ome": 1587,
      "fully": 1588,
      "og": 1589,
      "User": 1590,
      "vity": 1591,
      "grow": 1592,
      "DI": 1593,
      "ross": 1594,
      "Cont": 1595,
      "ries": 1596,
      "small": 1597,
      "ei": 1598,
      "indow": 1599,
      "language": 1600,
      "lied": 1601,
      "df": 1602,
      "empty": 1603,
      "pect": 1604,
      "warn": 1605,
      "frame": 1606,
      "ĉĉĉĉ": 1607,
      "entry": 1608,
      "Che": 1609,
      "bar": 1610,
      "future": 1611,
      "named": 1612,
      "Ac": 1613,
      "aly": 1614,
      "logger": 1615,
      "environment": 1616,
      "device": 1617,
      "jour": 1618,
      "individ": 1619,
      "ps": 1620,
      "req": 1621,
      "pot": 1622,
      "uration": 1623,
      "ec": 1624,
      "replace": 1625,
      "beh": 1626,
      "same": 1627,
      "understanding": 1628,
      "argument": 1629,
      "keep": 1630,
      "wait": 1631,
      "element": 1632,
      "Do": 1633,
      "everyone": 1634,
      "WAR": 1635,
      "given": 1636,
      "sin": 1637,
      "extra": 1638,
      "static": 1639,
      "RI": 1640,
      "upon": 1641,
      "NA": 1642,
      "incre": 1643,
      "Ob": 1644,
      "cons": 1645,
      "ount": 1646,
      "web": 1647,
      "Or": 1648,
      "hold": 1649,
      "aving": 1650,
      "However": 1651,
      "success": 1652,
      "HO": 1653,
      "Config": 1654,
      "Bu": 1655,
      "think": 1656,
      "headers": 1657,
      "mb": 1658,
      "cei": 1659,
      "All": 1660,
      "That": 1661,
      "itu": 1662,
      "AA": 1663,
      "ord": 1664,
      "groups": 1665,
      "tre": 1666,
      "depend": 1667,
      "ĠĠĠĠĠĠĠĠĠĠĠĠĠĠĠĠĠĠĠĠĠĠĠĠĠĠĠĠĠĠĠĠĠĠĠĠ": 1668,
      "various": 1669,
      "ability": 1670,
      "sive": 1671,
      "alized": 1672,
      "GE": 1673,
      "gg": 1674,
      "ambda": 1675,
      "Qu": 1676,
      "car": 1677,
      "explo": 1678,
      "ify": 1679,
      "ods": 1680,
      "verse": 1681,
      "ood": 1682,
      "rid": 1683,
      "MP": 1684,
      "ough": 1685,
      "ious": 1686,
      "exception": 1687,
      "charact": 1688,
      "meta": 1689,
      "sn": 1690,
      "weight": 1691,
      "www": 1692,
      "flag": 1693,
      "learning": 1694,
      "pu": 1695,
      "sts": 1696,
      "box": 1697,
      "better": 1698,
      "PE": 1699,
      "Rai": 1700,
      "API": 1701,
      "document": 1702,
      "words": 1703,
      "ĠĠĠĠĠĠĠ": 1704,
      "secon": 1705,
      "DO": 1706,
      "ually": 1707,
      "challeng": 1708,
      "color": 1709,
      "role": 1710,
      "Check": 1711,
      "cmd": 1712,
      "email": 1713,
      "ple": 1714,
      "emo": 1715,
      "desc": 1716,
      "ward": 1717,
      "ney": 1718,
      "bers": 1719,
      "debug": 1720,
      "cluster": 1721,
      "bi": 1722,
      "select": 1723,
      "bit": 1724,
      "changed": 1725,
      "GN": 1726,
      "information": 1727,
      "scal": 1728,
      "clas": 1729,
      "AD": 1730,
      "ĠĠĠĠĠĠĠĠĠĠĠĠĠĠ": 1731,
      "FA": 1732,
      "take": 1733,
      "diction": 1734,
      "TH": 1735,
      "lambda": 1736,
      "making": 1737,
      "Be": 1738,
      "dri": 1739,
      "limit": 1740,
      "health": 1741,
      "policy": 1742,
      "remove": 1743,
      "ton": 1744,
      "outfile": 1745,
      "glob": 1746,
      "mal": 1747,
      "include": 1748,
      "ĠĠĠĠĠĠĠĠĠĠĠĠĠĠĠĠĠ": 1749,
      "Def": 1750,
      "Respon": 1751,
      "MA": 1752,
      "sim": 1753,
      "kind": 1754,
      "water": 1755,
      "batch": 1756,
      "gy": 1757,
      "KE": 1758,
      "logging": 1759,
      "deep": 1760,
      "experience": 1761,
      "Cop": 1762,
      "Char": 1763,
      "ered": 1764,
      "marker": 1765,
      "random": 1766,
      "Case": 1767,
      "full": 1768,
      "condi": 1769,
      "very": 1770,
      "well": 1771,
      "origin": 1772,
      "xml": 1773,
      "reci": 1774,
      "exc": 1775,
      "someone": 1776,
      "created": 1777,
      "syn": 1778,
      "game": 1779,
      "libr": 1780,
      "mary": 1781,
      "towards": 1782,
      "tical": 1783,
      "serializ": 1784,
      "Met": 1785,
      "provided": 1786,
      "til": 1787,
      "once": 1788,
      "won": 1789,
      "modi": 1790,
      "public": 1791,
      "Pub": 1792,
      "Raises": 1793,
      "cult": 1794,
      "prec": 1795,
      "stri": 1796,
      "instead": 1797,
      "actions": 1798,
      "ump": 1799,
      "ories": 1800,
      "cing": 1801,
      "norm": 1802,
      "remo": 1803,
      "cip": 1804,
      "already": 1805,
      "either": 1806,
      "Model": 1807,
      "bytes": 1808,
      "tree": 1809,
      "continue": 1810,
      "joy": 1811,
      "display": 1812,
      "cial": 1813,
      "due": 1814,
      "save": 1815,
      "family": 1816,
      "Python": 1817,
      "left": 1818,
      "Text": 1819,
      "Response": 1820,
      "author": 1821,
      "conver": 1822,
      "vely": 1823,
      "distributed": 1824,
      "beli": 1825,
      "ade": 1826,
      "want": 1827,
      "oc": 1828,
      "Copy": 1829,
      "program": 1830,
      "Gr": 1831,
      "logy": 1832,
      "volume": 1833,
      "based": 1834,
      "Me": 1835,
      "stop": 1836,
      "PRO": 1837,
      "ential": 1838,
      "gl": 1839,
      "null": 1840,
      "Comp": 1841,
      "errors": 1842,
      "ently": 1843,
      "tools": 1844,
      "Af": 1845,
      "ial": 1846,
      "Fr": 1847,
      "Let": 1848,
      "space": 1849,
      "much": 1850,
      "though": 1851,
      "quence": 1852,
      "send": 1853,
      "amples": 1854,
      "control": 1855,
      "Sar": 1856,
      "selves": 1857,
      "tests": 1858,
      "related": 1859,
      "organ": 1860,
      "ones": 1861,
      "WIT": 1862,
      "asc": 1863,
      "avail": 1864,
      "From": 1865,
      "UP": 1866,
      "dataset": 1867,
      "rt": 1868,
      "My": 1869,
      "Man": 1870,
      "started": 1871,
      "stories": 1872,
      "State": 1873,
      "properties": 1874,
      "refer": 1875,
      "stack": 1876,
      "rule": 1877,
      "Sh": 1878,
      "pres": 1879,
      "TY": 1880,
      "IL": 1881,
      "sist": 1882,
      "Some": 1883,
      "lice": 1884,
      "var": 1885,
      "tuple": 1886,
      "vide": 1887,
      "SS": 1888,
      "history": 1889,
      "signi": 1890,
      "script": 1891,
      "practi": 1892,
      "shared": 1893,
      "bel": 1894,
      "thread": 1895,
      "ĠĠĠĠĠĠĠĠĠ": 1896,
      "aws": 1897,
      "resources": 1898,
      "ization": 1899,
      "active": 1900,
      "atform": 1901,
      "relation": 1902,
      "aces": 1903,
      "igno": 1904,
      "ism": 1905,
      "ached": 1906,
      "At": 1907,
      "RAN": 1908,
      "journey": 1909,
      "zer": 1910,
      "ffect": 1911,
      "secret": 1912,
      "Imp": 1913,
      "ĠĠĠĠĠĠĠĠĠĠĠĠĠĠĠĠĠĠĠĠĠĠĠĠĠ": 1914,
      "ometry": 1915,
      "presen": 1916,
      "cli": 1917,
      "src": 1918,
      "curity": 1919,
      "recei": 1920,
      "raw": 1921,
      "apter": 1922,
      "ailed": 1923,
      "ia": 1924,
      "arti": 1925,
      "become": 1926,
      "why": 1927,
      "boto": 1928,
      "buf": 1929,
      "sw": 1930,
      "section": 1931,
      "love": 1932,
      "pool": 1933,
      "bool": 1934,
      "Sarah": 1935,
      "ED": 1936,
      "gan": 1937,
      "ostF": 1938,
      "plot": 1939,
      "Public": 1940,
      "details": 1941,
      "After": 1942,
      "rep": 1943,
      "har": 1944,
      "URL": 1945,
      "CTh": 1946,
      "tdc": 1947,
      "ostFtdc": 1948,
      "CThostFtdc": 1949,
      "decided": 1950,
      "pas": 1951,
      "ĠĠĠĠĠĠĠĠĠĠĠĠĠ": 1952,
      "https": 1953,
      "total": 1954,
      "complex": 1955,
      "leg": 1956,
      "Run": 1957,
      "methods": 1958,
      "exten": 1959,
      "remember": 1960,
      "labels": 1961,
      "foc": 1962,
      "AND": 1963,
      "initi": 1964,
      "fn": 1965,
      "vate": 1966,
      "directory": 1967,
      "atten": 1968,
      "ANY": 1969,
      "arguments": 1970,
      "lin": 1971,
      "specified": 1972,
      "vision": 1973,
      "eded": 1974,
      "ared": 1975,
      "flu": 1976,
      "sometimes": 1977,
      "ety": 1978,
      "commit": 1979,
      "ugin": 1980,
      "usion": 1981,
      "permis": 1982,
      "spir": 1983,
      "devel": 1984,
      "queue": 1985,
      "ason": 1986,
      "asyn": 1987,
      "IO": 1988,
      "ctive": 1989,
      "beau": 1990,
      "dtype": 1991,
      "domain": 1992,
      "mind": 1993,
      "utf": 1994,
      "FOR": 1995,
      "strong": 1996,
      "exists": 1997,
      "sever": 1998,
      "often": 1999,
      "handle": 2000,
      "ened": 2001,
      "still": 2002,
      "mod": 2003,
      "vices": 2004,
      "TestCase": 2005,
      "poly": 2006,
      "bal": 2007,
      "lease": 2008,
      "sic": 2009,
      "mask": 2010,
      "ized": 2011,
      "hash": 2012,
      "cri": 2013,
      "Through": 2014,
      "Dis": 2015,
      "unities": 2016,
      "ader": 2017,
      "win": 2018,
      "ending": 2019,
      "ste": 2020,
      "constant": 2021,
      "simple": 2022,
      "EX": 2023,
      "termin": 2024,
      "record": 2025,
      "username": 2026,
      "across": 2027,
      "endpoint": 2028,
      "ĠĠĠĠĠĠĠĠĠĠĠ": 2029,
      "Vers": 2030,
      "sample": 2031,
      "execute": 2032,
      "ped": 2033,
      "lean": 2034,
      "perform": 2035,
      "tags": 2036,
      "Call": 2037,
      "alog": 2038,
      "dec": 2039,
      "following": 2040,
      "human": 2041,
      "offset": 2042,
      "ices": 2043,
      "events": 2044,
      "grpc": 2045,
      "HTT": 2046,
      "acing": 2047,
      "PC": 2048,
      "among": 2049,
      "Optional": 2050,
      "AC": 2051,
      "ination": 2052,
      "software": 2053,
      "widget": 2054,
      "hy": 2055,
      "ULT": 2056,
      "NAME": 2057,
      "stamp": 2058,
      "Grou": 2059,
      "sci": 2060,
      "enable": 2061,
      "Found": 2062,
      "cation": 2063,
      "cul": 2064,
      "tensor": 2065,
      "Copyright": 2066,
      "ĠĠĠĠĠĠĠĠĠĠĠĠĠĠĠ": 2067,
      "ances": 2068,
      "away": 2069,
      "mak": 2070,
      "interest": 2071,
      "namespace": 2072,
      "explore": 2073,
      "Hand": 2074,
      "analy": 2075,
      "Per": 2076,
      "imag": 2077,
      "style": 2078,
      "xy": 2079,
      "HTTP": 2080,
      "heart": 2081,
      "ilar": 2082,
      "invol": 2083,
      "ider": 2084,
      "Pre": 2085,
      "special": 2086,
      "Sy": 2087,
      "position": 2088,
      "General": 2089,
      "important": 2090,
      "ny": 2091,
      "rix": 2092,
      "platform": 2093,
      "Imag": 2094,
      "stub": 2095,
      "SI": 2096,
      "categ": 2097,
      "features": 2098,
      "returned": 2099,
      "INT": 2100,
      "Conne": 2101,
      "clean": 2102,
      "ained": 2103,
      "strip": 2104,
      "Node": 2105,
      "geometry": 2106,
      "Path": 2107,
      "Mock": 2108,
      "Pl": 2109,
      "free": 2110,
      "whe": 2111,
      "export": 2112,
      "ttle": 2113,
      "US": 2114,
      "render": 2115,
      "assertRaises": 2116,
      "team": 2117,
      "experiences": 2118,
      "GNU": 2119,
      "Version": 2120,
      "provid": 2121,
      "admin": 2122,
      "handler": 2123,
      "against": 2124,
      "pay": 2125,
      "Stat": 2126,
      "best": 2127,
      "sl": 2128,
      "until": 2129,
      "pt": 2130,
      "parameters": 2131,
      "continu": 2132,
      "develop": 2133,
      "ĠĠĠĠčĊ": 2134,
      "Imagine": 2135,
      "fication": 2136,
      "cuss": 2137,
      "install": 2138,
      "avor": 2139,
      "cept": 2140,
      "ister": 2141,
      "fit": 2142,
      "actual": 2143,
      "fier": 2144,
      "Tag": 2145,
      "dot": 2146,
      "util": 2147,
      "alize": 2148,
      "anti": 2149,
      "tem": 2150,
      "math": 2151,
      "width": 2152,
      "available": 2153,
      "pur": 2154,
      "city": 2155,
      "ency": 2156,
      "design": 2157,
      "compon": 2158,
      "unittest": 2159,
      "roll": 2160,
      "rib": 2161,
      "points": 2162,
      "aged": 2163,
      "aging": 2164,
      "assertTrue": 2165,
      "gest": 2166,
      "fold": 2167,
      "remain": 2168,
      "ĠĠĠĠĠĠĠĠĠĠĠĠĠĠĠĠĠĠĠĠĠĠĠĠĠĠ": 2169,
      "mit": 2170,
      "essen": 2171,
      "ground": 2172,
      "edu": 2173,
      "appe": 2174,
      "igh": 2175,
      "prote": 2176,
      "force": 2177,
      "cant": 2178,
      "clear": 2179,
      "single": 2180,
      "collection": 2181,
      "ML": 2182,
      "cat": 2183,
      "proble": 2184,
      "ends": 2185,
      "tf": 2186,
      "lower": 2187,
      "subnet": 2188,
      "DEFA": 2189,
      "counter": 2190,
      "DEFAULT": 2191,
      "HT": 2192,
      "parti": 2193,
      "window": 2194,
      "ctor": 2195,
      "sical": 2196,
      "messages": 2197,
      "learned": 2198,
      "mbol": 2199,
      "story": 2200,
      "pk": 2201,
      "Reg": 2202,
      "pie": 2203,
      "cry": 2204,
      "ution": 2205,
      "community": 2206,
      "rap": 2207,
      "Date": 2208,
      "dle": 2209,
      "added": 2210,
      "ets": 2211,
      "dev": 2212,
      "ming": 2213,
      "creating": 2214,
      "ined": 2215,
      "appreci": 2216,
      "rows": 2217,
      "operation": 2218,
      "cell": 2219,
      "IP": 2220,
      "returns": 2221,
      "zone": 2222,
      "setup": 2223,
      "good": 2224,
      "wrap": 2225,
      "etch": 2226,
      "proces": 2227,
      "TEST": 2228,
      "reed": 2229,
      "encoding": 2230,
      "anted": 2231,
      "ision": 2232,
      "signifi": 2233,
      "ession": 2234,
      "Attribute": 2235,
      "wn": 2236,
      "safe": 2237,
      "certain": 2238,
      "days": 2239,
      "Dict": 2240,
      "library": 2241,
      "redu": 2242,
      "There": 2243,
      "tmp": 2244,
      "profile": 2245,
      "WARRAN": 2246,
      "cies": 2247,
      "began": 2248,
      "attribute": 2249,
      "itch": 2250,
      "compute": 2251,
      "apping": 2252,
      "hour": 2253,
      "ĠĠĠĠĠĠĠĠĠĠĠĠĠĠĠĠĠĠĠĠĠĠ": 2254,
      "significant": 2255,
      "exit": 2256,
      "filled": 2257,
      "vation": 2258,
      "asked": 2259,
      "upd": 2260,
      "never": 2261,
      "Args": 2262,
      "ond": 2263,
      "aries": 2264,
      "acy": 2265,
      "impro": 2266,
      "Auth": 2267,
      "Bo": 2268,
      "far": 2269,
      "rest": 2270,
      "little": 2271,
      "ESS": 2272,
      "challenges": 2273,
      "Object": 2274,
      "entity": 2275,
      "teach": 2276,
      "years": 2277,
      "room": 2278,
      "changes": 2279,
      "VER": 2280,
      "wonder": 2281,
      "Fe": 2282,
      "short": 2283,
      "interface": 2284,
      "resh": 2285,
      "Inter": 2286,
      "ping": 2287,
      "tell": 2288,
      "global": 2289,
      "manager": 2290,
      "storage": 2291,
      "DB": 2292,
      "ta": 2293,
      "Event": 2294,
      "Log": 2295,
      "hook": 2296,
      "tk": 2297,
      "park": 2298,
      "ĠĠĠĠĠĠĠĠčĊ": 2299,
      "transform": 2300,
      "hard": 2301,
      "ately": 2302,
      "plan": 2303,
      "unicode": 2304,
      "mented": 2305,
      "parts": 2306,
      "sight": 2307,
      "ships": 2308,
      "discuss": 2309,
      "layer": 2310,
      "wise": 2311,
      "security": 2312,
      "Out": 2313,
      "plugin": 2314,
      "children": 2315,
      "idden": 2316,
      "dit": 2317,
      "needed": 2318,
      "since": 2319,
      "Ste": 2320,
      "Sub": 2321,
      "ĠĠĠĠĠĠĠĠĠĠĠĠĠĠĠĠĠĠ": 2322,
      "fort": 2323,
      "larg": 2324,
      "ounds": 2325,
      "gate": 2326,
      "ix": 2327,
      "watch": 2328,
      "means": 2329,
      "attributes": 2330,
      "working": 2331,
      "Mr": 2332,
      "passed": 2333,
      "application": 2334,
      "construct": 2335,
      "ically": 2336,
      "Jo": 2337,
      "tradi": 2338,
      "LETT": 2339,
      "parameter": 2340,
      "particle": 2341,
      "Oper": 2342,
      "io": 2343,
      "KEY": 2344,
      "cut": 2345,
      "mar": 2346,
      "users": 2347,
      "ALL": 2348,
      "Can": 2349,
      "valuable": 2350,
      "yet": 2351,
      "maint": 2352,
      "round": 2353,
      "void": 2354,
      "enses": 2355,
      "LETTER": 2356,
      "package": 2357,
      "boo": 2358,
      "ening": 2359,
      "Once": 2360,
      "App": 2361,
      "uals": 2362,
      "false": 2363,
      "lying": 2364,
      "begin": 2365,
      "anim": 2366,
      "blank": 2367,
      "mand": 2368,
      "sto": 2369,
      "sort": 2370,
      "wee": 2371,
      "ignore": 2372,
      "skip": 2373,
      "Dele": 2374,
      "ported": 2375,
      "cert": 2376,
      "near": 2377,
      "ben": 2378,
      "Over": 2379,
      "calls": 2380,
      "fake": 2381,
      "Num": 2382,
      "ering": 2383,
      "gover": 2384,
      "unk": 2385,
      "resp": 2386,
      "Group": 2387,
      "bro": 2388,
      "nal": 2389,
      "cogn": 2390,
      "yield": 2391,
      "Tim": 2392,
      "express": 2393,
      "fasc": 2394,
      "site": 2395,
      "cook": 2396,
      "exceptions": 2397,
      "complete": 2398,
      "video": 2399,
      "LA": 2400,
      "umb": 2401,
      "pip": 2402,
      "tor": 2403,
      "night": 2404,
      "original": 2405,
      "Fin": 2406,
      "Wor": 2407,
      "la": 2408,
      "Query": 2409,
      "JO": 2410,
      "symbol": 2411,
      "mater": 2412,
      "columns": 2413,
      "report": 2414,
      "clusion": 2415,
      "exploring": 2416,
      "ache": 2417,
      "uri": 2418,
      "Ele": 2419,
      "skill": 2420,
      "flags": 2421,
      "zip": 2422,
      "school": 2423,
      "associ": 2424,
      "attrs": 2425,
      "feelings": 2426,
      "beta": 2427,
      "Inte": 2428,
      "Sp": 2429,
      "configuration": 2430,
      "later": 2431,
      "async": 2432,
      "ouse": 2433,
      "LIC": 2434,
      "nodes": 2435,
      "master": 2436,
      "elements": 2437,
      "draw": 2438,
      "couldn": 2439,
      "ITY": 2440,
      "shot": 2441,
      "eas": 2442,
      "bound": 2443,
      "ational": 2444,
      "Mess": 2445,
      "stats": 2446,
      "helper": 2447,
      "realized": 2448,
      "throughout": 2449,
      "coming": 2450,
      "âĢĶ": 2451,
      "enough": 2452,
      "ont": 2453,
      "Info": 2454,
      "ordin": 2455,
      "âĢĻ": 2456,
      "employ": 2457,
      "Default": 2458,
      "sal": 2459,
      "bility": 2460,
      "insert": 2461,
      "sun": 2462,
      "wal": 2463,
      "became": 2464,
      "phy": 2465,
      "cient": 2466,
      "emb": 2467,
      "licenses": 2468,
      "axis": 2469,
      "snap": 2470,
      "timestamp": 2471,
      "mid": 2472,
      "mor": 2473,
      "formed": 2474,
      "abs": 2475,
      "communic": 2476,
      "visit": 2477,
      "pytest": 2478,
      "optional": 2479,
      "agement": 2480,
      "Have": 2481,
      "anch": 2482,
      "require": 2483,
      "trace": 2484,
      "stry": 2485,
      "Section": 2486,
      "cp": 2487,
      "connections": 2488,
      "Li": 2489,
      "essential": 2490,
      "starts": 2491,
      "BY": 2492,
      "isn": 2493,
      "requests": 2494,
      "ins": 2495,
      "correct": 2496,
      "Ip": 2497,
      "score": 2498,
      "sharing": 2499,
      "register": 2500,
      "standing": 2501,
      "doesn": 2502,
      "ouble": 2503,
      "structure": 2504,
      "rodu": 2505,
      "poli": 2506,
      "XX": 2507,
      "comes": 2508,
      "repr": 2509,
      "RPC": 2510,
      "While": 2511,
      "yourself": 2512,
      "cursor": 2513,
      "fascin": 2514,
      "said": 2515,
      "gap": 2516,
      "prog": 2517,
      "second": 2518,
      "feature": 2519,
      "country": 2520,
      "including": 2521,
      "whether": 2522,
      "PAR": 2523,
      "lives": 2524,
      "upload": 2525,
      "advent": 2526,
      "variables": 2527,
      "choices": 2528,
      "cti": 2529,
      "discovered": 2530,
      "Int": 2531,
      "RA": 2532,
      "everything": 2533,
      "got": 2534,
      "quo": 2535,
      "aint": 2536,
      "took": 2537,
      "May": 2538,
      "ĠĠĠĠĠĠĠĠĠĠĠĠĠĠĠĠĠĠĠĠĠĠĠĠĠĠĠ": 2539,
      "dig": 2540,
      "ECT": 2541,
      "wanted": 2542,
      "spi": 2543,
      "Just": 2544,
      "urther": 2545,
      "resol": 2546,
      "feeling": 2547,
      "writing": 2548,
      "buffer": 2549,
      "sync": 2550,
      "youn": 2551,
      "pair": 2552,
      "today": 2553,
      "dro": 2554,
      "ĠĠĠĠĠĠĠĠĠĠĠĠĠĠĠĠĠĠĠĠĠĠĠ": 2555,
      "engine": 2556,
      "LAT": 2557,
      "individuals": 2558,
      "ift": 2559,
      "multiple": 2560,
      "liter": 2561,
      "having": 2562,
      "brow": 2563,
      "music": 2564,
      "books": 2565,
      "knew": 2566,
      "ases": 2567,
      "ker": 2568,
      "ĠĠĠĠĠĠĠĠĠĠĠĠĠĠĠĠĠĠĠĠĠ": 2569,
      "xxxx": 2570,
      "taking": 2571,
      "initial": 2572,
      "Red": 2573,
      "Frame": 2574,
      "New": 2575,
      "reli": 2576,
      "enjoy": 2577,
      "virt": 2578,
      "didn": 2579,
      "Parame": 2580,
      "ged": 2581,
      "several": 2582,
      "eyes": 2583,
      "SC": 2584,
      "Goo": 2585,
      "Vi": 2586,
      "Message": 2587,
      "Address": 2588,
      "UM": 2589,
      "Max": 2590,
      "issu": 2591,
      "callback": 2592,
      "Content": 2593,
      "energy": 2594,
      "ane": 2595,
      "permissions": 2596,
      "media": 2597,
      "ensure": 2598,
      "term": 2599,
      "socket": 2600,
      "month": 2601,
      "classes": 2602,
      "Connection": 2603,
      "HOUT": 2604,
      "WITHOUT": 2605,
      "generate": 2606,
      "fid": 2607,
      "disable": 2608,
      "ga": 2609,
      "Spe": 2610,
      "eve": 2611,
      "hope": 2612,
      "ilt": 2613,
      "bas": 2614,
      "uses": 2615,
      "encode": 2616,
      "ital": 2617,
      "implied": 2618,
      "forms": 2619,
      "CharField": 2620,
      "Instance": 2621,
      "NOT": 2622,
      "techni": 2623,
      "Google": 2624,
      "ui": 2625,
      "private": 2626,
      "personal": 2627,
      "aded": 2628,
      "ilities": 2629,
      "similar": 2630,
      "abo": 2631,
      "strateg": 2632,
      "mach": 2633,
      "ware": 2634,
      "dump": 2635,
      "Table": 2636,
      "ditional": 2637,
      "ators": 2638,
      "wasn": 2639,
      "Action": 2640,
      "consider": 2641,
      "functions": 2642,
      "ques": 2643,
      "say": 2644,
      "UNT": 2645,
      "tim": 2646,
      "beauti": 2647,
      "rules": 2648,
      "reference": 2649,
      "meric": 2650,
      "iss": 2651,
      "Ab": 2652,
      "Ben": 2653,
      "Item": 2654,
      "maintain": 2655,
      "track": 2656,
      "fill": 2657,
      "convert": 2658,
      "Cred": 2659,
      "pick": 2660,
      "three": 2661,
      "Im": 2662,
      "COUNT": 2663,
      "character": 2664,
      "ended": 2665,
      "ats": 2666,
      "ues": 2667,
      "Americ": 2668,
      "paths": 2669,
      "Cloud": 2670,
      "Pr": 2671,
      "mut": 2672,
      "potential": 2673,
      "ug": 2674,
      "umpy": 2675,
      "instances": 2676,
      "remote": 2677,
      "Result": 2678,
      "gor": 2679,
      "sug": 2680,
      "mental": 2681,
      "container": 2682,
      "dom": 2683,
      "Software": 2684,
      "agreed": 2685,
      "crip": 2686,
      "lected": 2687,
      "existing": 2688,
      "Open": 2689,
      "invalid": 2690,
      "schema": 2691,
      "eline": 2692,
      "Import": 2693,
      "moment": 2694,
      "cid": 2695,
      "WS": 2696,
      "dies": 2697,
      "Build": 2698,
      "shap": 2699,
      "behind": 2700,
      "abor": 2701,
      "Index": 2702,
      "ier": 2703,
      "Trans": 2704,
      "primary": 2705,
      "helps": 2706,
      "question": 2707,
      "cast": 2708,
      "matrix": 2709,
      "publish": 2710,
      "implement": 2711,
      "height": 2712,
      "balance": 2713,
      "stdout": 2714,
      "going": 2715,
      "failed": 2716,
      "hidden": 2717,
      "behavi": 2718,
      "nat": 2719,
      "opport": 2720,
      "driver": 2721,
      "mac": 2722,
      "missing": 2723,
      "rength": 2724,
      "Module": 2725,
      "conditions": 2726,
      "Step": 2727,
      "PT": 2728,
      "vm": 2729,
      "impact": 2730,
      "none": 2731,
      "Bob": 2732,
      "diff": 2733,
      "forward": 2734,
      "students": 2735,
      "inside": 2736,
      "Well": 2737,
      "voice": 2738,
      "Colum": 2739,
      "convers": 2740,
      "received": 2741,
      "writ": 2742,
      "makes": 2743,
      "nature": 2744,
      "Le": 2745,
      "images": 2746,
      "raises": 2747,
      "respect": 2748,
      "QU": 2749,
      "calcul": 2750,
      "pho": 2751,
      "mic": 2752,
      "works": 2753,
      "folder": 2754,
      "supported": 2755,
      "ATA": 2756,
      "prop": 2757,
      "Under": 2758,
      "JOIN": 2759,
      "bad": 2760,
      "binary": 2761,
      "stu": 2762,
      "IONS": 2763,
      "issues": 2764,
      "projects": 2765,
      "stems": 2766,
      "tasks": 2767,
      "Imple": 2768,
      "provide": 2769,
      "Alice": 2770,
      "emotions": 2771,
      "Fun": 2772,
      "mes": 2773,
      "ledge": 2774,
      "SM": 2775,
      "compile": 2776,
      "represen": 2777,
      "expect": 2778,
      "repo": 2779,
      "warm": 2780,
      "note": 2781,
      "strength": 2782,
      "hn": 2783,
      "Input": 2784,
      "THE": 2785,
      "fetch": 2786,
      "dee": 2787,
      "individual": 2788,
      "town": 2789,
      "social": 2790,
      "Read": 2791,
      "GER": 2792,
      "running": 2793,
      "favor": 2794,
      "pose": 2795,
      "dic": 2796,
      "unexpected": 2797,
      "tific": 2798,
      "SER": 2799,
      "chain": 2800,
      "exact": 2801,
      "release": 2802,
      "edit": 2803,
      "assign": 2804,
      "modify": 2805,
      "Emp": 2806,
      "Class": 2807,
      "characters": 2808,
      "category": 2809,
      "zz": 2810,
      "necess": 2811,
      "imum": 2812,
      "sle": 2813,
      "bir": 2814,
      "download": 2815,
      "FO": 2816,
      "Ipv": 2817,
      "coll": 2818,
      "enum": 2819,
      "numpy": 2820,
      "aspect": 2821,
      "paren": 2822,
      "aling": 2823,
      "feed": 2824,
      "young": 2825,
      "series": 2826,
      "determin": 2827,
      "BO": 2828,
      "lived": 2829,
      "Uni": 2830,
      "VAL": 2831,
      "cture": 2832,
      "Hel": 2833,
      "getattr": 2834,
      "LATIN": 2835,
      "sis": 2836,
      "unch": 2837,
      "Handler": 2838,
      "abc": 2839,
      "done": 2840,
      "insight": 2841,
      "defined": 2842,
      "vious": 2843,
      "cf": 2844,
      "sof": 2845,
      "Size": 2846,
      "food": 2847,
      "PAT": 2848,
      "beautiful": 2849,
      "above": 2850,
      "route": 2851,
      "fascinating": 2852,
      "Context": 2853,
      "duct": 2854,
      "ished": 2855,
      "meet": 2856,
      "ible": 2857,
      "prepa": 2858,
      "ATION": 2859,
      "ian": 2860,
      "past": 2861,
      "possible": 2862,
      "lat": 2863,
      "skills": 2864,
      "uuid": 2865,
      "fs": 2866,
      "loop": 2867,
      "members": 2868,
      "ssl": 2869,
      "themselves": 2870,
      "Form": 2871,
      "Element": 2872,
      "situ": 2873,
      "operations": 2874,
      "twi": 2875,
      "EL": 2876,
      "steps": 2877,
      "terms": 2878,
      "izing": 2879,
      "finally": 2880,
      "research": 2881,
      "ender": 2882,
      "seemed": 2883,
      "Credentials": 2884,
      "versity": 2885,
      "loved": 2886,
      "prof": 2887,
      "ternal": 2888,
      "eval": 2889,
      "ee": 2890,
      "His": 2891,
      "ris": 2892,
      "comment": 2893,
      "ra": 2894,
      "CL": 2895,
      "deli": 2896,
      "pattern": 2897,
      "expression": 2898,
      "famili": 2899,
      "built": 2900,
      "idx": 2901,
      "grad": 2902,
      "irst": 2903,
      "migr": 2904,
      "terns": 2905,
      "playing": 2906,
      "metric": 2907,
      "JECT": 2908,
      "inner": 2909,
      "ech": 2910,
      "ILITY": 2911,
      "gather": 2912,
      "txt": 2913,
      "Invalid": 2914,
      "aught": 2915,
      "Su": 2916,
      "loss": 2917,
      "exci": 2918,
      "TYPE": 2919,
      "ride": 2920,
      "identity": 2921,
      "embr": 2922,
      "thoughts": 2923,
      "particular": 2924,
      "ony": 2925,
      "numer": 2926,
      "posit": 2927,
      "IND": 2928,
      "promo": 2929,
      "opts": 2930,
      "Write": 2931,
      "orical": 2932,
      "scen": 2933,
      "Child": 2934,
      "building": 2935,
      "ORD": 2936,
      "study": 2937,
      "Tran": 2938,
      "TypeError": 2939,
      "communities": 2940,
      "decode": 2941,
      "techno": 2942,
      "gapic": 2943,
      "scale": 2944,
      "assertIs": 2945,
      "Cur": 2946,
      "osity": 2947,
      "seem": 2948,
      "cru": 2949,
      "Temp": 2950,
      "sequence": 2951,
      "Update": 2952,
      "Column": 2953,
      "stay": 2954,
      "matter": 2955,
      "allowed": 2956,
      "validate": 2957,
      "Code": 2958,
      "online": 2959,
      "amount": 2960,
      "inv": 2961,
      "lies": 2962,
      "Her": 2963,
      "fall": 2964,
      "six": 2965,
      "Dr": 2966,
      "Fore": 2967,
      "Wid": 2968,
      "law": 2969,
      "fast": 2970,
      "influ": 2971,
      "counts": 2972,
      "hours": 2973,
      "aps": 2974,
      "ference": 2975,
      "stract": 2976,
      "final": 2977,
      "looked": 2978,
      "Status": 2979,
      "OT": 2980,
      "Many": 2981,
      "dt": 2982,
      "tax": 2983,
      "lessons": 2984,
      "Cour": 2985,
      "living": 2986,
      "CS": 2987,
      "First": 2988,
      "Use": 2989,
      "dictionary": 2990,
      "opt": 2991,
      "uint": 2992,
      "bose": 2993,
      "Unless": 2994,
      "Eng": 2995,
      "perf": 2996,
      "ured": 2997,
      "growth": 2998,
      "scre": 2999,
      "ouch": 3000,
      "Alex": 3001,
      "ava": 3002,
      "scope": 3003,
      "derr": 3004,
      "recogn": 3005,
      "processed": 3006,
      "Chapter": 3007,
      "simp": 3008,
      "rics": 3009,
      "positive": 3010,
      "Timmy": 3011,
      "Ro": 3012,
      "rather": 3013,
      "price": 3014,
      "live": 3015,
      "ENSE": 3016,
      "great": 3017,
      "continued": 3018,
      "Order": 3019,
      "bor": 3020,
      "quick": 3021,
      "focus": 3022,
      "rate": 3023,
      "staticmethod": 3024,
      "Tit": 3025,
      "rpc": 3026,
      "Remember": 3027,
      "spect": 3028,
      "physical": 3029,
      "sat": 3030,
      "aver": 3031,
      "Ge": 3032,
      "setting": 3033,
      "aves": 3034,
      "cious": 3035,
      "indices": 3036,
      "patterns": 3037,
      "fp": 3038,
      "favorite": 3039,
      "ulation": 3040,
      "trust": 3041,
      "END": 3042,
      "evalu": 3043,
      "LICENSE": 3044,
      "further": 3045,
      "dern": 3046,
      "usu": 3047,
      "ounded": 3048,
      "TIES": 3049,
      "bey": 3050,
      "sorted": 3051,
      "board": 3052,
      "protocol": 3053,
      "problem": 3054,
      "alias": 3055,
      "Attributes": 3056,
      "branch": 3057,
      "fire": 3058,
      "concer": 3059,
      "neg": 3060,
      "memory": 3061,
      "give": 3062,
      "enter": 3063,
      "systems": 3064,
      "stderr": 3065,
      "WARRANTIES": 3066,
      "transaction": 3067,
      "vpc": 3068,
      "owner": 3069,
      "verbose": 3070,
      "bring": 3071,
      "snapshot": 3072,
      "partner": 3073,
      "constructor": 3074,
      "rb": 3075,
      "allows": 3076,
      "Auto": 3077,
      "breath": 3078,
      "dele": 3079,
      "Sequence": 3080,
      "regard": 3081,
      "ĠĠĠĠĠĠĠĠĠĠĠĠĠĠĠĠĠĠĠĠĠĠĠĠĠĠĠĠĠ": 3082,
      "iti": 3083,
      "company": 3084,
      "components": 3085,
      "seen": 3086,
      "heard": 3087,
      "logical": 3088,
      "attemp": 3089,
      "confid": 3090,
      "FF": 3091,
      "colle": 3092,
      "paces": 3093,
      "blob": 3094,
      "effect": 3095,
      "encour": 3096,
      "MS": 3097,
      "div": 3098,
      "Image": 3099,
      "seconds": 3100,
      "apped": 3101,
      "ned": 3102,
      "ctx": 3103,
      "destination": 3104,
      "obtain": 3105,
      "wom": 3106,
      "quot": 3107,
      "Net": 3108,
      "deeper": 3109,
      "Integer": 3110,
      "separ": 3111,
      "contains": 3112,
      "leading": 3113,
      "beyond": 3114,
      "oid": 3115,
      "inputs": 3116,
      "Note": 3117,
      "few": 3118,
      "saw": 3119,
      "vs": 3120,
      "solute": 3121,
      "pret": 3122,
      "elcome": 3123,
      "integer": 3124,
      "apply": 3125,
      "Ansible": 3126,
      "fre": 3127,
      "quality": 3128,
      "techniques": 3129,
      "unity": 3130,
      "eth": 3131,
      "byte": 3132,
      "sources": 3133,
      "Find": 3134,
      "Server": 3135,
      "augh": 3136,
      "turned": 3137,
      "tab": 3138,
      "inspi": 3139,
      "John": 3140,
      "Sam": 3141,
      "sleep": 3142,
      "modules": 3143,
      "navi": 3144,
      "grid": 3145,
      "dition": 3146,
      "Count": 3147,
      "progress": 3148,
      "iso": 3149,
      "Proper": 3150,
      "natural": 3151,
      "soft": 3152,
      "previous": 3153,
      "knowledge": 3154,
      "factory": 3155,
      "gorith": 3156,
      "startswith": 3157,
      "needs": 3158,
      "Manager": 3159,
      "Course": 3160,
      "spark": 3161,
      "ablish": 3162,
      "Delete": 3163,
      "virtual": 3164,
      "Each": 3165,
      "II": 3166,
      "noticed": 3167,
      "integr": 3168,
      "represent": 3169,
      "ansible": 3170,
      "filters": 3171,
      "tables": 3172,
      "training": 3173,
      "Title": 3174,
      "oose": 3175,
      "ĠĠĠĠĠĠĠĠĠĠĠĠĠĠĠĠĠĠĠĠĠĠĠĠĠĠĠĠĠĠĠ": 3176,
      "photo": 3177,
      "Our": 3178,
      "PROJECT": 3179,
      "OS": 3180,
      "Qt": 3181,
      "strugg": 3182,
      "warnings": 3183,
      "samples": 3184,
      "regular": 3185,
      "rich": 3186,
      "login": 3187,
      "services": 3188,
      "iny": 3189,
      "urllib": 3190,
      "JS": 3191,
      "atives": 3192,
      "PATH": 3193,
      "ube": 3194,
      "Valid": 3195,
      "Meta": 3196,
      "cc": 3197,
      "passion": 3198,
      "Fl": 3199,
      "adv": 3200,
      "arning": 3201,
      "answer": 3202,
      "Fil": 3203,
      "asing": 3204,
      "tx": 3205,
      "tempor": 3206,
      "thri": 3207,
      "requires": 3208,
      "tics": 3209,
      "ials": 3210,
      "MIT": 3211,
      "student": 3212,
      "bind": 3213,
      "squ": 3214,
      "elect": 3215,
      "products": 3216,
      "vest": 3217,
      "MO": 3218,
      "Wrap": 3219,
      "vities": 3220,
      "Ver": 3221,
      "arri": 3222,
      "prob": 3223,
      "seg": 3224,
      "containing": 3225,
      "defaults": 3226,
      "indent": 3227,
      "reser": 3228,
      "sense": 3229,
      "pn": 3230,
      "click": 3231,
      "Window": 3232,
      "associated": 3233,
      "LOG": 3234,
      "alph": 3235,
      "keyword": 3236,
      "states": 3237,
      "chunk": 3238,
      "depth": 3239,
      "usr": 3240,
      "CP": 3241,
      "aking": 3242,
      "imagine": 3243,
      "js": 3244,
      "dd": 3245,
      "area": 3246,
      "foster": 3247,
      "reason": 3248,
      "trying": 3249,
      "akes": 3250,
      "necessary": 3251,
      "audi": 3252,
      "ressed": 3253,
      "mission": 3254,
      "Output": 3255,
      "combin": 3256,
      "extension": 3257,
      "spite": 3258,
      "testing": 3259,
      "DATA": 3260,
      "Row": 3261,
      "aff": 3262,
      "sequ": 3263,
      "Ref": 3264,
      "coder": 3265,
      "prediction": 3266,
      "lookup": 3267,
      "Command": 3268,
      "Back": 3269,
      "stood": 3270,
      "csv": 3271,
      "preser": 3272,
      "animals": 3273,
      "desi": 3274,
      "PY": 3275,
      "ive": 3276,
      "relationships": 3277,
      "ummy": 3278,
      "doing": 3279,
      "scopes": 3280,
      "obser": 3281,
      "wx": 3282,
      "dif": 3283,
      "addr": 3284,
      "scan": 3285,
      "effe": 3286,
      "seq": 3287,
      "neigh": 3288,
      "reading": 3289,
      "System": 3290,
      "Stream": 3291,
      "extract": 3292,
      "despite": 3293,
      "interval": 3294,
      "delta": 3295,
      "reat": 3296,
      "dyn": 3297,
      "sparse": 3298,
      "perspec": 3299,
      "Unit": 3300,
      "exclu": 3301,
      "craf": 3302,
      "mapping": 3303,
      "Number": 3304,
      "dive": 3305,
      "regi": 3306,
      "vil": 3307,
      "connected": 3308,
      "hes": 3309,
      "push": 3310,
      "sition": 3311,
      "questions": 3312,
      "correspon": 3313,
      "zero": 3314,
      "really": 3315,
      "hor": 3316,
      "house": 3317,
      "liz": 3318,
      "dete": 3319,
      "proxy": 3320,
      "nt": 3321,
      "gent": 3322,
      "View": 3323,
      "sole": 3324,
      "Make": 3325,
      "athy": 3326,
      "Your": 3327,
      "fmt": 3328,
      "TIC": 3329,
      "basic": 3330,
      "pati": 3331,
      "reach": 3332,
      "pan": 3333,
      "avel": 3334,
      "equ": 3335,
      "improve": 3336,
      "Understanding": 3337,
      "views": 3338,
      "ctions": 3339,
      "adding": 3340,
      "attach": 3341,
      "GRO": 3342,
      "powerful": 3343,
      "Lily": 3344,
      "hab": 3345,
      "distribution": 3346,
      "SD": 3347,
      "ensor": 3348,
      "pages": 3349,
      "remin": 3350,
      "clai": 3351,
      "cele": 3352,
      "outside": 3353,
      "talk": 3354,
      "smo": 3355,
      "Pe": 3356,
      "Transport": 3357,
      "rist": 3358,
      "large": 3359,
      "Of": 3360,
      "commands": 3361,
      "Line": 3362,
      "callable": 3363,
      "loaded": 3364,
      "operator": 3365,
      "Widget": 3366,
      "sil": 3367,
      "meaning": 3368,
      "bot": 3369,
      "reverse": 3370,
      "player": 3371,
      "affect": 3372,
      "extend": 3373,
      "liance": 3374,
      "pread": 3375,
      "wall": 3376,
      "AAAA": 3377,
      "hasattr": 3378,
      "explained": 3379,
      "INTE": 3380,
      "Apa": 3381,
      "Apache": 3382,
      "contents": 3383,
      "Implemented": 3384,
      "ourselves": 3385,
      "corpor": 3386,
      "FILE": 3387,
      "licit": 3388,
      "pository": 3389,
      "KIND": 3390,
      "arth": 3391,
      "evel": 3392,
      "Task": 3393,
      "css": 3394,
      "inher": 3395,
      "Their": 3396,
      "via": 3397,
      "BU": 3398,
      "dai": 3399,
      "nel": 3400,
      "img": 3401,
      "eq": 3402,
      "song": 3403,
      "prin": 3404,
      "Example": 3405,
      "signal": 3406,
      "UB": 3407,
      "spirit": 3408,
      "lose": 3409,
      "Parser": 3410,
      "ypes": 3411,
      "crucial": 3412,
      "strings": 3413,
      "font": 3414,
      "plt": 3415,
      "practice": 3416,
      "behavior": 3417,
      "Foreign": 3418,
      "USE": 3419,
      "bon": 3420,
      "slow": 3421,
      "NotImplemented": 3422,
      "weights": 3423,
      "condition": 3424,
      "IC": 3425,
      "maybe": 3426,
      "tificate": 3427,
      "happened": 3428,
      "Fact": 3429,
      "warning": 3430,
      "precated": 3431,
      "Fi": 3432,
      "Product": 3433,
      "mix": 3434,
      "SH": 3435,
      "Foundation": 3436,
      "rout": 3437,
      "flatten": 3438,
      "lict": 3439,
      "straint": 3440,
      "GROUP": 3441,
      "argv": 3442,
      "apache": 3443,
      "amaz": 3444,
      "updated": 3445,
      "span": 3446,
      "normal": 3447,
      "nor": 3448,
      "JSON": 3449,
      "incredi": 3450,
      "screen": 3451,
      "modern": 3452,
      "uly": 3453,
      "myself": 3454,
      "pid": 3455,
      "subprocess": 3456,
      "effi": 3457,
      "seed": 3458,
      "authenti": 3459,
      "LOC": 3460,
      "Label": 3461,
      "tives": 3462,
      "insights": 3463,
      "dimen": 3464,
      "dream": 3465,
      "perfect": 3466,
      "importance": 3467,
      "eved": 3468,
      "activities": 3469,
      "suf": 3470,
      "Tok": 3471,
      "ray": 3472,
      "cool": 3473,
      "absolute": 3474,
      "dire": 3475,
      "AWS": 3476,
      "CHAN": 3477,
      "prior": 3478,
      "âĢľ": 3479,
      "INTEGER": 3480,
      "vars": 3481,
      "numbers": 3482,
      "collect": 3483,
      "Tests": 3484,
      "Job": 3485,
      "ribe": 3486,
      "CLI": 3487,
      "temper": 3488,
      "standard": 3489,
      "anner": 3490,
      "saf": 3491,
      "sou": 3492,
      "ĠĠĠĠĠĠĠĠĠĠĠĠĠĠĠĠĠĠĠĠĠĠĠĠĠĠĠĠĠĠĠĠĠ": 3493,
      "controls": 3494,
      "repe": 3495,
      "limitations": 3496,
      "occur": 3497,
      "âĢĿ": 3498,
      "GL": 3499,
      "quiet": 3500,
      "capt": 3501,
      "enge": 3502,
      "choice": 3503,
      "Project": 3504,
      "Mon": 3505,
      "acl": 3506,
      "looking": 3507,
      "cultural": 3508,
      "gRPC": 3509,
      "fab": 3510,
      "went": 3511,
      "humans": 3512,
      "payload": 3513,
      "entries": 3514,
      "alled": 3515,
      "Meth": 3516,
      "hear": 3517,
      "soon": 3518,
      "rights": 3519,
      "annot": 3520,
      "useful": 3521,
      "Free": 3522,
      "TODO": 3523,
      "gain": 3524,
      "GET": 3525,
      "FIT": 3526,
      "supp": 3527,
      "Here": 3528,
      "wild": 3529,
      "button": 3530,
      "inno": 3531,
      "catch": 3532,
      "piece": 3533,
      "cially": 3534,
      "Resource": 3535,
      "approach": 3536,
      "ists": 3537,
      "applicable": 3538,
      "expr": 3539,
      "SO": 3540,
      "acc": 3541,
      "herself": 3542,
      "MER": 3543,
      "illi": 3544,
      "ForeignKey": 3545,
      "controll": 3546,
      "actually": 3547,
      "cape": 3548,
      "parents": 3549,
      "Iter": 3550,
      "double": 3551,
      "SP": 3552,
      "alization": 3553,
      "entire": 3554,
      "ried": 3555,
      "sv": 3556,
      "Start": 3557,
      "exactly": 3558,
      "guid": 3559,
      "customer": 3560,
      "rol": 3561,
      "aper": 3562,
      "daily": 3563,
      "God": 3564,
      "COND": 3565,
      "fd": 3566,
      "docs": 3567,
      "estim": 3568,
      "meas": 3569,
      "colors": 3570,
      "written": 3571,
      "statement": 3572,
      "instru": 3573,
      "backend": 3574,
      "CAP": 3575,
      "additional": 3576,
      "amid": 3577,
      "selected": 3578,
      "setUp": 3579,
      "protect": 3580,
      "escape": 3581,
      "lots": 3582,
      "usage": 3583,
      "takes": 3584,
      "diffic": 3585,
      "cryp": 3586,
      "white": 3587,
      "consu": 3588,
      "records": 3589,
      "tivity": 3590,
      "agg": 3591,
      "notice": 3592,
      "faces": 3593,
      "encies": 3594,
      "Next": 3595,
      "wide": 3596,
      "Session": 3597,
      "ush": 3598,
      "Requi": 3599,
      "Pri": 3600,
      "lli": 3601,
      "expand": 3602,
      "appropri": 3603,
      "communication": 3604,
      "pite": 3605,
      "facts": 3606,
      "friendly": 3607,
      "OUT": 3608,
      "Ne": 3609,
      "license": 3610,
      "spo": 3611,
      "quote": 3612,
      "tz": 3613,
      "Despite": 3614,
      "materials": 3615,
      "unknown": 3616,
      "ĠĠĠĠĠĠĠĠĠĠĠĠĠĠĠĠĠĠĠĠĠĠĠĠĠĠĠĠĠĠ": 3617,
      "Filter": 3618,
      "ys": 3619,
      "HE": 3620,
      "finding": 3621,
      "Options": 3622,
      "helped": 3623,
      "cording": 3624,
      "los": 3625,
      "places": 3626,
      "Source": 3627,
      "CONT": 3628,
      "classmethod": 3629,
      "subject": 3630,
      "historical": 3631,
      "machine": 3632,
      "summary": 3633,
      "walk": 3634,
      "abilities": 3635,
      "Environ": 3636,
      "adap": 3637,
      "hex": 3638,
      "onto": 3639,
      "algorith": 3640,
      "lost": 3641,
      "faced": 3642,
      "diverse": 3643,
      "period": 3644,
      "Boo": 3645,
      "EV": 3646,
      "touch": 3647,
      "pipeline": 3648,
      "monit": 3649,
      "ki": 3650,
      "DataFrame": 3651,
      "ORT": 3652,
      "topic": 3653,
      "pkg": 3654,
      "performance": 3655,
      "AUT": 3656,
      "DIR": 3657,
      "recent": 3658,
      "consist": 3659,
      "attention": 3660,
      "Entry": 3661,
      "governing": 3662,
      "adventure": 3663,
      "PRE": 3664,
      "inj": 3665,
      "verify": 3666,
      "truly": 3667,
      "processing": 3668,
      "celebr": 3669,
      "ipv": 3670,
      "gui": 3671,
      "Tod": 3672,
      "ities": 3673,
      "deserializ": 3674,
      "treat": 3675,
      "cand": 3676,
      "Even": 3677,
      "UD": 3678,
      "wd": 3679,
      "temporary": 3680,
      "psy": 3681,
      "compu": 3682,
      "menu": 3683,
      "exer": 3684,
      "cannot": 3685,
      "Multi": 3686,
      "SMALL": 3687,
      "compliance": 3688,
      "week": 3689,
      "onym": 3690,
      "transl": 3691,
      "radi": 3692,
      "issue": 3693,
      "ring": 3694,
      "anced": 3695,
      "sli": 3696,
      "ously": 3697,
      "laugh": 3698,
      "Licensed": 3699,
      "reduce": 3700,
      "internal": 3701,
      "voc": 3702,
      "Box": 3703,
      "traditional": 3704,
      "empathy": 3705,
      "WITH": 3706,
      "anything": 3707,
      "surpri": 3708,
      "Tuple": 3709,
      "introdu": 3710,
      "challenge": 3711,
      "OK": 3712,
      "provider": 3713,
      "MAT": 3714,
      "sted": 3715,
      "Parse": 3716,
      "ancient": 3717,
      "versions": 3718,
      "Tree": 3719,
      "Dat": 3720,
      "ĉĉĉĉĉ": 3721,
      "Finally": 3722,
      "sound": 3723,
      "eager": 3724,
      "Indi": 3725,
      "Down": 3726,
      "Token": 3727,
      "ws": 3728,
      "ining": 3729,
      "anx": 3730,
      "rought": 3731,
      "LIMIT": 3732,
      "collabor": 3733,
      "rup": 3734,
      "aster": 3735,
      "Account": 3736,
      "NotImplementedError": 3737,
      "nothing": 3738,
      "lite": 3739,
      "firm": 3740,
      "Mark": 3741,
      "espe": 3742,
      "metrics": 3743,
      "Descrip": 3744,
      "artic": 3745,
      "cm": 3746,
      "ards": 3747,
      "published": 3748,
      "lier": 3749,
      "ased": 3750,
      "knowing": 3751,
      "iterator": 3752,
      "culture": 3753,
      "reset": 3754,
      "early": 3755,
      "profession": 3756,
      "lan": 3757,
      "uro": 3758,
      "sche": 3759,
      "optim": 3760,
      "poll": 3761,
      "icon": 3762,
      "End": 3763,
      "helpers": 3764,
      "assertFalse": 3765,
      "istic": 3766,
      "Today": 3767,
      "band": 3768,
      "frequ": 3769,
      "ULL": 3770,
      "suggest": 3771,
      "emer": 3772,
      "override": 3773,
      "center": 3774,
      "geo": 3775,
      "ago": 3776,
      "Docu": 3777,
      "enabled": 3778,
      "creation": 3779,
      "pand": 3780,
      "disk": 3781,
      "ordinary": 3782,
      "sho": 3783,
      "Jam": 3784,
      "encounter": 3785,
      "chan": 3786,
      "external": 3787,
      "Then": 3788,
      "aware": 3789,
      "gith": 3790,
      "switch": 3791,
      "dy": 3792,
      "comple": 3793,
      "idea": 3794,
      "opportunities": 3795,
      "Mat": 3796,
      "iam": 3797,
      "ball": 3798,
      "targets": 3799,
      "iness": 3800,
      "avoid": 3801,
      "tenant": 3802,
      "scienti": 3803,
      "particip": 3804,
      "Vari": 3805,
      "Operation": 3806,
      "iosity": 3807,
      "sav": 3808,
      "ITIONS": 3809,
      "levels": 3810,
      "Map": 3811,
      "Together": 3812,
      "alpha": 3813,
      "enth": 3814,
      "curiosity": 3815,
      "symp": 3816,
      "movi": 3817,
      "Benny": 3818,
      "resili": 3819,
      "moments": 3820,
      "especially": 3821,
      "dup": 3822,
      "ited": 3823,
      "Header": 3824,
      "organization": 3825,
      "BAS": 3826,
      "etc": 3827,
      "dialog": 3828,
      "cepts": 3829,
      "wrong": 3830,
      "identify": 3831,
      "Tensor": 3832,
      "github": 3833,
      "GHT": 3834,
      "Page": 3835,
      "generated": 3836,
      "pet": 3837,
      "partition": 3838,
      "BUT": 3839,
      "STR": 3840,
      "onymous": 3841,
      "appreciate": 3842,
      "NESS": 3843,
      "himself": 3844,
      "cks": 3845,
      "Simple": 3846,
      "forts": 3847,
      "stration": 3848,
      "dam": 3849,
      "rf": 3850,
      "TIME": 3851,
      "Custom": 3852,
      "sym": 3853,
      "nan": 3854,
      "artist": 3855,
      "bri": 3856,
      "tokens": 3857,
      "typ": 3858,
      "erson": 3859,
      "SET": 3860,
      "Instead": 3861,
      "ITAL": 3862,
      "Async": 3863,
      "itation": 3864,
      "tra": 3865,
      "mtls": 3866,
      "Author": 3867,
      "ology": 3868,
      "managed": 3869,
      "Lay": 3870,
      "ront": 3871,
      "During": 3872,
      "CONDITIONS": 3873,
      "Deci": 3874,
      "Ext": 3875,
      "deprecated": 3876,
      "tru": 3877,
      "lt": 3878,
      "exam": 3879,
      "Channel": 3880,
      "activity": 3881,
      "AM": 3882,
      "altern": 3883,
      "reflect": 3884,
      "pieces": 3885,
      "BASIS": 3886,
      "grade": 3887,
      "Retry": 3888,
      "Big": 3889,
      "spread": 3890,
      "whenever": 3891,
      "management": 3892,
      "overall": 3893,
      "resilience": 3894,
      "amidst": 3895,
      "bed": 3896,
      "explor": 3897,
      "resid": 3898,
      "defini": 3899,
      "ä»": 3900,
      "relative": 3901,
      "Every": 3902,
      "ges": 3903,
      "Proto": 3904,
      "thinking": 3905,
      "brought": 3906,
      "rev": 3907,
      "conflict": 3908,
      "cv": 3909,
      "CLIENT": 3910,
      "practices": 3911,
      "bul": 3912,
      "getting": 3913,
      "appropriate": 3914,
      "utes": 3915,
      "shift": 3916,
      "writer": 3917,
      "matches": 3918,
      "Web": 3919,
      "simply": 3920,
      "templ": 3921,
      "belief": 3922,
      "protobuf": 3923,
      "cam": 3924,
      "ise": 3925,
      "ising": 3926,
      "eter": 3927,
      "stre": 3928,
      "efforts": 3929,
      "surround": 3930,
      "CAPITAL": 3931,
      "PUR": 3932,
      "Show": 3933,
      "bust": 3934,
      "precision": 3935,
      "MET": 3936,
      "und": 3937,
      "allowing": 3938,
      "critical": 3939,
      "PARTIC": 3940,
      "VALU": 3941,
      "sad": 3942,
      "predictions": 3943,
      "aspects": 3944,
      "na": 3945,
      "assertEquals": 3946,
      "average": 3947,
      "sely": 3948,
      "whel": 3949,
      "technology": 3950,
      "curious": 3951,
      "More": 3952,
      "peace": 3953,
      "indic": 3954,
      "Process": 3955,
      "coded": 3956,
      "POSE": 3957,
      "component": 3958,
      "MERCHAN": 3959,
      "await": 3960,
      "umbled": 3961,
      "java": 3962,
      "distribute": 3963,
      "invest": 3964,
      "Est": 3965,
      "dirname": 3966,
      "align": 3967,
      "FITNESS": 3968,
      "stage": 3969,
      "execut": 3970,
      "challenging": 3971,
      "prefer": 3972,
      "distance": 3973,
      "ULAR": 3974,
      "gam": 3975,
      "contrib": 3976,
      "Len": 3977,
      "inf": 3978,
      "MERCHANTAB": 3979,
      "tract": 3980,
      "concept": 3981,
      "wis": 3982,
      "Les": 3983,
      "HTML": 3984,
      "Dir": 3985,
      "EC": 3986,
      "race": 3987,
      "AGE": 3988,
      "offer": 3989,
      "redirect": 3990,
      "strict": 3991,
      "PURPOSE": 3992,
      "Post": 3993,
      "tit": 3994,
      "circ": 3995,
      "fru": 3996,
      "Warning": 3997,
      "reve": 3998,
      "links": 3999,
      "Ru": 4000,
      "Sto": 4001,
      "anger": 4002,
      "benef": 4003,
      "Pack": 4004,
      "Why": 4005,
      "ina": 4006,
      "sib": 4007,
      "Sometimes": 4008,
      "quite": 4009,
      "PARTICULAR": 4010,
      "Liter": 4011,
      "pain": 4012,
      "Mari": 4013,
      "selection": 4014,
      "believe": 4015,
      "fabric": 4016,
      "AG": 4017,
      "NotFound": 4018,
      "TR": 4019,
      "Welcome": 4020,
      "bs": 4021,
      "Select": 4022,
      "Button": 4023,
      "season": 4024,
      "agent": 4025,
      "demon": 4026,
      "edge": 4027,
      "therap": 4028,
      "helping": 4029,
      "Parameters": 4030,
      "strategies": 4031,
      "flattened": 4032,
      "VI": 4033,
      "gently": 4034,
      "clim": 4035,
      "magic": 4036,
      "va": 4037,
      "incredible": 4038,
      "devices": 4039,
      "signature": 4040,
      "provides": 4041,
      "haps": 4042,
      "Emi": 4043,
      "easy": 4044,
      "units": 4045,
      "contact": 4046,
      "izer": 4047,
      "quickly": 4048,
      "inspir": 4049,
      "utions": 4050,
      "listen": 4051,
      "LS": 4052,
      "eco": 4053,
      "regarding": 4054,
      "pd": 4055,
      "itself": 4056,
      "documentation": 4057,
      "alle": 4058,
      "INE": 4059,
      "Property": 4060,
      "Mem": 4061,
      "enh": 4062,
      "predict": 4063,
      "drop": 4064,
      "MERCHANTABILITY": 4065,
      "cond": 4066,
      "happy": 4067,
      "Decimal": 4068,
      "paint": 4069,
      "bigquery": 4070,
      "ees": 4071,
      "subclass": 4072,
      "chapter": 4073,
      "Christ": 4074,
      "CA": 4075,
      "echo": 4076,
      "dim": 4077,
      "istics": 4078,
      "rain": 4079,
      "Format": 4080,
      "Emily": 4081,
      "Wr": 4082,
      "VE": 4083,
      "whose": 4084,
      "DateTime": 4085,
      "describe": 4086,
      "green": 4087,
      "INFO": 4088,
      "ulate": 4089,
      "internet": 4090,
      "popular": 4091,
      "posed": 4092,
      "loader": 4093,
      "Sim": 4094,
      "accept": 4095,
      "cally": 4096,
      "compati": 4097,
      "responses": 4098,
      "regex": 4099,
      "incorpor": 4100,
      "tex": 4101,
      "hostname": 4102,
      "least": 4103,
      "spent": 4104,
      "appear": 4105,
      "Dist": 4106,
      "POST": 4107,
      "sig": 4108,
      "astic": 4109,
      "ancel": 4110,
      "whole": 4111,
      "Policy": 4112,
      "BE": 4113,
      "sitive": 4114,
      "authors": 4115,
      "Close": 4116,
      "usi": 4117,
      "brain": 4118,
      "stronger": 4119,
      "ert": 4120,
      "wrapper": 4121,
      "replic": 4122,
      "NS": 4123,
      "copyright": 4124,
      "society": 4125,
      "denly": 4126,
      "influence": 4127,
      "river": 4128,
      "Before": 4129,
      "parsed": 4130,
      "Function": 4131,
      "grand": 4132,
      "cas": 4133,
      "je": 4134,
      "detail": 4135,
      "leaving": 4136,
      "vals": 4137,
      "anyone": 4138,
      "Method": 4139,
      "acity": 4140,
      "vector": 4141,
      "Point": 4142,
      "pyl": 4143,
      "American": 4144,
      "suffix": 4145,
      "certificate": 4146,
      "ImportError": 4147,
      "NULL": 4148,
      "almost": 4149,
      "ticing": 4150,
      "conversation": 4151,
      "pg": 4152,
      "failure": 4153,
      "mir": 4154,
      "vibr": 4155,
      "constru": 4156,
      "seek": 4157,
      "bits": 4158,
      "emotional": 4159,
      "embed": 4160,
      "DATE": 4161,
      "Conver": 4162,
      "XML": 4163,
      "trl": 4164,
      "wers": 4165,
      "centur": 4166,
      "ince": 4167,
      "tiv": 4168,
      "secure": 4169,
      "cfg": 4170,
      "Earth": 4171,
      "dynam": 4172,
      "hop": 4173,
      "greater": 4174,
      "cb": 4175,
      "sentry": 4176,
      "Callable": 4177,
      "negative": 4178,
      "assu": 4179,
      "latest": 4180,
      "jobs": 4181,
      "Param": 4182,
      "heat": 4183,
      "ROR": 4184,
      "boolean": 4185,
      "ABLE": 4186,
      "fair": 4187,
      "trip": 4188,
      "decision": 4189,
      "era": 4190,
      "hal": 4191,
      "tensorflow": 4192,
      "ctively": 4193,
      "Bl": 4194,
      "eno": 4195,
      "ha": 4196,
      "stumbled": 4197,
      "alone": 4198,
      "fear": 4199,
      "phone": 4200,
      "beauty": 4201,
      "installed": 4202,
      "GO": 4203,
      "upper": 4204,
      "roo": 4205,
      "POINT": 4206,
      "experiment": 4207,
      "wind": 4208,
      "Inc": 4209,
      "mony": 4210,
      "surface": 4211,
      "constraint": 4212,
      "ality": 4213,
      "deeply": 4214,
      "urt": 4215,
      "Pass": 4216,
      "paper": 4217,
      "maximum": 4218,
      "Http": 4219,
      "SION": 4220,
      "roles": 4221,
      "maj": 4222,
      "compo": 4223,
      "polymer": 4224,
      "MAX": 4225,
      "sky": 4226,
      "difference": 4227,
      "games": 4228,
      "ville": 4229,
      "Min": 4230,
      "worked": 4231,
      "enthusi": 4232,
      "dent": 4233,
      "serve": 4234,
      "aren": 4235,
      "realm": 4236,
      "ERROR": 4237,
      "card": 4238,
      "eye": 4239,
      "carefully": 4240,
      "atom": 4241,
      "els": 4242,
      "manage": 4243,
      "analysis": 4244,
      "deleted": 4245,
      "Book": 4246,
      "kids": 4247,
      "ison": 4248,
      "DS": 4249,
      "specifi": 4250,
      "magical": 4251,
      "xture": 4252,
      "Mean": 4253,
      "dag": 4254,
      "ux": 4255,
      "comb": 4256,
      "vey": 4257,
      "outputs": 4258,
      "problems": 4259,
      "comfort": 4260,
      "ĠĠĠĠĠĠĠĠĠĠĠĠĠĠĠĠĠĠĠĠĠĠĠĠĠĠĠĠĠĠĠĠĠĠĠ": 4261,
      "Har": 4262,
      "repository": 4263,
      "fellow": 4264,
      "discovery": 4265,
      "demonstr": 4266,
      "fac": 4267,
      "sha": 4268,
      "frag": 4269,
      "ensuring": 4270,
      "compass": 4271,
      "ports": 4272,
      "Parameter": 4273,
      "classi": 4274,
      "minim": 4275,
      "exec": 4276,
      "desired": 4277,
      "Jamie": 4278,
      "Graph": 4279,
      "decl": 4280,
      "define": 4281,
      "hands": 4282,
      "lers": 4283,
      "mole": 4284,
      "atter": 4285,
      "Don": 4286,
      "Link": 4287,
      "bus": 4288,
      "angle": 4289,
      "dark": 4290,
      "underlying": 4291,
      "waiting": 4292,
      "Maybe": 4293,
      "merge": 4294,
      "stress": 4295,
      "evol": 4296,
      "MENT": 4297,
      "four": 4298,
      "scription": 4299,
      "href": 4300,
      "Template": 4301,
      "seeking": 4302,
      "Sign": 4303,
      "Who": 4304,
      "wit": 4305,
      "prepare": 4306,
      "played": 4307,
      "successful": 4308,
      "ife": 4309,
      "directly": 4310,
      "embracing": 4311,
      "LD": 4312,
      "Enable": 4313,
      "quota": 4314,
      "healthy": 4315,
      "science": 4316,
      "ancing": 4317,
      "Other": 4318,
      "material": 4319,
      "hosts": 4320,
      "Factory": 4321,
      "agree": 4322,
      "ĠĠĠĠĠĠĠĠĠĠĠĠĠĠĠĠĠĠĠĠĠĠĠĠĠĠĠĠĠĠĠĠĠĠ": 4323,
      "generator": 4324,
      "Ms": 4325,
      "sep": 4326,
      "depart": 4327,
      "immedi": 4328,
      "micro": 4329,
      "notes": 4330,
      "closed": 4331,
      "below": 4332,
      "dst": 4333,
      "accur": 4334,
      "ativity": 4335,
      "WARE": 4336,
      "dumps": 4337,
      "starting": 4338,
      "ORDER": 4339,
      "Am": 4340,
      "Anonymous": 4341,
      "algorithm": 4342,
      "Introdu": 4343,
      "gets": 4344,
      "inspired": 4345,
      "Coun": 4346,
      "creatures": 4347,
      "figure": 4348,
      "Serializ": 4349,
      "packages": 4350,
      "xxxxxxxx": 4351,
      "factor": 4352,
      "locations": 4353,
      "Rel": 4354,
      "blocks": 4355,
      "yes": 4356,
      "decor": 4357,
      "belong": 4358,
      "Access": 4359,
      "plants": 4360,
      "contribute": 4361,
      "dirs": 4362,
      "ably": 4363,
      "permission": 4364,
      "structures": 4365,
      "identifier": 4366,
      "Search": 4367,
      "oney": 4368,
      "sect": 4369,
      "Conclusion": 4370,
      "Em": 4371,
      "mk": 4372,
      "sust": 4373,
      "ips": 4374,
      "offi": 4375,
      "ifest": 4376,
      "generations": 4377,
      "travel": 4378,
      "growing": 4379,
      "cost": 4380,
      "urls": 4381,
      "Wrapper": 4382,
      "moving": 4383,
      "comfor": 4384,
      "princip": 4385,
      "Target": 4386,
      "otherwise": 4387,
      "bodies": 4388,
      "raised": 4389,
      "ideas": 4390,
      "Metadata": 4391,
      "middle": 4392,
      "tiny": 4393,
      "enumer": 4394,
      "Document": 4395,
      "relationship": 4396,
      "cross": 4397,
      "graphy": 4398,
      "WARRANTY": 4399,
      "smi": 4400,
      "uck": 4401,
      "months": 4402,
      "prevent": 4403,
      "taught": 4404,
      "symbols": 4405,
      "situations": 4406,
      "speed": 4407,
      "stubs": 4408,
      "compare": 4409,
      "pen": 4410,
      "factors": 4411,
      "Block": 4412,
      "mas": 4413,
      "suit": 4414,
      "datastore": 4415,
      "blue": 4416,
      "higher": 4417,
      "IntegerField": 4418,
      "controller": 4419,
      "pandas": 4420,
      "NE": 4421,
      "Reference": 4422,
      "loads": 4423,
      "fai": 4424,
      "fresh": 4425,
      "education": 4426,
      "Boolean": 4427,
      "worker": 4428,
      "told": 4429,
      "retries": 4430,
      "deploy": 4431,
      "older": 4432,
      "native": 4433,
      "cd": 4434,
      "gence": 4435,
      "indu": 4436,
      "itude": 4437,
      "families": 4438,
      "dates": 4439,
      "ition": 4440,
      "Dep": 4441,
      "Abstract": 4442,
      "Mix": 4443,
      "wisdom": 4444,
      "Syn": 4445,
      "spot": 4446,
      "Stud": 4447,
      "pylint": 4448,
      "dl": 4449,
      "People": 4450,
      "ified": 4451,
      "Vis": 4452,
      "longer": 4453,
      "implementation": 4454,
      "exerci": 4455,
      "Variable": 4456,
      "gateway": 4457,
      "temperature": 4458,
      "hood": 4459,
      "stone": 4460,
      "cos": 4461,
      "adjust": 4462,
      "lists": 4463,
      "background": 4464,
      "Design": 4465,
      "conv": 4466,
      "acticing": 4467,
      "CI": 4468,
      "retri": 4469,
      "constants": 4470,
      "hero": 4471,
      "DESC": 4472,
      "specify": 4473,
      "fname": 4474,
      "rv": 4475,
      "conven": 4476,
      "FORMAT": 4477,
      "excited": 4478,
      "Euro": 4479,
      "Car": 4480,
      "eg": 4481,
      "tar": 4482,
      "Remove": 4483,
      "łģ": 4484,
      "ingly": 4485,
      "mechan": 4486,
      "Protocol": 4487,
      "party": 4488,
      "minutes": 4489,
      "solutions": 4490,
      "held": 4491,
      "conclusion": 4492,
      "habit": 4493,
      "Device": 4494,
      "Children": 4495,
      "layers": 4496,
      "shapes": 4497,
      "TER": 4498,
      "git": 4499,
      "çłģ": 4500,
      "development": 4501,
      "trees": 4502,
      "atic": 4503,
      "unpack": 4504,
      "Exp": 4505,
      "areas": 4506,
      "sqlite": 4507,
      "router": 4508,
      "extensions": 4509,
      "arm": 4510,
      "aml": 4511,
      "SSL": 4512,
      "Database": 4513,
      "Think": 4514,
      "closer": 4515,
      "harm": 4516,
      "maintaining": 4517,
      "examples": 4518,
      "amazing": 4519,
      "prev": 4520,
      "Tom": 4521,
      "sounds": 4522,
      "choose": 4523,
      "unary": 4524,
      "reshold": 4525,
      "explicit": 4526,
      "govern": 4527,
      "ĠĠĠĠĠĠĠĠĠĠĠĠĠĠĠĠĠĠĠĠĠĠĠĠĠĠĠĠĠĠĠĠĠĠĠĠĠĠĠĠ": 4528,
      "bene": 4529,
      "Mid": 4530,
      "cher": 4531,
      "curren": 4532,
      "asking": 4533,
      "processes": 4534,
      "AnonymousCredentials": 4535,
      "Queue": 4536,
      "moved": 4537,
      "Required": 4538,
      "Literal": 4539,
      "DA": 4540,
      "Match": 4541,
      "ARY": 4542,
      "courage": 4543,
      "registry": 4544,
      "cultures": 4545,
      "USER": 4546,
      "collections": 4547,
      "gir": 4548,
      "nd": 4549,
      "codes": 4550,
      "differences": 4551,
      "COL": 4552,
      "cases": 4553,
      "landsc": 4554,
      "modified": 4555,
      "Option": 4556,
      "lands": 4557,
      "XT": 4558,
      "ana": 4559,
      "replied": 4560,
      "snow": 4561,
      "Sk": 4562,
      "schedu": 4563,
      "licate": 4564,
      "Load": 4565,
      "ditionally": 4566,
      "Look": 4567,
      "ahead": 4568,
      "stored": 4569,
      "aining": 4570,
      "orders": 4571,
      "elem": 4572,
      "policies": 4573,
      "pag": 4574,
      "inc": 4575,
      "handling": 4576,
      "cup": 4577,
      "Last": 4578,
      "lev": 4579,
      "dead": 4580,
      "rot": 4581,
      "Network": 4582,
      "iler": 4583,
      "distin": 4584,
      "Throughout": 4585,
      "launch": 4586,
      "resist": 4587,
      "ools": 4588,
      "spaces": 4589,
      "cii": 4590,
      "Hook": 4591,
      "oth": 4592,
      "libraries": 4593,
      "surprise": 4594,
      "Indent": 4595,
      "providing": 4596,
      "AUTH": 4597,
      "approached": 4598,
      "involved": 4599,
      "aggreg": 4600,
      "mately": 4601,
      "topics": 4602,
      "dense": 4603,
      "memories": 4604,
      "perspectives": 4605,
      "wo": 4606,
      "World": 4607,
      "lik": 4608,
      "proc": 4609,
      "compe": 4610,
      "compassion": 4611,
      "causing": 4612,
      "PUT": 4613,
      "leave": 4614,
      "redistribute": 4615,
      "reader": 4616,
      "airflow": 4617,
      "lineno": 4618,
      "according": 4619,
      "subst": 4620,
      "Stack": 4621,
      "countless": 4622,
      "KeyError": 4623,
      "StringIO": 4624,
      "warr": 4625,
      "calculate": 4626,
      "IF": 4627,
      "removed": 4628,
      "Only": 4629,
      "cro": 4630,
      "plann": 4631,
      "experienced": 4632,
      "cookie": 4633,
      "traceback": 4634,
      "determination": 4635,
      "changing": 4636,
      "dtypes": 4637,
      "assist": 4638,
      "meant": 4639,
      "aste": 4640,
      "CONF": 4641,
      "fostering": 4642,
      "corresponding": 4643,
      "Right": 4644,
      "cached": 4645,
      "road": 4646,
      "Additionally": 4647,
      "letter": 4648,
      "nod": 4649,
      "employees": 4650,
      "ral": 4651,
      "Union": 4652,
      "Europe": 4653,
      "CR": 4654,
      "sud": 4655,
      "truth": 4656,
      "Core": 4657,
      "Ke": 4658,
      "concepts": 4659,
      "establish": 4660,
      "involves": 4661,
      "browser": 4662,
      "partial": 4663,
      "forest": 4664,
      "VERSION": 4665,
      "bun": 4666,
      "ĠĠĠĠĠĠĠĠĠĠĠĠĠĠĠĠĠĠĠĠĠĠĠĠĠĠĠĠĠĠĠĠĠĠĠĠĠĠĠ": 4667,
      "enumerate": 4668,
      "nb": 4669,
      "whis": 4670,
      "Lu": 4671,
      "embark": 4672,
      "lid": 4673,
      "gnu": 4674,
      "concerns": 4675,
      "gger": 4676,
      "tement": 4677,
      "diag": 4678,
      "speech": 4679,
      "ServiceClient": 4680,
      "moun": 4681,
      "coordin": 4682,
      "however": 4683,
      "talking": 4684,
      "implemented": 4685,
      "ln": 4686,
      "ieve": 4687,
      "significantly": 4688,
      "difficult": 4689,
      "weet": 4690,
      "bling": 4691,
      "dimension": 4692,
      "Identi": 4693,
      "LL": 4694,
      "duration": 4695,
      "slice": 4696,
      "tun": 4697,
      "Day": 4698,
      "narr": 4699,
      "invoice": 4700,
      "Stor": 4701,
      "Array": 4702,
      "formats": 4703,
      "Contain": 4704,
      "conversations": 4705,
      "mers": 4706,
      "famous": 4707,
      "apis": 4708,
      "apps": 4709,
      "Examples": 4710,
      "pict": 4711,
      "strange": 4712,
      "listening": 4713,
      "OFT": 4714,
      "effici": 4715,
      "Introduction": 4716,
      "lon": 4717,
      "submit": 4718,
      "wrapped": 4719,
      "MM": 4720,
      "Sch": 4721,
      "Sup": 4722,
      "roy": 4723,
      "sibility": 4724,
      "intric": 4725,
      "Ã©": 4726,
      "reached": 4727,
      "diversity": 4728,
      "heav": 4729,
      "included": 4730,
      "updates": 4731,
      "Cer": 4732,
      "Ctrl": 4733,
      "sessions": 4734,
      "ACT": 4735,
      "GS": 4736,
      "dummy": 4737,
      "resses": 4738,
      "worth": 4739,
      "worry": 4740,
      "black": 4741,
      "guide": 4742,
      "sequences": 4743,
      "Cap": 4744,
      "dear": 4745,
      "supports": 4746,
      "ribut": 4747,
      "perhaps": 4748,
      "digital": 4749,
      "Host": 4750,
      "OP": 4751,
      "Vol": 4752,
      "ffe": 4753,
      "staff": 4754,
      "tition": 4755,
      "achieve": 4756,
      "Hist": 4757,
      "gender": 4758,
      "fulness": 4759,
      "women": 4760,
      "ba": 4761,
      "documents": 4762,
      "compan": 4763,
      "camp": 4764,
      "åı": 4765,
      "fight": 4766,
      "sian": 4767,
      "taken": 4768,
      "RIGHT": 4769,
      "Scal": 4770,
      "Recor": 4771,
      "appreciation": 4772,
      "representing": 4773,
      "guidance": 4774,
      "gt": 4775,
      "quanti": 4776,
      "packet": 4777,
      "Matrix": 4778,
      "Gui": 4779,
      "Sec": 4780,
      "MPL": 4781,
      "ama": 4782,
      "Interface": 4783,
      "Meanwhile": 4784,
      "Current": 4785,
      "attempt": 4786,
      "practicing": 4787,
      "cycle": 4788,
      "journal": 4789,
      "vibrant": 4790,
      "rit": 4791,
      "recomm": 4792,
      "giving": 4793,
      "environmental": 4794,
      "national": 4795,
      "arge": 4796,
      "scheme": 4797,
      "MIN": 4798,
      "ju": 4799,
      "conom": 4800,
      "mother": 4801,
      "deri": 4802,
      "resolve": 4803,
      "Jack": 4804,
      "shell": 4805,
      "ongo": 4806,
      "atio": 4807,
      "usual": 4808,
      "gue": 4809,
      "grew": 4810,
      "kindness": 4811,
      "Storage": 4812,
      "DF": 4813,
      "assertIn": 4814,
      "sustain": 4815,
      "excitement": 4816,
      "siz": 4817,
      "weeks": 4818,
      "spanner": 4819,
      "Although": 4820,
      "SOFT": 4821,
      "cha": 4822,
      "forget": 4823,
      "sd": 4824,
      "nearby": 4825,
      "warran": 4826,
      "independ": 4827,
      "delay": 4828,
      "guess": 4829,
      "foreign": 4830,
      "Ano": 4831,
      "ZE": 4832,
      "outh": 4833,
      "Direct": 4834,
      "arrived": 4835,
      "mm": 4836,
      "discussing": 4837,
      "ands": 4838,
      "gradi": 4839,
      "artists": 4840,
      "interesting": 4841,
      "dedic": 4842,
      "creativity": 4843,
      "compat": 4844,
      "promp": 4845,
      "gree": 4846,
      "FIX": 4847,
      "styles": 4848,
      "Logger": 4849,
      "watching": 4850,
      "tb": 4851,
      "Activity": 4852,
      "confidence": 4853,
      "exploration": 4854,
      "URE": 4855,
      "rtype": 4856,
      "archite": 4857,
      "rank": 4858,
      "ulations": 4859,
      "situation": 4860,
      "orted": 4861,
      "logs": 4862,
      "War": 4863,
      "cn": 4864,
      "automat": 4865,
      "framework": 4866,
      "ggle": 4867,
      "dmp": 4868,
      "overwhel": 4869,
      "dependencies": 4870,
      "CC": 4871,
      "kernel": 4872,
      "Gre": 4873,
      "PS": 4874,
      "countries": 4875,
      "inherit": 4876,
      "yaml": 4877,
      "review": 4878,
      "opener": 4879,
      "lights": 4880,
      "warranty": 4881,
      "bustling": 4882,
      "recur": 4883,
      "Vect": 4884,
      "bt": 4885,
      "suc": 4886,
      "linear": 4887,
      "transports": 4888,
      "AV": 4889,
      "fro": 4890,
      "matching": 4891,
      "believed": 4892,
      "definition": 4893,
      "tom": 4894,
      "requested": 4895,
      "rl": 4896,
      "ressions": 4897,
      "shop": 4898,
      "Bar": 4899,
      "ONE": 4900,
      "phic": 4901,
      "Argu": 4902,
      "GB": 4903,
      "Initi": 4904,
      "reddit": 4905,
      "pickle": 4906,
      "Cal": 4907,
      "novel": 4908,
      "Change": 4909,
      "faith": 4910,
      "themes": 4911,
      "comfortable": 4912,
      "tail": 4913,
      "profound": 4914,
      "mention": 4915,
      "happens": 4916,
      "familiar": 4917,
      "hit": 4918,
      "fiction": 4919,
      "usually": 4920,
      "ori": 4921,
      "dio": 4922,
      "ignored": 4923,
      "Happ": 4924,
      "Using": 4925,
      "sit": 4926,
      "pol": 4927,
      "FC": 4928,
      "west": 4929,
      "species": 4930,
      "threshold": 4931,
      "ACK": 4932,
      "Port": 4933,
      "door": 4934,
      "readers": 4935,
      "showIndent": 4936,
      "eventually": 4937,
      "Empty": 4938,
      "Edit": 4939,
      "cular": 4940,
      "gard": 4941,
      "nn": 4942,
      "hs": 4943,
      "alizing": 4944,
      "revision": 4945,
      "prepared": 4946,
      "SOFTWARE": 4947,
      "mist": 4948,
      "stal": 4949,
      "rang": 4950,
      "gold": 4951,
      "major": 4952,
      "Runtime": 4953,
      "ower": 4954,
      "ITE": 4955,
      "signed": 4956,
      "capacity": 4957,
      "purpose": 4958,
      "IMP": 4959,
      "Ptr": 4960,
      "Any": 4961,
      "PI": 4962,
      "comments": 4963,
      "fixed": 4964,
      "exportLiteral": 4965,
      "AttributeError": 4966,
      "promote": 4967,
      "Middle": 4968,
      "Qgs": 4969,
      "izations": 4970,
      "descriptor": 4971,
      "beliefs": 4972,
      "bur": 4973,
      "navigate": 4974,
      "OG": 4975,
      "meeting": 4976,
      "zen": 4977,
      "navig": 4978,
      "Another": 4979,
      "Maria": 4980,
      "Failed": 4981,
      "Whe": 4982,
      "rec": 4983,
      "pad": 4984,
      "adow": 4985,
      "phi": 4986,
      "TEXT": 4987,
      "ä»£": 4988,
      "news": 4989,
      "bio": 4990,
      "affe": 4991,
      "legacy": 4992,
      "employee": 4993,
      "Print": 4994,
      "neighb": 4995,
      "ASE": 4996,
      "Pip": 4997,
      "sand": 4998,
      "episo": 4999,
      "saved": 5000,
      "edul": 5001,
      "ORS": 5002,
      "Person": 5003,
      "Cluster": 5004,
      "validation": 5005,
      "literature": 5006,
      "Vector": 5007,
      "Reser": 5008,
      "ä»£çłģ": 5009,
      "arily": 5010,
      "smiled": 5011,
      "Mi": 5012,
      "iety": 5013,
      "moves": 5014,
      "googleapis": 5015,
      "ension": 5016,
      "Bad": 5017,
      "pred": 5018,
      "INCL": 5019,
      "extraordinary": 5020,
      "club": 5021,
      "compar": 5022,
      "smart": 5023,
      "smooth": 5024,
      "manifest": 5025,
      "surrounding": 5026,
      "Range": 5027,
      "stmt": 5028,
      "understood": 5029,
      "refresh": 5030,
      "migrations": 5031,
      "reserved": 5032,
      "shif": 5033,
      "configure": 5034,
      "milli": 5035,
      "creates": 5036,
      "Admin": 5037,
      "URI": 5038,
      "illing": 5039,
      "viol": 5040,
      "myster": 5041,
      "flush": 5042,
      "safety": 5043,
      "templates": 5044,
      "actor": 5045,
      "handlers": 5046,
      "increasing": 5047,
      "ners": 5048,
      "chron": 5049,
      "market": 5050,
      "happen": 5051,
      "cident": 5052,
      "Ph": 5053,
      "deed": 5054,
      "serialize": 5055,
      "pressure": 5056,
      "pretty": 5057,
      "cate": 5058,
      "niche": 5059,
      "pal": 5060,
      "qs": 5061,
      "localhost": 5062,
      "whisper": 5063,
      "woman": 5064,
      "cancel": 5065,
      "ĠĠĠĠĠĠĠĠĠĠĠĠĠĠĠĠĠĠĠĠĠĠĠĠĠĠĠĠĠĠĠĠĠĠĠĠĠ": 5066,
      "Tool": 5067,
      "produce": 5068,
      "pected": 5069,
      "multip": 5070,
      "ĠĠĠĠĠĠĠĠĠĠĠĠĠĠĠĠĠĠĠĠĠĠĠĠĠĠĠĠĠĠĠĠĠĠĠĠĠĠ": 5071,
      "assertAll": 5072,
      "environments": 5073,
      "Helper": 5074,
      "Mis": 5075,
      "lessly": 5076,
      "cpu": 5077,
      "ado": 5078,
      "hooks": 5079,
      "opportunity": 5080,
      "Cor": 5081,
      "ban": 5082,
      "vative": 5083,
      "rever": 5084,
      "Environment": 5085,
      "suggested": 5086,
      "satis": 5087,
      "Foo": 5088,
      "Life": 5089,
      "LETE": 5090,
      "speak": 5091,
      "Values": 5092,
      "Local": 5093,
      "Devel": 5094,
      "econom": 5095,
      "weather": 5096,
      "production": 5097,
      "solution": 5098,
      "Cho": 5099,
      "fc": 5100,
      "Configuration": 5101,
      "Maya": 5102,
      "patience": 5103,
      "adapt": 5104,
      "Lesson": 5105,
      "embrace": 5106,
      "vast": 5107,
      "theme": 5108,
      "flat": 5109,
      "wondered": 5110,
      "front": 5111,
      "Cache": 5112,
      "Expl": 5113,
      "followed": 5114,
      "served": 5115,
      "particularly": 5116,
      "ensu": 5117,
      "pix": 5118,
      "tales": 5119,
      "describ": 5120,
      "Trace": 5121,
      "entities": 5122,
      "Windows": 5123,
      "ĠĠĠĠĠĠĠĠĠĠĠĠčĊ": 5124,
      "suite": 5125,
      "streaming": 5126,
      "pairs": 5127,
      "ird": 5128,
      "mapper": 5129,
      "finished": 5130,
      "designed": 5131,
      "Men": 5132,
      "agr": 5133,
      "compared": 5134,
      "scenari": 5135,
      "fing": 5136,
      "inary": 5137,
      "Security": 5138,
      "ASS": 5139,
      "Sol": 5140,
      "division": 5141,
      "spli": 5142,
      "leaves": 5143,
      "planet": 5144,
      "egg": 5145,
      "Gu": 5146,
      "Generate": 5147,
      "Callback": 5148,
      "cir": 5149,
      "Mode": 5150,
      "Types": 5151,
      "builder": 5152,
      "languages": 5153,
      "encing": 5154,
      "contribut": 5155,
      "Description": 5156,
      "Bucket": 5157,
      "receive": 5158,
      "traditions": 5159,
      "Please": 5160,
      "digest": 5161,
      "Stru": 5162,
      "Happy": 5163,
      "san": 5164,
      "dedicated": 5165,
      "zy": 5166,
      "hello": 5167,
      "basename": 5168,
      "holder": 5169,
      "dreams": 5170,
      "AMP": 5171,
      "Rou": 5172,
      "Buffer": 5173,
      "Keep": 5174,
      "DIS": 5175,
      "secrets": 5176,
      "craft": 5177,
      "Mar": 5178,
      "aa": 5179,
      "ascii": 5180,
      "isions": 5181,
      "abstract": 5182,
      "picture": 5183,
      "zeros": 5184,
      "PORT": 5185,
      "reh": 5186,
      "relev": 5187,
      "Are": 5188,
      "asp": 5189,
      "subscription": 5190,
      "aft": 5191,
      "genous": 5192,
      "smaller": 5193,
      "remained": 5194,
      "dry": 5195,
      "execution": 5196,
      "opened": 5197,
      "Feature": 5198,
      "STRING": 5199,
      "department": 5200,
      "nut": 5201,
      "trigger": 5202,
      "intri": 5203,
      "risk": 5204,
      "electron": 5205,
      "ceed": 5206,
      "props": 5207,
      "candid": 5208,
      "beneath": 5209,
      "WN": 5210,
      "Yes": 5211,
      "fish": 5212,
      "threads": 5213,
      "Med": 5214,
      "Control": 5215,
      "png": 5216,
      "deb": 5217,
      "ssh": 5218,
      "mutual": 5219,
      "ented": 5220,
      "acted": 5221,
      "fortun": 5222,
      "effective": 5223,
      "Body": 5224,
      "ium": 5225,
      "accounts": 5226,
      "usters": 5227,
      "friendship": 5228,
      "Mag": 5229,
      "throw": 5230,
      "increased": 5231,
      "Air": 5232,
      "applications": 5233,
      "aliases": 5234,
      "tried": 5235,
      "layout": 5236,
      "currency": 5237,
      "Ed": 5238,
      "ero": 5239,
      "Establish": 5240,
      "becoming": 5241,
      "kl": 5242,
      "cols": 5243,
      "emphas": 5244,
      "representation": 5245,
      "psycho": 5246,
      "PER": 5247,
      "SIZE": 5248,
      "endswith": 5249,
      "foot": 5250,
      "exper": 5251,
      "successfully": 5252,
      "awareness": 5253,
      "Lit": 5254,
      "uff": 5255,
      "cio": 5256,
      "doct": 5257,
      "Thread": 5258,
      "Flo": 5259,
      "ause": 5260,
      "earlier": 5261,
      "accep": 5262,
      "boundaries": 5263,
      "gained": 5264,
      "AutoField": 5265,
      "Mixin": 5266,
      "ribution": 5267,
      "principles": 5268,
      "bright": 5269,
      "caught": 5270,
      "captiv": 5271,
      "anxiety": 5272,
      "chat": 5273,
      "immediately": 5274,
      "argin": 5275,
      "movie": 5276,
      "PLA": 5277,
      "brid": 5278,
      "responsible": 5279,
      "nodded": 5280,
      "sex": 5281,
      "Stand": 5282,
      "Comm": 5283,
      "decimal": 5284,
      "intricate": 5285,
      "swi": 5286,
      "runner": 5287,
      "Rule": 5288,
      "ley": 5289,
      "mom": 5290,
      "movement": 5291,
      "providers": 5292,
      "requirements": 5293,
      "sock": 5294,
      "newfound": 5295,
      "Enter": 5296,
      "Dataset": 5297,
      "initially": 5298,
      "Spec": 5299,
      "seemingly": 5300,
      "DateTimeField": 5301,
      "five": 5302,
      "INST": 5303,
      "TLS": 5304,
      "dns": 5305,
      "metal": 5306,
      "distinct": 5307,
      "ident": 5308,
      "keeping": 5309,
      "becomes": 5310,
      "console": 5311,
      "tur": 5312,
      "half": 5313,
      "scores": 5314,
      "interests": 5315,
      "facing": 5316,
      "lab": 5317,
      "quer": 5318,
      "acknow": 5319,
      "sites": 5320,
      "plays": 5321,
      "hun": 5322,
      "clone": 5323,
      "Color": 5324,
      "consid": 5325,
      "proud": 5326,
      "Analy": 5327,
      "climate": 5328,
      "ables": 5329,
      "solve": 5330,
      "exciting": 5331,
      "widgets": 5332,
      "Similar": 5333,
      "absent": 5334,
      "blo": 5335,
      "showed": 5336,
      "cidr": 5337,
      "audio": 5338,
      "roots": 5339,
      "specifically": 5340,
      "heavy": 5341,
      "neighbor": 5342,
      "spiritual": 5343,
      "ficance": 5344,
      "Moreover": 5345,
      "inja": 5346,
      "Noti": 5347,
      "Bytes": 5348,
      "hot": 5349,
      "checks": 5350,
      "studying": 5351,
      "ene": 5352,
      "chi": 5353,
      "SIGN": 5354,
      "birth": 5355,
      "east": 5356,
      "fu": 5357,
      "Cons": 5358,
      "Experi": 5359,
      "strategy": 5360,
      "joined": 5361,
      "larger": 5362,
      "money": 5363,
      "possib": 5364,
      "expan": 5365,
      "INTER": 5366,
      "slowly": 5367,
      "quir": 5368,
      "osv": 5369,
      "fan": 5370,
      "pul": 5371,
      "zing": 5372,
      "ading": 5373,
      "adult": 5374,
      "Settings": 5375,
      "feels": 5376,
      "molecular": 5377,
      "Since": 5378,
      "nu": 5379,
      "xb": 5380,
      "vill": 5381,
      "includes": 5382,
      "COPY": 5383,
      "Password": 5384,
      "Bit": 5385,
      "Level": 5386,
      "dash": 5387,
      "DELETE": 5388,
      "notification": 5389,
      "serializer": 5390,
      "translation": 5391,
      "Mac": 5392,
      "Roo": 5393,
      "Chang": 5394,
      "transfer": 5395,
      "FT": 5396,
      "currently": 5397,
      "Mrs": 5398,
      "Flag": 5399,
      "plant": 5400,
      "telling": 5401,
      "Store": 5402,
      "benefits": 5403,
      "Dif": 5404,
      "fly": 5405,
      "sphere": 5406,
      "archive": 5407,
      "invent": 5408,
      "visible": 5409,
      "Nor": 5410,
      "ran": 5411,
      "flavor": 5412,
      "reality": 5413,
      "utr": 5414,
      "meter": 5415,
      "persist": 5416,
      "transformed": 5417,
      "Little": 5418,
      "promi": 5419,
      "customers": 5420,
      "digits": 5421,
      "shadow": 5422,
      "emotion": 5423,
      "organizations": 5424,
      "Afri": 5425,
      "atively": 5426,
      "sklearn": 5427,
      "Send": 5428,
      "hu": 5429,
      "ptr": 5430,
      "sink": 5431,
      "ĠĠĠĠĠĠĠĠĠĠĠĠĠĠĠĠĠĠĠĠĠĠĠĠĠĠĠĠĠĠĠĠĠĠĠĠĠĠĠĠĠ": 5432,
      "percent": 5433,
      "Handle": 5434,
      "therapy": 5435,
      "Whether": 5436,
      "ateful": 5437,
      "UDING": 5438,
      "INCLUDING": 5439,
      "carry": 5440,
      "azy": 5441,
      "vations": 5442,
      "colon": 5443,
      "America": 5444,
      "HAS": 5445,
      "Sw": 5446,
      "shows": 5447,
      "solving": 5448,
      "Applic": 5449,
      "segment": 5450,
      "considered": 5451,
      "Te": 5452,
      "omp": 5453,
      "minds": 5454,
      "lligence": 5455,
      "communicate": 5456,
      "weak": 5457,
      "plain": 5458,
      "platforms": 5459,
      "SOUR": 5460,
      "Mia": 5461,
      "batt": 5462,
      "tup": 5463,
      "Bas": 5464,
      "contemporary": 5465,
      "tale": 5466,
      "siness": 5467,
      "van": 5468,
      "vas": 5469,
      "cop": 5470,
      "offered": 5471,
      "ql": 5472,
      "asons": 5473,
      "logies": 5474,
      "runtime": 5475,
      "QUE": 5476,
      "gious": 5477,
      "ANCE": 5478,
      "political": 5479,
      "exclude": 5480,
      "professional": 5481,
      "Tri": 5482,
      "encoded": 5483,
      "ffff": 5484,
      "gued": 5485,
      "assertIsNone": 5486,
      "iterable": 5487,
      "translate": 5488,
      "channels": 5489,
      "Obj": 5490,
      "meaningful": 5491,
      "goals": 5492,
      "Lang": 5493,
      "business": 5494,
      "leader": 5495,
      "reveal": 5496,
      "Volume": 5497,
      "La": 5498,
      "knows": 5499,
      "shaping": 5500,
      "effectively": 5501,
      "Could": 5502,
      "asyncio": 5503,
      "promoting": 5504,
      "Sum": 5505,
      "focused": 5506,
      "macro": 5507,
      "priority": 5508,
      "pictures": 5509,
      "States": 5510,
      "networks": 5511,
      "xe": 5512,
      "offering": 5513,
      "generic": 5514,
      "gentle": 5515,
      "inx": 5516,
      "lesson": 5517,
      "estimator": 5518,
      "FLA": 5519,
      "avid": 5520,
      "numerous": 5521,
      "evaluate": 5522,
      "Pipeline": 5523,
      "Affer": 5524,
      "Ger": 5525,
      "timer": 5526,
      "creative": 5527,
      "seeing": 5528,
      "ideo": 5529,
      "laughter": 5530,
      "Affero": 5531,
      "sr": 5532,
      "forces": 5533,
      "ERS": 5534,
      "Clas": 5535,
      "categories": 5536,
      "Develop": 5537,
      "sea": 5538,
      "Position": 5539,
      "termine": 5540,
      "nes": 5541,
      "redi": 5542,
      "remind": 5543,
      "offers": 5544,
      "Statement": 5545,
      "collaboration": 5546,
      "determine": 5547,
      "roid": 5548,
      "phase": 5549,
      "FIEL": 5550,
      "remaining": 5551,
      "effects": 5552,
      "executable": 5553,
      "Length": 5554,
      "fixture": 5555,
      "apart": 5556,
      "acts": 5557,
      "stuff": 5558,
      "emit": 5559,
      "vlan": 5560,
      "BUG": 5561,
      "athe": 5562,
      "eving": 5563,
      "compiler": 5564,
      "Enti": 5565,
      "evening": 5566,
      "renew": 5567,
      "STAT": 5568,
      "adventures": 5569,
      "equip": 5570,
      "mentioned": 5571,
      "calm": 5572,
      "Bro": 5573,
      "endor": 5574,
      "iteritems": 5575,
      "Common": 5576,
      "gyp": 5577,
      "stac": 5578,
      "demand": 5579,
      "Django": 5580,
      "mited": 5581,
      "significance": 5582,
      "PRI": 5583,
      "ae": 5584,
      "ingredi": 5585,
      "abspath": 5586,
      "scaling": 5587,
      "VALUES": 5588,
      "thumb": 5589,
      "antly": 5590,
      "eduler": 5591,
      "remark": 5592,
      "managing": 5593,
      "ultimately": 5594,
      "Fake": 5595,
      "xc": 5596,
      "noon": 5597,
      "Plugin": 5598,
      "grat": 5599,
      "CODE": 5600,
      "RIPT": 5601,
      "scene": 5602,
      "father": 5603,
      "wouldn": 5604,
      "connecting": 5605,
      "bes": 5606,
      "INGS": 5607,
      "saying": 5608,
      "incorporating": 5609,
      "BooleanField": 5610,
      "hon": 5611,
      "ibility": 5612,
      "eling": 5613,
      "decisions": 5614,
      "Ns": 5615,
      "fant": 5616,
      "ctypes": 5617,
      "ara": 5618,
      "trail": 5619,
      "gettext": 5620,
      "slug": 5621,
      "ire": 5622,
      "letters": 5623,
      "AI": 5624,
      "sunny": 5625,
      "chemy": 5626,
      "expressions": 5627,
      "engaging": 5628,
      "finish": 5629,
      "boot": 5630,
      "struggles": 5631,
      "happiness": 5632,
      "dance": 5633,
      "xpath": 5634,
      "alt": 5635,
      "serves": 5636,
      "ament": 5637,
      "utter": 5638,
      "alizer": 5639,
      "DEBUG": 5640,
      "Additional": 5641,
      "collective": 5642,
      "hesit": 5643,
      "neighbors": 5644,
      "Norm": 5645,
      "scr": 5646,
      "bg": 5647,
      "lity": 5648,
      "relax": 5649,
      "OTHER": 5650,
      "RECT": 5651,
      "pending": 5652,
      "ada": 5653,
      "Files": 5654,
      "Does": 5655,
      "ka": 5656,
      "Record": 5657,
      "Pi": 5658,
      "survi": 5659,
      "cript": 5660,
      "Stop": 5661,
      "gcp": 5662,
      "remains": 5663,
      "Sel": 5664,
      "fa": 5665,
      "zon": 5666,
      "tils": 5667,
      "isol": 5668,
      "sensitive": 5669,
      "absor": 5670,
      "DEF": 5671,
      "Jap": 5672,
      "Top": 5673,
      "alter": 5674,
      "urch": 5675,
      "alongside": 5676,
      "svn": 5677,
      "wood": 5678,
      "phr": 5679,
      "WORD": 5680,
      "kin": 5681,
      "plugins": 5682,
      "VM": 5683,
      "mass": 5684,
      "Work": 5685,
      "morning": 5686,
      "SOURCE": 5687,
      "Bri": 5688,
      "encryp": 5689,
      "twist": 5690,
      "arrow": 5691,
      "advice": 5692,
      "concat": 5693,
      "resulting": 5694,
      "effort": 5695,
      "RuntimeError": 5696,
      "ributions": 5697,
      "regression": 5698,
      "Reddit": 5699,
      "Sco": 5700,
      "male": 5701,
      "Pat": 5702,
      "flex": 5703,
      "crete": 5704,
      "represents": 5705,
      "amed": 5706,
      "sertion": 5707,
      "grace": 5708,
      "teacher": 5709,
      "perspective": 5710,
      "breaking": 5711,
      "direction": 5712,
      "creds": 5713,
      "calling": 5714,
      "Both": 5715,
      "ethical": 5716,
      "notify": 5717,
      "preserving": 5718,
      "signals": 5719,
      "forever": 5720,
      "religious": 5721,
      "SERT": 5722,
      "ART": 5723,
      "Mach": 5724,
      "uncertain": 5725,
      "ames": 5726,
      "bundle": 5727,
      "openerp": 5728,
      "IST": 5729,
      "stic": 5730,
      "likely": 5731,
      "City": 5732,
      "Email": 5733,
      "obstac": 5734,
      "Try": 5735,
      "sqrt": 5736,
      "Install": 5737,
      "plotlib": 5738,
      "Engine": 5739,
      "capture": 5740,
      "bing": 5741,
      "manip": 5742,
      "checked": 5743,
      "Christian": 5744,
      "schedule": 5745,
      "gri": 5746,
      "marked": 5747,
      "monitoring": 5748,
      "Container": 5749,
      "ompson": 5750,
      "Thompson": 5751,
      "genu": 5752,
      "Iterator": 5753,
      "Has": 5754,
      "volution": 5755,
      "UID": 5756,
      "adds": 5757,
      "engage": 5758,
      "afternoon": 5759,
      "Geo": 5760,
      "measure": 5761,
      "bond": 5762,
      "eta": 5763,
      "routing": 5764,
      "goal": 5765,
      "discussion": 5766,
      "century": 5767,
      "ied": 5768,
      "readonly": 5769,
      "pray": 5770,
      "treas": 5771,
      "hone": 5772,
      "inted": 5773,
      "orter": 5774,
      "nest": 5775,
      "automatically": 5776,
      "Extract": 5777,
      "ADD": 5778,
      "normalize": 5779,
      "relevant": 5780,
      "clusters": 5781,
      "herit": 5782,
      "dynamic": 5783,
      "Secret": 5784,
      "äº": 5785,
      "BC": 5786,
      "nil": 5787,
      "invi": 5788,
      "restri": 5789,
      "curve": 5790,
      "skin": 5791,
      "Driver": 5792,
      "SU": 5793,
      "keywords": 5794,
      "addresses": 5795,
      "Socket": 5796,
      "browse": 5797,
      "enthusiast": 5798,
      "Fail": 5799,
      "mus": 5800,
      "æľ": 5801,
      "Batch": 5802,
      "PB": 5803,
      "Us": 5804,
      "ratio": 5805,
      "regions": 5806,
      "iteration": 5807,
      "smile": 5808,
      "paralle": 5809,
      "arrays": 5810,
      "Scan": 5811,
      "Exec": 5812,
      "Jake": 5813,
      "tiz": 5814,
      "filepath": 5815,
      "involve": 5816,
      "Tech": 5817,
      "listened": 5818,
      "easily": 5819,
      "prompt": 5820,
      "tv": 5821,
      "contr": 5822,
      "feat": 5823,
      "Operator": 5824,
      "correctly": 5825,
      "horiz": 5826,
      "ders": 5827,
      "drawing": 5828,
      "Verify": 5829,
      "AAAAAAAA": 5830,
      "recover": 5831,
      "apes": 5832,
      "storm": 5833,
      "puzz": 5834,
      "detect": 5835,
      "songs": 5836,
      "pure": 5837,
      "deal": 5838,
      "tting": 5839,
      "tempfile": 5840,
      "goes": 5841,
      "station": 5842,
      "differently": 5843,
      "Speci": 5844,
      "regist": 5845,
      "approx": 5846,
      "reminded": 5847,
      "PL": 5848,
      "gave": 5849,
      "setattr": 5850,
      "prepar": 5851,
      "quietly": 5852,
      "VID": 5853,
      "crow": 5854,
      "eat": 5855,
      "asset": 5856,
      "sens": 5857,
      "ordered": 5858,
      "circum": 5859,
      "SUB": 5860,
      "lip": 5861,
      "Like": 5862,
      "article": 5863,
      "Sur": 5864,
      "stick": 5865,
      "fies": 5866,
      "DIRECT": 5867,
      "LINE": 5868,
      "pdf": 5869,
      "interpret": 5870,
      "ums": 5871,
      "matched": 5872,
      "investig": 5873,
      "compreh": 5874,
      "Profile": 5875,
      "destroy": 5876,
      "Employ": 5877,
      "girl": 5878,
      "mine": 5879,
      "demo": 5880,
      "INSERT": 5881,
      "servers": 5882,
      "pped": 5883,
      "Great": 5884,
      "lack": 5885,
      "LED": 5886,
      "charset": 5887,
      "MODE": 5888,
      "ification": 5889,
      "jud": 5890,
      "website": 5891,
      "Role": 5892,
      "spoke": 5893,
      "Similarly": 5894,
      "press": 5895,
      "nested": 5896,
      "mime": 5897,
      "holding": 5898,
      "EVENT": 5899,
      "mountain": 5900,
      "captivating": 5901,
      "Yet": 5902,
      "ups": 5903,
      "Stub": 5904,
      "configs": 5905,
      "variance": 5906,
      "locate": 5907,
      "birds": 5908,
      "vital": 5909,
      "charge": 5910,
      "shutil": 5911,
      "Prefix": 5912,
      "Mapping": 5913,
      "yy": 5914,
      "ordering": 5915,
      "alive": 5916,
      "evaluation": 5917,
      "Grpc": 5918,
      "inspire": 5919,
      "Entity": 5920,
      "PA": 5921,
      "threat": 5922,
      "mel": 5923,
      "scalar": 5924,
      "tall": 5925,
      "confirm": 5926,
      "atial": 5927,
      "NN": 5928,
      "lap": 5929,
      "caused": 5930,
      "computer": 5931,
      "compatible": 5932,
      "Setup": 5933,
      "hic": 5934,
      "ĉčĊ": 5935,
      "atory": 5936,
      "ensive": 5937,
      "tear": 5938,
      "flowers": 5939,
      "determined": 5940,
      "Unicode": 5941,
      "gtk": 5942,
      "rical": 5943,
      "dispatch": 5944,
      "conscious": 5945,
      "presence": 5946,
      "workers": 5947,
      "TEMPL": 5948,
      "stock": 5949,
      "TEMPLATE": 5950,
      "Allow": 5951,
      "RIBUT": 5952,
      "Ah": 5953,
      "statistics": 5954,
      "graphic": 5955,
      "delicious": 5956,
      "erce": 5957,
      "rock": 5958,
      "nodeName": 5959,
      "windows": 5960,
      "San": 5961,
      "refers": 5962,
      "draft": 5963,
      "bird": 5964,
      "odv": 5965,
      "located": 5966,
      "involving": 5967,
      "teaching": 5968,
      "losop": 5969,
      "narratives": 5970,
      "inventory": 5971,
      "Langu": 5972,
      "threading": 5973,
      "disabled": 5974,
      "Av": 5975,
      "aur": 5976,
      "indeed": 5977,
      "solid": 5978,
      "Regi": 5979,
      "Annot": 5980,
      "focusing": 5981,
      "English": 5982,
      "repeat": 5983,
      "alternative": 5984,
      "suddenly": 5985,
      "kit": 5986,
      "timedelta": 5987,
      "stars": 5988,
      "reedom": 5989,
      "Mu": 5990,
      "gers": 5991,
      "responsibility": 5992,
      "colorful": 5993,
      "attachment": 5994,
      "salary": 5995,
      "gathered": 5996,
      "Oh": 5997,
      "ino": 5998,
      "melt": 5999,
      "escap": 6000,
      "advoc": 6001,
      "Proxy": 6002,
      "expectations": 6003,
      "CSV": 6004,
      "Script": 6005,
      "rm": 6006,
      "cean": 6007,
      "thrill": 6008,
      "treatment": 6009,
      "acces": 6010,
      "sici": 6011,
      "delve": 6012,
      "acting": 6013,
      "cells": 6014,
      "rounded": 6015,
      "endar": 6016,
      "processor": 6017,
      "rolling": 6018,
      "completely": 6019,
      "ek": 6020,
      "compress": 6021,
      "clients": 6022,
      "relig": 6023,
      "outer": 6024,
      "ressive": 6025,
      "answers": 6026,
      "animal": 6027,
      "Layer": 6028,
      "idence": 6029,
      "ula": 6030,
      "ROOT": 6031,
      "boxes": 6032,
      "preserve": 6033,
      "roc": 6034,
      "sports": 6035,
      "episode": 6036,
      "Exe": 6037,
      "LIST": 6038,
      "Ap": 6039,
      "bank": 6040,
      "oved": 6041,
      "limited": 6042,
      "sia": 6043,
      "worldwide": 6044,
      "Validation": 6045,
      "bonds": 6046,
      "timezone": 6047,
      "Thank": 6048,
      "CHE": 6049,
      "chance": 6050,
      "acqui": 6051,
      "grab": 6052,
      "visu": 6053,
      "highlight": 6054,
      "Libr": 6055,
      "reson": 6056,
      "sac": 6057,
      "advanced": 6058,
      "Real": 6059,
      "iterations": 6060,
      "namespaces": 6061,
      "beloved": 6062,
      "easier": 6063,
      "walking": 6064,
      "United": 6065,
      "Fam": 6066,
      "gid": 6067,
      "atalog": 6068,
      "isms": 6069,
      "achi": 6070,
      "emerged": 6071,
      "Packet": 6072,
      "quantity": 6073,
      "eating": 6074,
      "film": 6075,
      "turns": 6076,
      "walked": 6077,
      "Writer": 6078,
      "structor": 6079,
      "lightly": 6080,
      "OL": 6081,
      "billing": 6082,
      "shel": 6083,
      "HEAD": 6084,
      "ints": 6085,
      "corner": 6086,
      "references": 6087,
      "combined": 6088,
      "sizes": 6089,
      "Standard": 6090,
      "opening": 6091,
      "locals": 6092,
      "cards": 6093,
      "Off": 6094,
      "trun": 6095,
      "evidence": 6096,
      "Expected": 6097,
      "depending": 6098,
      "Convert": 6099,
      "SAP": 6100,
      "urlparse": 6101,
      "happening": 6102,
      "tm": 6103,
      "planning": 6104,
      "ami": 6105,
      "bud": 6106,
      "Execu": 6107,
      "Its": 6108,
      "Rob": 6109,
      "UTE": 6110,
      "thanks": 6111,
      "maps": 6112,
      "inspiring": 6113,
      "Among": 6114,
      "watched": 6115,
      "invo": 6116,
      "cold": 6117,
      "Region": 6118,
      "constraints": 6119,
      "matters": 6120,
      "schools": 6121,
      "syntax": 6122,
      "glass": 6123,
      "monitor": 6124,
      "Br": 6125,
      "FE": 6126,
      "SY": 6127,
      "bb": 6128,
      "dependency": 6129,
      "legal": 6130,
      "Long": 6131,
      "unning": 6132,
      "closely": 6133,
      "Exchange": 6134,
      "government": 6135,
      "derived": 6136,
      "rhy": 6137,
      "toward": 6138,
      "isher": 6139,
      "marks": 6140,
      "efficient": 6141,
      "Insert": 6142,
      "encountered": 6143,
      "MAP": 6144,
      "SA": 6145,
      "rites": 6146,
      "conflicts": 6147,
      "pointed": 6148,
      "High": 6149,
      "aj": 6150,
      "attrib": 6151,
      "GOOG": 6152,
      "iled": 6153,
      "getLogger": 6154,
      "Menu": 6155,
      "asy": 6156,
      "cities": 6157,
      "plus": 6158,
      "QtCore": 6159,
      "affected": 6160,
      "Font": 6161,
      "aodv": 6162,
      "tries": 6163,
      "explored": 6164,
      "slot": 6165,
      "weigh": 6166,
      "flash": 6167,
      "recognize": 6168,
      "Language": 6169,
      "Det": 6170,
      "ky": 6171,
      "mul": 6172,
      "reload": 6173,
      "coffe": 6174,
      "pow": 6175,
      "general": 6176,
      "drink": 6177,
      "wonderful": 6178,
      "migration": 6179,
      "ENDPOINT": 6180,
      "LOCATION": 6181,
      "exercise": 6182,
      "Fa": 6183,
      "boy": 6184,
      "filenames": 6185,
      "agraph": 6186,
      "remarkable": 6187,
      "padding": 6188,
      "Dialog": 6189,
      "turning": 6190,
      "aven": 6191,
      "struck": 6192,
      "improved": 6193,
      "scientific": 6194,
      "iction": 6195,
      "scripts": 6196,
      "Connect": 6197,
      "enhance": 6198,
      "Save": 6199,
      "cwd": 6200,
      "danger": 6201,
      "atal": 6202,
      "ought": 6203,
      "scrap": 6204,
      "visited": 6205,
      "crypt": 6206,
      "consistent": 6207,
      "ACC": 6208,
      "Directory": 6209,
      "ours": 6210,
      "IOError": 6211,
      "articles": 6212,
      "frequency": 6213,
      "ecs": 6214,
      "ustr": 6215,
      "axes": 6216,
      "limits": 6217,
      "mitted": 6218,
      "college": 6219,
      "rupt": 6220,
      "Gree": 6221,
      "gb": 6222,
      "fiers": 6223,
      "datasets": 6224,
      "tten": 6225,
      "justice": 6226,
      "vocab": 6227,
      "acknowled": 6228,
      "Gi": 6229,
      "inp": 6230,
      "ĠĠĠĠĠĠĠĠĠĠĠĠĠĠĠĠĠĠĠĠĠĠĠĠĠĠĠĠĠĠĠĠĠĠĠĠĠĠĠĠĠĠ": 6231,
      "serving": 6232,
      "applied": 6233,
      "READ": 6234,
      "attempts": 6235,
      "construction": 6236,
      "Magic": 6237,
      "Sud": 6238,
      "pull": 6239,
      "seems": 6240,
      "introduced": 6241,
      "WE": 6242,
      "thus": 6243,
      "routes": 6244,
      "klass": 6245,
      "utron": 6246,
      "ingredients": 6247,
      "Pool": 6248,
      "inspect": 6249,
      "alert": 6250,
      "utc": 6251,
      "avors": 6252,
      "initializer": 6253,
      "tuples": 6254,
      "tight": 6255,
      "Permission": 6256,
      "Flow": 6257,
      "cles": 6258,
      "tough": 6259,
      "acks": 6260,
      "ClientError": 6261,
      "EXT": 6262,
      "XXXX": 6263,
      "Sm": 6264,
      "freedom": 6265,
      "jump": 6266,
      "inten": 6267,
      "transformation": 6268,
      "Video": 6269,
      "CONFI": 6270,
      "intelligence": 6271,
      "GOOGLE": 6272,
      "born": 6273,
      "bottom": 6274,
      "walls": 6275,
      "dimensions": 6276,
      "heritage": 6277,
      "gar": 6278,
      "ope": 6279,
      "ceeded": 6280,
      "defer": 6281,
      "Place": 6282,
      "Argument": 6283,
      "Non": 6284,
      "cin": 6285,
      "etal": 6286,
      "assertNot": 6287,
      "attend": 6288,
      "earth": 6289,
      "xrange": 6290,
      "START": 6291,
      "crash": 6292,
      "Series": 6293,
      "HOST": 6294,
      "repeated": 6295,
      "tile": 6296,
      "FLAGS": 6297,
      "coffee": 6298,
      "enforce": 6299,
      "aming": 6300,
      "figures": 6301,
      "Poly": 6302,
      "IMPLI": 6303,
      "obstacles": 6304,
      "NUM": 6305,
      "kube": 6306,
      "findings": 6307,
      "Charact": 6308,
      "programs": 6309,
      "snowfl": 6310,
      "Basic": 6311,
      "NT": 6312,
      "peak": 6313,
      "locale": 6314,
      "depends": 6315,
      "cookies": 6316,
      "inspiration": 6317,
      "amo": 6318,
      "fails": 6319,
      "visual": 6320,
      "mindfulness": 6321,
      "philosop": 6322,
      "nutri": 6323,
      "ale": 6324,
      "asm": 6325,
      "retch": 6326,
      "properly": 6327,
      "reshape": 6328,
      "atmo": 6329,
      "dealing": 6330,
      "ĠĠĠĠĠĠĠĠĠĠĠĠĠĠĠĠĠĠĠĠĠĠĠĠĠĠĠĠĠĠĠĠĠĠĠĠĠĠĠĠĠĠĠĠ": 6331,
      "Creates": 6332,
      "although": 6333,
      "ĠĠĠĠĠĠĠĠĠĠĠĠĠĠĠĠĠĠĠĠĠĠĠĠĠĠĠĠĠĠĠĠĠĠĠĠĠĠĠĠĠĠĠ": 6334,
      "ĉĉčĊ": 6335,
      "Provid": 6336,
      "placeholder": 6337,
      "GI": 6338,
      "æĺ": 6339,
      "consequences": 6340,
      "buy": 6341,
      "fications": 6342,
      "matplotlib": 6343,
      "leads": 6344,
      "recently": 6345,
      "IMPLIED": 6346,
      "DU": 6347,
      "initialize": 6348,
      "Feed": 6349,
      "Builder": 6350,
      "VALID": 6351,
      "Rights": 6352,
      "queries": 6353,
      "restore": 6354,
      "etag": 6355,
      "roller": 6356,
      "scanner": 6357,
      "coordinates": 6358,
      "Evalu": 6359,
      "welcome": 6360,
      "cel": 6361,
      "statements": 6362,
      "chosen": 6363,
      "Msg": 6364,
      "Fri": 6365,
      "Rus": 6366,
      "hurt": 6367,
      "thous": 6368,
      "poch": 6369,
      "players": 6370,
      "gotten": 6371,
      "assigned": 6372,
      "bow": 6373,
      "uous": 6374,
      "è¯": 6375,
      "codecs": 6376,
      "legend": 6377,
      "studies": 6378,
      "serial": 6379,
      "homes": 6380,
      "typically": 6381,
      "VALUE": 6382,
      "Skip": 6383,
      "dc": 6384,
      "ku": 6385,
      "Stu": 6386,
      "TextField": 6387,
      "latex": 6388,
      "twisted": 6389,
      "Backend": 6390,
      "prep": 6391,
      "confident": 6392,
      "Suddenly": 6393,
      "rict": 6394,
      "uniform": 6395,
      "fell": 6396,
      "societal": 6397,
      "Application": 6398,
      "lst": 6399,
      "omen": 6400,
      "population": 6401,
      "wellbeing": 6402,
      "regardless": 6403,
      "DAMA": 6404,
      "Ama": 6405,
      "Lim": 6406,
      "toy": 6407,
      "signs": 6408,
      "pubsub": 6409,
      "hob": 6410,
      "ental": 6411,
      "domains": 6412,
      "Machine": 6413,
      "coup": 6414,
      "xa": 6415,
      "realize": 6416,
      "andom": 6417,
      "nova": 6418,
      "interactions": 6419,
      "meditation": 6420,
      "Attr": 6421,
      "discussions": 6422,
      "struggled": 6423,
      "authentic": 6424,
      "afe": 6425,
      "jar": 6426,
      "ABC": 6427,
      "scheduler": 6428,
      "snip": 6429,
      "hearts": 6430,
      "gamma": 6431,
      "beat": 6432,
      "myst": 6433,
      "loading": 6434,
      "SERVER": 6435,
      "AsyncClient": 6436,
      "Sn": 6437,
      "otal": 6438,
      "memor": 6439,
      "Retri": 6440,
      "alike": 6441,
      "Results": 6442,
      "rome": 6443,
      "agers": 6444,
      "China": 6445,
      "tension": 6446,
      "LIMITED": 6447,
      "ancial": 6448,
      "aight": 6449,
      "Management": 6450,
      "scientists": 6451,
      "Sing": 6452,
      "ork": 6453,
      "gration": 6454,
      "comput": 6455,
      "Conf": 6456,
      "passing": 6457,
      "manual": 6458,
      "baz": 6459,
      "imm": 6460,
      "separate": 6461,
      "routine": 6462,
      "Api": 6463,
      "scatter": 6464,
      "minimum": 6465,
      "brave": 6466,
      "Move": 6467,
      "vention": 6468,
      "frac": 6469,
      "hide": 6470,
      "ensures": 6471,
      "Groups": 6472,
      "slash": 6473,
      "Redist": 6474,
      "innovative": 6475,
      "à¤": 6476,
      "struggle": 6477,
      "CONFIG": 6478,
      "Java": 6479,
      "parsing": 6480,
      "ĉĉĉĉĉĉ": 6481,
      "cau": 6482,
      "checking": 6483,
      "UTF": 6484,
      "filtered": 6485,
      "scipy": 6486,
      "guest": 6487,
      "Clean": 6488,
      "OPT": 6489,
      "Ð¾": 6490,
      "calendar": 6491,
      "variant": 6492,
      "copies": 6493,
      "Jew": 6494,
      "lie": 6495,
      "ABILITY": 6496,
      "Also": 6497,
      "errno": 6498,
      "sustainable": 6499,
      "etry": 6500,
      "consumer": 6501,
      "oil": 6502,
      "dims": 6503,
      "shard": 6504,
      "looks": 6505,
      "wheel": 6506,
      "Lat": 6507,
      "Sc": 6508,
      "vic": 6509,
      "healing": 6510,
      "spend": 6511,
      "Lock": 6512,
      "artifact": 6513,
      "QtGui": 6514,
      "History": 6515,
      "Pan": 6516,
      "noise": 6517,
      "onom": 6518,
      "enroll": 6519,
      "upgrade": 6520,
      "subreddit": 6521,
      "Calcul": 6522,
      "mouse": 6523,
      "everyday": 6524,
      "movements": 6525,
      "beginning": 6526,
      "broken": 6527,
      "IB": 6528,
      "ither": 6529,
      "teen": 6530,
      "chose": 6531,
      "subsc": 6532,
      "FromString": 6533,
      "immer": 6534,
      "weren": 6535,
      "packed": 6536,
      "supporting": 6537,
      "ective": 6538,
      "Deter": 6539,
      "epoch": 6540,
      "proj": 6541,
      "poses": 6542,
      "sections": 6543,
      "broad": 6544,
      "cooking": 6545,
      "tire": 6546,
      "veget": 6547,
      "webpage": 6548,
      "crimin": 6549,
      "appeared": 6550,
      "comparison": 6551,
      "Bre": 6552,
      "equi": 6553,
      "ftime": 6554,
      "thre": 6555,
      "reduced": 6556,
      "occurred": 6557,
      "fragment": 6558,
      "Route": 6559,
      "Further": 6560,
      "soup": 6561,
      "ticket": 6562,
      "verb": 6563,
      "backup": 6564,
      "playlist": 6565,
      "Timeout": 6566,
      "landscape": 6567,
      "rating": 6568,
      "reflection": 6569,
      "sugge": 6570,
      "segments": 6571,
      "fb": 6572,
      "ior": 6573,
      "nc": 6574,
      "oauth": 6575,
      "runs": 6576,
      "survey": 6577,
      "analyze": 6578,
      "ET": 6579,
      "slightly": 6580,
      "ye": 6581,
      "leaf": 6582,
      "ficial": 6583,
      "matic": 6584,
      "existence": 6585,
      "Contin": 6586,
      "compatibility": 6587,
      "Reserved": 6588,
      "Rom": 6589,
      "gment": 6590,
      "thro": 6591,
      "Ow": 6592,
      "fits": 6593,
      "tips": 6594,
      "dial": 6595,
      "payment": 6596,
      "NING": 6597,
      "Url": 6598,
      "za": 6599,
      "delight": 6600,
      "staying": 6601,
      "LOCK": 6602,
      "registered": 6603,
      "lu": 6604,
      "inline": 6605,
      "strftime": 6606,
      "filling": 6607,
      "gis": 6608,
      "margin": 6609,
      "aches": 6610,
      "ills": 6611,
      "reply": 6612,
      "Price": 6613,
      "eagerly": 6614,
      "WA": 6615,
      "rab": 6616,
      "painting": 6617,
      "exhi": 6618,
      "straight": 6619,
      "precious": 6620,
      "subset": 6621,
      "MESS": 6622,
      "Pick": 6623,
      "pus": 6624,
      "precation": 6625,
      "SPE": 6626,
      "ulated": 6627,
      "chem": 6628,
      "mysql": 6629,
      "assignment": 6630,
      "Lucy": 6631,
      "garden": 6632,
      "IG": 6633,
      "tip": 6634,
      "Instru": 6635,
      "forming": 6636,
      "rapid": 6637,
      "morphic": 6638,
      "ths": 6639,
      "passionate": 6640,
      "aggregate": 6641,
      "impl": 6642,
      "chars": 6643,
      "Defini": 6644,
      "accuracy": 6645,
      "circumst": 6646,
      "volumes": 6647,
      "harmony": 6648,
      "deliver": 6649,
      "authentication": 6650,
      "cus": 6651,
      "cine": 6652,
      "tively": 6653,
      "verti": 6654,
      "directories": 6655,
      "developing": 6656,
      "CD": 6657,
      "Sci": 6658,
      "importantly": 6659,
      "middleware": 6660,
      "addressing": 6661,
      "UND": 6662,
      "globals": 6663,
      "instrument": 6664,
      "äº¤": 6665,
      "Ori": 6666,
      "Qry": 6667,
      "ude": 6668,
      "ctu": 6669,
      "setdefault": 6670,
      "phen": 6671,
      "inesses": 6672,
      "cleanup": 6673,
      "Pay": 6674,
      "Âł": 6675,
      "tish": 6676,
      "ford": 6677,
      "outube": 6678,
      "canvas": 6679,
      "PIPE": 6680,
      "Cle": 6681,
      "Glob": 6682,
      "IE": 6683,
      "dn": 6684,
      "kes": 6685,
      "nic": 6686,
      "reasons": 6687,
      "losing": 6688,
      "une": 6689,
      "unusual": 6690,
      "colate": 6691,
      "LIABILITY": 6692,
      "fying": 6693,
      "reducing": 6694,
      "sympy": 6695,
      "inheritance": 6696,
      "rhyth": 6697,
      "Part": 6698,
      "lazy": 6699,
      "wt": 6700,
      "xd": 6701,
      "heap": 6702,
      "DIST": 6703,
      "CY": 6704,
      "Go": 6705,
      "lored": 6706,
      "mob": 6707,
      "servation": 6708,
      "doors": 6709,
      "INTO": 6710,
      "tens": 6711,
      "Unknown": 6712,
      "floor": 6713,
      "Word": 6714,
      "ote": 6715,
      "trade": 6716,
      "logic": 6717,
      "REE": 6718,
      "Soon": 6719,
      "Cannot": 6720,
      "Root": 6721,
      "edges": 6722,
      "motion": 6723,
      "Arti": 6724,
      "explain": 6725,
      "frozen": 6726,
      "navigating": 6727,
      "gif": 6728,
      "lag": 6729,
      "nail": 6730,
      "frappe": 6731,
      "extended": 6732,
      "technique": 6733,
      "Help": 6734,
      "bulk": 6735,
      "Provider": 6736,
      "third": 6737,
      "priv": 6738,
      "queryset": 6739,
      "showing": 6740,
      "career": 6741,
      "fortunately": 6742,
      "Amazon": 6743,
      "Radi": 6744,
      "identical": 6745,
      "Collection": 6746,
      "Sammy": 6747,
      "Harmony": 6748,
      "ske": 6749,
      "careful": 6750,
      "gm": 6751,
      "STATE": 6752,
      "Prepa": 6753,
      "mixed": 6754,
      "movies": 6755,
      "bounds": 6756,
      "ulator": 6757,
      "ulner": 6758,
      "speaking": 6759,
      "Program": 6760,
      "dens": 6761,
      "resolution": 6762,
      "rum": 6763,
      "Ð°": 6764,
      "unic": 6765,
      "frames": 6766,
      "Should": 6767,
      "faster": 6768,
      "reservation": 6769,
      "proposed": 6770,
      "Exit": 6771,
      "locked": 6772,
      "experiencing": 6773,
      "Emma": 6774,
      "åı·": 6775,
      "Â°": 6776,
      "aimed": 6777,
      "ollow": 6778,
      "connector": 6779,
      "Operations": 6780,
      "attached": 6781,
      "guar": 6782,
      "availability": 6783,
      "humanity": 6784,
      "claimed": 6785,
      "difficul": 6786,
      "completed": 6787,
      "Two": 6788,
      "ano": 6789,
      "backends": 6790,
      "mates": 6791,
      "rush": 6792,
      "Na": 6793,
      "pointer": 6794,
      "rench": 6795,
      "leaders": 6796,
      "stdin": 6797,
      "corresponds": 6798,
      "overwhelmed": 6799,
      "fle": 6800,
      "silen": 6801,
      "clou": 6802,
      "CTION": 6803,
      "ENER": 6804,
      "measures": 6805,
      "reflecting": 6806,
      "BASE": 6807,
      "clock": 6808,
      "tower": 6809,
      "protection": 6810,
      "architecture": 6811,
      "Green": 6812,
      "Sun": 6813,
      "irs": 6814,
      "minor": 6815,
      "Compute": 6816,
      "struggling": 6817,
      "mysterious": 6818,
      "INSTANCE": 6819,
      "BB": 6820,
      "lam": 6821,
      "stro": 6822,
      "sters": 6823,
      "unused": 6824,
      "cker": 6825,
      "brings": 6826,
      "placed": 6827,
      "covered": 6828,
      "positions": 6829,
      "centuries": 6830,
      "Exploring": 6831,
      "scenario": 6832,
      "Ali": 6833,
      "mile": 6834,
      "Unable": 6835,
      "litary": 6836,
      "street": 6837,
      "VICE": 6838,
      "tizens": 6839,
      "rides": 6840,
      "exchange": 6841,
      "sett": 6842,
      "dirty": 6843,
      "bigtable": 6844,
      "economic": 6845,
      "Oli": 6846,
      "universe": 6847,
      "ĠĠĠĠĠĠĠĠĠĠĠĠĠĠĠĠĠĠĠĠĠĠĠĠĠĠĠĠĠĠĠĠĠĠĠĠĠĠĠĠĠĠĠĠĠ": 6848,
      "Arn": 6849,
      "Health": 6850,
      "medical": 6851,
      "KET": 6852,
      "behaviors": 6853,
      "Consider": 6854,
      "ib": 6855,
      "findall": 6856,
      "SUP": 6857,
      "gas": 6858,
      "citizens": 6859,
      "interaction": 6860,
      "brew": 6861,
      "DOC": 6862,
      "converted": 6863,
      "Share": 6864,
      "ĠĠčĊ": 6865,
      "arp": 6866,
      "ticle": 6867,
      "sides": 6868,
      "THIS": 6869,
      "botocore": 6870,
      "commitment": 6871,
      "salt": 6872,
      "sparked": 6873,
      "crypto": 6874,
      "uv": 6875,
      "feet": 6876,
      "curr": 6877,
      "Cook": 6878,
      "waves": 6879,
      "meals": 6880,
      "toys": 6881,
      "atever": 6882,
      "visiting": 6883,
      "Seeing": 6884,
      "catalog": 6885,
      "anxious": 6886,
      "approxim": 6887,
      "Sty": 6888,
      "WR": 6889,
      "jav": 6890,
      "sem": 6891,
      "missions": 6892,
      "courses": 6893,
      "Transform": 6894,
      "businesses": 6895,
      "recommend": 6896,
      "opti": 6897,
      "entially": 6898,
      "butter": 6899,
      "thank": 6900,
      "genre": 6901,
      "Comment": 6902,
      "capable": 6903,
      "Hello": 6904,
      "CF": 6905,
      "Future": 6906,
      "York": 6907,
      "ham": 6908,
      "ench": 6909,
      "tier": 6910,
      "illed": 6911,
      "healthcare": 6912,
      "NG": 6913,
      "concent": 6914,
      "dication": 6915,
      "soil": 6916,
      "bum": 6917,
      "gry": 6918,
      "cleaned": 6919,
      "warmth": 6920,
      "MESSAGE": 6921,
      "hair": 6922,
      "Modi": 6923,
      "occas": 6924,
      "editor": 6925,
      "genuine": 6926,
      "circumstances": 6927,
      "KEN": 6928,
      "WI": 6929,
      "aut": 6930,
      "vc": 6931,
      "Ensure": 6932,
      "electric": 6933,
      "Black": 6934,
      "degree": 6935,
      "Unary": 6936,
      "covering": 6937,
      "ctivity": 6938,
      "BOX": 6939,
      "increasingly": 6940,
      "Classi": 6941,
      "infr": 6942,
      "ante": 6943,
      "cozy": 6944,
      "sively": 6945,
      "vehic": 6946,
      "opin": 6947,
      "irt": 6948,
      "selector": 6949,
      "OSError": 6950,
      "suitable": 6951,
      "retrieve": 6952,
      "ranges": 6953,
      "Furthermore": 6954,
      "inity": 6955,
      "ros": 6956,
      "resistance": 6957,
      "alchemy": 6958,
      "Unexpected": 6959,
      "nerv": 6960,
      "ceived": 6961,
      "CThostFtdcQry": 6962,
      "advance": 6963,
      "damage": 6964,
      "RC": 6965,
      "trouble": 6966,
      "soc": 6967,
      "creature": 6968,
      "LEFT": 6969,
      "sheet": 6970,
      "COMM": 6971,
      "discovering": 6972,
      "tradition": 6973,
      "annotation": 6974,
      "sitting": 6975,
      "David": 6976,
      "Ko": 6977,
      "Sally": 6978,
      "tid": 6979,
      "Params": 6980,
      "Play": 6981,
      "West": 6982,
      "gal": 6983,
      "dog": 6984,
      "assertIsInstance": 6985,
      "square": 6986,
      "camera": 6987,
      "Missing": 6988,
      "EFI": 6989,
      "National": 6990,
      "ocean": 6991,
      "tour": 6992,
      "Intri": 6993,
      "buildings": 6994,
      "literal": 6995,
      "deserializer": 6996,
      "Did": 6997,
      "GCP": 6998,
      "Ju": 6999,
      "eting": 7000,
      "greSQL": 7001,
      "professionals": 7002,
      "agreements": 7003,
      "heroes": 7004,
      "Mask": 7005,
      "Used": 7006,
      "sg": 7007,
      "desk": 7008,
      "suffer": 7009,
      "grounds": 7010,
      "astore": 7011,
      "TypeId": 7012,
      "literals": 7013,
      "rolled": 7014,
      "Pa": 7015,
      "Park": 7016,
      "lad": 7017,
      "pic": 7018,
      "ç»": 7019,
      "toms": 7020,
      "binding": 7021,
      "lization": 7022,
      "gno": 7023,
      "pin": 7024,
      "vulner": 7025,
      "outcomes": 7026,
      "institu": 7027,
      "purch": 7028,
      "represented": 7029,
      "village": 7030,
      "burn": 7031,
      "nit": 7032,
      "civi": 7033,
      "certs": 7034,
      "Domain": 7035,
      "stopped": 7036,
      "builtin": 7037,
      "Extension": 7038,
      "independent": 7039,
      "jun": 7040,
      "tons": 7041,
      "dedication": 7042,
      "disap": 7043,
      "workflow": 7044,
      "CONN": 7045,
      "UPDATE": 7046,
      "PostgreSQL": 7047,
      "bc": 7048,
      "theta": 7049,
      "Reader": 7050,
      "patched": 7051,
      "Metric": 7052,
      "tificates": 7053,
      "integration": 7054,
      "gc": 7055,
      "ette": 7056,
      "gives": 7057,
      "Timestamp": 7058,
      "warmly": 7059,
      "competition": 7060,
      "assertAllEqual": 7061,
      "AMPLE": 7062,
      "MLE": 7063,
      "delines": 7064,
      "newly": 7065,
      "gratitude": 7066,
      "Wait": 7067,
      "concrete": 7068,
      "perm": 7069,
      "Notes": 7070,
      "financial": 7071,
      "increase": 7072,
      "stores": 7073,
      "Implement": 7074,
      "PREFIX": 7075,
      "office": 7076,
      "tp": 7077,
      "assess": 7078,
      "RED": 7079,
      "enjoying": 7080,
      "accum": 7081,
      "classification": 7082,
      "æĺĵ": 7083,
      "paragraph": 7084,
      "brush": 7085,
      "ilit": 7086,
      "Reflect": 7087,
      "radius": 7088,
      "Lin": 7089,
      "TV": 7090,
      "bag": 7091,
      "coin": 7092,
      "persever": 7093,
      "iling": 7094,
      "Geor": 7095,
      "reminder": 7096,
      "Identifier": 7097,
      "PLAIN": 7098,
      "titem": 7099,
      "expo": 7100,
      "kept": 7101,
      "Names": 7102,
      "announ": 7103,
      "guard": 7104,
      "Byte": 7105,
      "thousands": 7106,
      "MD": 7107,
      "glo": 7108,
      "xf": 7109,
      "shut": 7110,
      "predic": 7111,
      "avg": 7112,
      "ĠĠĠĠĠĠĠĠĠĠĠĠĠĠĠĠĠĠĠĠĠĠĠĠĠĠĠĠĠĠĠĠĠĠĠĠĠĠĠĠĠĠĠĠĠĠĠ": 7113,
      "handles": 7114,
      "illustr": 7115,
      "RAW": 7116,
      "Middleware": 7117,
      "tearDown": 7118,
      "metic": 7119,
      "respe": 7120,
      "ghter": 7121,
      "Location": 7122,
      "Transaction": 7123,
      "recognized": 7124,
      "pm": 7125,
      "stretch": 7126,
      "ani": 7127,
      "ARE": 7128,
      "xxxxxxxxxxxxxxxx": 7129,
      "Double": 7130,
      "hearing": 7131,
      "subs": 7132,
      "designs": 7133,
      "äº¤æĺĵ": 7134,
      "Hum": 7135,
      "ename": 7136,
      "rise": 7137,
      "wiki": 7138,
      "videos": 7139,
      "linux": 7140,
      "IPv": 7141,
      "boundary": 7142,
      "Practi": 7143,
      "Transfer": 7144,
      "Bal": 7145,
      "lyph": 7146,
      "qualified": 7147,
      "ributed": 7148,
      "Second": 7149,
      "horizon": 7150,
      "pun": 7151,
      "sweet": 7152,
      "forced": 7153,
      "REF": 7154,
      "helpful": 7155,
      "Feeling": 7156,
      "adults": 7157,
      "BSD": 7158,
      "MES": 7159,
      "WOR": 7160,
      "lisher": 7161,
      "sti": 7162,
      "death": 7163,
      "unte": 7164,
      "Strings": 7165,
      "breathing": 7166,
      "Layout": 7167,
      "urban": 7168,
      "unks": 7169,
      "Plus": 7170,
      "Authors": 7171,
      "COPYRIGHT": 7172,
      "informed": 7173,
      "forth": 7174,
      "valent": 7175,
      "scared": 7176,
      "aching": 7177,
      "codec": 7178,
      "configured": 7179,
      "musici": 7180,
      "Compon": 7181,
      "pursu": 7182,
      "TA": 7183,
      "deleg": 7184,
      "accident": 7185,
      "writers": 7186,
      "explicitly": 7187,
      "Mic": 7188,
      "olog": 7189,
      "vents": 7190,
      "winter": 7191,
      "reme": 7192,
      "condu": 7193,
      "solace": 7194,
      "Elements": 7195,
      "drawn": 7196,
      "registration": 7197,
      "Usage": 7198,
      "atmosphere": 7199,
      "Done": 7200,
      "zed": 7201,
      "ador": 7202,
      "Repository": 7203,
      "interfaces": 7204,
      "Member": 7205,
      "millions": 7206,
      "IZ": 7207,
      "border": 7208,
      "tabs": 7209,
      "minute": 7210,
      "println": 7211,
      "audience": 7212,
      "titles": 7213,
      "Del": 7214,
      "zoo": 7215,
      "texts": 7216,
      "renewed": 7217,
      "UI": 7218,
      "ufact": 7219,
      "Arch": 7220,
      "replaced": 7221,
      "holds": 7222,
      "woo": 7223,
      "adversity": 7224,
      "Encoding": 7225,
      "TED": 7226,
      "ascrip": 7227,
      "Success": 7228,
      "observing": 7229,
      "ACCESS": 7230,
      "Await": 7231,
      "Sal": 7232,
      "Sample": 7233,
      "arity": 7234,
      "tol": 7235,
      "ĠĠĠĠĠĠĠĠĠĠĠĠĠĠĠĠčĊ": 7236,
      "unlink": 7237,
      "dise": 7238,
      "grateful": 7239,
      "illy": 7240,
      "versal": 7241,
      "sqlalchemy": 7242,
      "isdir": 7243,
      "angers": 7244,
      "Almost": 7245,
      "expressing": 7246,
      "sales": 7247,
      "Johnson": 7248,
      "contrast": 7249,
      "featuring": 7250,
      "Library": 7251,
      "ians": 7252,
      "shake": 7253,
      "returning": 7254,
      "bold": 7255,
      "counters": 7256,
      "expi": 7257,
      "COMP": 7258,
      "Positive": 7259,
      "mirror": 7260,
      "Broker": 7261,
      "choo": 7262,
      "Selection": 7263,
      "mlink": 7264,
      "harmon": 7265,
      "Monit": 7266,
      "minimal": 7267,
      "Awaitable": 7268,
      "Fix": 7269,
      "taste": 7270,
      "sender": 7271,
      "versionadded": 7272,
      "wsgi": 7273,
      "gradients": 7274,
      "ox": 7275,
      "wet": 7276,
      "enance": 7277,
      "nose": 7278,
      "clf": 7279,
      "setter": 7280,
      "readline": 7281,
      "firewall": 7282,
      "regularly": 7283,
      "entirely": 7284,
      "examining": 7285,
      "LIB": 7286,
      "identities": 7287,
      "TOKEN": 7288,
      "gradient": 7289,
      "PES": 7290,
      "vect": 7291,
      "xtures": 7292,
      "wash": 7293,
      "surrounded": 7294,
      "Upload": 7295,
      "landscapes": 7296,
      "ascript": 7297,
      "lor": 7298,
      "rr": 7299,
      "arange": 7300,
      "REG": 7301,
      "hyper": 7302,
      "fighting": 7303,
      "arts": 7304,
      "risks": 7305,
      "rac": 7306,
      "acade": 7307,
      "Perform": 7308,
      "Curious": 7309,
      "innovation": 7310,
      "parallel": 7311,
      "geom": 7312,
      "flavors": 7313,
      "checksum": 7314,
      "Intrigued": 7315,
      "Jane": 7316,
      "Mind": 7317,
      "hass": 7318,
      "ENTI": 7319,
      "COM": 7320,
      "Choice": 7321,
      "eff": 7322,
      "recall": 7323,
      "buff": 7324,
      "pygame": 7325,
      "overcome": 7326,
      "coverage": 7327,
      "sentin": 7328,
      "sought": 7329,
      "sdk": 7330,
      "circle": 7331,
      "Age": 7332,
      "MARY": 7333,
      "gw": 7334,
      "protected": 7335,
      "cmp": 7336,
      "isfile": 7337,
      "heavi": 7338,
      "shown": 7339,
      "ishing": 7340,
      "chocolate": 7341,
      "Checker": 7342,
      "trusted": 7343,
      "panel": 7344,
      "Country": 7345,
      "chaos": 7346,
      "Initialize": 7347,
      "finger": 7348,
      "CATE": 7349,
      "vertical": 7350,
      "sick": 7351,
      "spending": 7352,
      "Replace": 7353,
      "trim": 7354,
      "anticip": 7355,
      "XXX": 7356,
      "researchers": 7357,
      "Syntax": 7358,
      "CLA": 7359,
      "GY": 7360,
      "Hey": 7361,
      "dou": 7362,
      "kms": 7363,
      "vestor": 7364,
      "ski": 7365,
      "barri": 7366,
      "approaches": 7367,
      "preferences": 7368,
      "Si": 7369,
      "tele": 7370,
      "Encoder": 7371,
      "remembered": 7372,
      "Memory": 7373,
      "Float": 7374,
      "revealed": 7375,
      "Self": 7376,
      "silence": 7377,
      "Cent": 7378,
      "Mer": 7379,
      "gax": 7380,
      "wave": 7381,
      "ancy": 7382,
      "hest": 7383,
      "Seq": 7384,
      "improving": 7385,
      "exclusive": 7386,
      "North": 7387,
      "MagicMock": 7388,
      "vac": 7389,
      "delim": 7390,
      "retried": 7391,
      "flask": 7392,
      "ENCE": 7393,
      "Nodes": 7394,
      "classic": 7395,
      "txn": 7396,
      "possibilities": 7397,
      "chemical": 7398,
      "fur": 7399,
      "fut": 7400,
      "mouth": 7401,
      "httplib": 7402,
      "finite": 7403,
      "teachers": 7404,
      "resolved": 7405,
      "Ho": 7406,
      "restart": 7407,
      "Recogn": 7408,
      "streets": 7409,
      "doctype": 7410,
      "CER": 7411,
      "Hex": 7412,
      "TAG": 7413,
      "tren": 7414,
      "thin": 7415,
      "worried": 7416,
      "Moved": 7417,
      "graphs": 7418,
      "grown": 7419,
      "fallback": 7420,
      "Serialize": 7421,
      "nl": 7422,
      "todo": 7423,
      "union": 7424,
      "mathem": 7425,
      "formatted": 7426,
      "Linear": 7427,
      "shots": 7428,
      "FIELD": 7429,
      "Popen": 7430,
      "Total": 7431,
      "voices": 7432,
      "committed": 7433,
      "hou": 7434,
      "yp": 7435,
      "vim": 7436,
      "symlink": 7437,
      "vif": 7438,
      "convey": 7439,
      "military": 7440,
      "soldi": 7441,
      "causes": 7442,
      "DOUB": 7443,
      "pushing": 7444,
      "btn": 7445,
      "South": 7446,
      "tape": 7447,
      "chunks": 7448,
      "serious": 7449,
      "NOTE": 7450,
      "rendered": 7451,
      "combine": 7452,
      "DOUBLE": 7453,
      "NC": 7454,
      "thor": 7455,
      "peer": 7456,
      "anting": 7457,
      "APP": 7458,
      "sexual": 7459,
      "Gate": 7460,
      "Jes": 7461,
      "Null": 7462,
      "irect": 7463,
      "tems": 7464,
      "isco": 7465,
      "placing": 7466,
      "senti": 7467,
      "failures": 7468,
      "skipped": 7469,
      "benefit": 7470,
      "IV": 7471,
      "mav": 7472,
      "sph": 7473,
      "curses": 7474,
      "bles": 7475,
      "expir": 7476,
      "Choose": 7477,
      "ORY": 7478,
      "aclass": 7479,
      "powers": 7480,
      "ADATA": 7481,
      "UMENT": 7482,
      "branches": 7483,
      "solely": 7484,
      "Environments": 7485,
      "METADATA": 7486,
      "culti": 7487,
      "chr": 7488,
      "mood": 7489,
      "acle": 7490,
      "complish": 7491,
      "dicts": 7492,
      "Commit": 7493,
      "celebrate": 7494,
      "QUEST": 7495,
      "Random": 7496,
      "aters": 7497,
      "mption": 7498,
      "territ": 7499,
      "sitions": 7500,
      "dependent": 7501,
      "Regression": 7502,
      "separator": 7503,
      "Otherwise": 7504,
      "electronic": 7505,
      "MB": 7506,
      "Main": 7507,
      "rare": 7508,
      "decre": 7509,
      "musical": 7510,
      "machines": 7511,
      "shaped": 7512,
      "firestore": 7513,
      "amazon": 7514,
      "wildlife": 7515,
      "Descriptor": 7516,
      "LAN": 7517,
      "coh": 7518,
      "Inclu": 7519,
      "LOW": 7520,
      "crystal": 7521,
      "Categ": 7522,
      "Know": 7523,
      "blit": 7524,
      "casting": 7525,
      "Ordered": 7526,
      "established": 7527,
      "PLAINFORMAT": 7528,
      "swe": 7529,
      "unless": 7530,
      "neutron": 7531,
      "vict": 7532,
      "cream": 7533,
      "argparse": 7534,
      "culi": 7535,
      "glu": 7536,
      "Indigenous": 7537,
      "deployment": 7538,
      "Mut": 7539,
      "glow": 7540,
      "aby": 7541,
      "ossible": 7542,
      "Loader": 7543,
      "capabilities": 7544,
      "streams": 7545,
      "pping": 7546,
      "encouraged": 7547,
      "Estim": 7548,
      "exercises": 7549,
      "AF": 7550,
      "ael": 7551,
      "mur": 7552,
      "nation": 7553,
      "vary": 7554,
      "wel": 7555,
      "floating": 7556,
      "splits": 7557,
      "Cell": 7558,
      "spl": 7559,
      "infer": 7560,
      "died": 7561,
      "caption": 7562,
      "Enabled": 7563,
      "Student": 7564,
      "DD": 7565,
      "Hash": 7566,
      "plans": 7567,
      "trial": 7568,
      "Generic": 7569,
      "According": 7570,
      "Expression": 7571,
      "ongoing": 7572,
      "thumbnail": 7573,
      "Style": 7574,
      "GES": 7575,
      "aid": 7576,
      "qualities": 7577,
      "Err": 7578,
      "Const": 7579,
      "blah": 7580,
      "Art": 7581,
      "summer": 7582,
      "Organ": 7583,
      "temperatures": 7584,
      "Structure": 7585,
      "sentinel": 7586,
      "bare": 7587,
      "freq": 7588,
      "thick": 7589,
      "coast": 7590,
      "accomplish": 7591,
      "Unfortunately": 7592,
      "stepped": 7593,
      "parametri": 7594,
      "potentially": 7595,
      "authorized": 7596,
      "radio": 7597,
      "occasion": 7598,
      "MAR": 7599,
      "hang": 7600,
      "ato": 7601,
      "Platform": 7602,
      "SDL": 7603,
      "Ter": 7604,
      "fed": 7605,
      "tro": 7606,
      "peculi": 7607,
      "shall": 7608,
      "prising": 7609,
      "respond": 7610,
      "operators": 7611,
      "Properties": 7612,
      "Distribution": 7613,
      "dp": 7614,
      "fine": 7615,
      "youtube": 7616,
      "moti": 7617,
      "anymore": 7618,
      "RESOURCE": 7619,
      "mini": 7620,
      "humor": 7621,
      "reaching": 7622,
      "clause": 7623,
      "tedly": 7624,
      "grp": 7625,
      "breaks": 7626,
      "Harmonyville": 7627,
      "Mom": 7628,
      "rates": 7629,
      "endi": 7630,
      "nomi": 7631,
      "endless": 7632,
      "cipher": 7633,
      "organized": 7634,
      "artistic": 7635,
      "HttpResponse": 7636,
      "African": 7637,
      "percentage": 7638,
      "ValidationError": 7639,
      "gon": 7640,
      "waste": 7641,
      "beings": 7642,
      "intense": 7643,
      "emon": 7644,
      "dynamics": 7645,
      "hoping": 7646,
      "demonstrated": 7647,
      "gz": 7648,
      "lti": 7649,
      "plots": 7650,
      "xm": 7651,
      "æī": 7652,
      "poetry": 7653,
      "Internal": 7654,
      "Repe": 7655,
      "Which": 7656,
      "recognizing": 7657,
      "Dummy": 7658,
      "peers": 7659,
      "Split": 7660,
      "encourages": 7661,
      "fantastic": 7662,
      "cum": 7663,
      "gpu": 7664,
      "mesh": 7665,
      "coerce": 7666,
      "poke": 7667,
      "fileobj": 7668,
      "curl": 7669,
      "essence": 7670,
      "feedback": 7671,
      "European": 7672,
      "Bud": 7673,
      "rename": 7674,
      "edi": 7675,
      "agents": 7676,
      "whatever": 7677,
      "deps": 7678,
      "HTMLE": 7679,
      "annotate": 7680,
      "supplied": 7681,
      "golden": 7682,
      "intrigu": 7683,
      "OM": 7684,
      "spa": 7685,
      "suming": 7686,
      "implementing": 7687,
      "deserialize": 7688,
      "candidate": 7689,
      "optimal": 7690,
      "melo": 7691,
      "displayed": 7692,
      "cars": 7693,
      "lr": 7694,
      "Ðµ": 7695,
      "addition": 7696,
      "ĠĠĠĠĠĠĠĠĠĠĠĠĠĠĠĠĠĠĠĠĠĠĠĠĠĠĠĠĠĠĠĠĠĠĠĠĠĠĠĠĠĠĠĠĠĠĠĠĠĠĠ": 7697,
      "merely": 7698,
      "drive": 7699,
      "rooms": 7700,
      "symptoms": 7701,
      "Global": 7702,
      "IM": 7703,
      "ZZ": 7704,
      "cpp": 7705,
      "ticism": 7706,
      "blend": 7707,
      "porter": 7708,
      "swift": 7709,
      "ActionField": 7710,
      "PRIMARY": 7711,
      "æĬ": 7712,
      "intro": 7713,
      "upset": 7714,
      "volunte": 7715,
      "quotes": 7716,
      "advant": 7717,
      "accepted": 7718,
      "acquire": 7719,
      "IVE": 7720,
      "reactor": 7721,
      "apy": 7722,
      "RES": 7723,
      "manufact": 7724,
      "extras": 7725,
      "politics": 7726,
      "replica": 7727,
      "tensors": 7728,
      "peculiar": 7729,
      "GP": 7730,
      "UUID": 7731,
      "ighest": 7732,
      "overwrite": 7733,
      "ĠĠĠĠĠĠĠĠĠĠĠĠĠĠĠĠĠĠĠĠĠĠĠĠĠĠĠĠĠĠĠĠĠĠĠĠĠĠĠĠĠĠĠĠĠĠ": 7734,
      "Micro": 7735,
      "Turn": 7736,
      "revel": 7737,
      "abling": 7738,
      "aproc": 7739,
      "lla": 7740,
      "astype": 7741,
      "credit": 7742,
      "polymorphic": 7743,
      "masked": 7744,
      "anese": 7745,
      "physically": 7746,
      "industry": 7747,
      "blood": 7748,
      "javascript": 7749,
      "fixtures": 7750,
      "Though": 7751,
      "Report": 7752,
      "distributions": 7753,
      "Begin": 7754,
      "requirement": 7755,
      "silent": 7756,
      "PASS": 7757,
      "adc": 7758,
      "prox": 7759,
      "myth": 7760,
      "shouldn": 7761,
      "sigma": 7762,
      "Home": 7763,
      "wish": 7764,
      "delicate": 7765,
      "hasContent": 7766,
      "distances": 7767,
      "elling": 7768,
      "Stats": 7769,
      "SCRIPT": 7770,
      "bridge": 7771,
      "dh": 7772,
      "nice": 7773,
      "rs": 7774,
      "stability": 7775,
      "reads": 7776,
      "extends": 7777,
      "prim": 7778,
      "closing": 7779,
      "healthier": 7780,
      "religion": 7781,
      "AlmostEqual": 7782,
      "Year": 7783,
      "bly": 7784,
      "compressed": 7785,
      "INPUT": 7786,
      "hier": 7787,
      "equality": 7788,
      "Doc": 7789,
      "winning": 7790,
      "sphinx": 7791,
      "rein": 7792,
      "verified": 7793,
      "fears": 7794,
      "SIG": 7795,
      "entertain": 7796,
      "British": 7797,
      "Employee": 7798,
      "Follow": 7799,
      "vec": 7800,
      "Creating": 7801,
      "PROVID": 7802,
      "claimer": 7803,
      "EVT": 7804,
      "enthusiasm": 7805,
      "unt": 7806,
      "flour": 7807,
      "searching": 7808,
      "explaining": 7809,
      "gathering": 7810,
      "Geometry": 7811,
      "Power": 7812,
      "rote": 7813,
      "periods": 7814,
      "bias": 7815,
      "Defaults": 7816,
      "Serializer": 7817,
      "Origin": 7818,
      "mc": 7819,
      "redis": 7820,
      "ellow": 7821,
      "quis": 7822,
      "ARD": 7823,
      "chee": 7824,
      "hadn": 7825,
      "missed": 7826,
      "pipe": 7827,
      "follows": 7828,
      "please": 7829,
      "swap": 7830,
      "LOGGER": 7831,
      "ndarray": 7832,
      "DRAW": 7833,
      "gone": 7834,
      "cedu": 7835,
      "lia": 7836,
      "beam": 7837,
      "datac": 7838,
      "complexity": 7839,
      "Symbol": 7840,
      "Tags": 7841,
      "mystery": 7842,
      "intriguing": 7843,
      "gres": 7844,
      "tast": 7845,
      "inator": 7846,
      "assets": 7847,
      "licated": 7848,
      "White": 7849,
      "Assertion": 7850,
      "Keys": 7851,
      "EXIST": 7852,
      "continuous": 7853,
      "Timer": 7854,
      "AnsibleModule": 7855,
      "jection": 7856,
      "mistakes": 7857,
      "bask": 7858,
      "memo": 7859,
      "wear": 7860,
      "engaged": 7861,
      "SQLite": 7862,
      "explan": 7863,
      "developed": 7864,
      "soul": 7865,
      "architect": 7866,
      "Items": 7867,
      "hur": 7868,
      "wand": 7869,
      "susp": 7870,
      "parties": 7871,
      "formset": 7872,
      "disclaimer": 7873,
      "Produ": 7874,
      "checkpoint": 7875,
      "norms": 7876,
      "BigQuery": 7877,
      "sell": 7878,
      "lick": 7879,
      "conversion": 7880,
      "aci": 7881,
      "lications": 7882,
      "aved": 7883,
      "emis": 7884,
      "transc": 7885,
      "teams": 7886,
      "technologies": 7887,
      "consume": 7888,
      "encryption": 7889,
      "Cy": 7890,
      "Phy": 7891,
      "Take": 7892,
      "Tube": 7893,
      "ung": 7894,
      "die": 7895,
      "assertHTMLE": 7896,
      "INCT": 7897,
      "funcs": 7898,
      "lasting": 7899,
      "serialization": 7900,
      "Suite": 7901,
      "efficiency": 7902,
      "thrilling": 7903,
      "suggestion": 7904,
      "assertHTMLEqual": 7905,
      "Brow": 7906,
      "ades": 7907,
      "enrich": 7908,
      "church": 7909,
      "prov": 7910,
      "testType": 7911,
      "posts": 7912,
      "failUnless": 7913,
      "Static": 7914,
      "wonders": 7915,
      "habits": 7916,
      "lize": 7917,
      "whom": 7918,
      "berne": 7919,
      "generation": 7920,
      "central": 7921,
      "authorization": 7922,
      "Register": 7923,
      "quoted": 7924,
      "considering": 7925,
      "recursive": 7926,
      "YO": 7927,
      "dinner": 7928,
      "texture": 7929,
      "visions": 7930,
      "miss": 7931,
      "heartfelt": 7932,
      "Certificate": 7933,
      "infra": 7934,
      "King": 7935,
      "ko": 7936,
      "samp": 7937,
      "spin": 7938,
      "Always": 7939,
      "schol": 7940,
      "Generator": 7941,
      "NAMES": 7942,
      "CONTRIBUT": 7943,
      "heavily": 7944,
      "RS": 7945,
      "laws": 7946,
      "rad": 7947,
      "vl": 7948,
      "acid": 7949,
      "sigh": 7950,
      "Controller": 7951,
      "tells": 7952,
      "Lastly": 7953,
      "CONTRIBUTORS": 7954,
      "Zone": 7955,
      "thand": 7956,
      "essor": 7957,
      "objs": 7958,
      "nullable": 7959,
      "appearance": 7960,
      "invoke": 7961,
      "TRAN": 7962,
      "mere": 7963,
      "iding": 7964,
      "Req": 7965,
      "php": 7966,
      "foods": 7967,
      "Frank": 7968,
      "AccountField": 7969,
      "pixel": 7970,
      "Enum": 7971,
      "zones": 7972,
      "alg": 7973,
      "preview": 7974,
      "UTC": 7975,
      "inclusive": 7976,
      "analytic": 7977,
      "previously": 7978,
      "SPECI": 7979,
      "DRAWINGS": 7980,
      "stones": 7981,
      "ury": 7982,
      "spatial": 7983,
      "Exist": 7984,
      "mith": 7985,
      "passions": 7986,
      "Redirect": 7987,
      "ManyTo": 7988,
      "assistance": 7989,
      "phenomen": 7990,
      "BLOCK": 7991,
      "Sparse": 7992,
      "kill": 7993,
      "encoder": 7994,
      "engagement": 7995,
      "keeps": 7996,
      "RACT": 7997,
      "shock": 7998,
      "CUR": 7999,
      "Space": 8000,
      "highest": 8001,
      "ng": 8002,
      "wrote": 8003,
      "meal": 8004,
      "arent": 8005,
      "REQUEST": 8006,
      "indexes": 8007,
      "transition": 8008,
      "Func": 8009,
      "claim": 8010,
      "protecting": 8011,
      "Game": 8012,
      "Pho": 8013,
      "conservation": 8014,
      "aux": 8015,
      "ASC": 8016,
      "drag": 8017,
      "fascinated": 8018,
      "strengths": 8019,
      "Experiment": 8020,
      "couple": 8021,
      "chart": 8022,
      "suppor": 8023,
      "Loop": 8024,
      "YouTube": 8025,
      "positively": 8026,
      "Dete": 8027,
      "conveni": 8028,
      "Failure": 8029,
      "budget": 8030,
      "Retrieve": 8031,
      "Pop": 8032,
      "defines": 8033,
      "domin": 8034,
      "sending": 8035,
      "relations": 8036,
      "LOAD": 8037,
      "customs": 8038,
      "Being": 8039,
      "Fields": 8040,
      "acceptance": 8041,
      "Radio": 8042,
      "density": 8043,
      "GIT": 8044,
      "Grid": 8045,
      "Sli": 8046,
      "ito": 8047,
      "mate": 8048,
      "plist": 8049,
      "Ð½": 8050,
      "ern": 8051,
      "newline": 8052,
      "international": 8053,
      "district": 8054,
      "pleas": 8055,
      "presented": 8056,
      "Disable": 8057,
      "interested": 8058,
      "continues": 8059,
      "Regex": 8060,
      "eggs": 8061,
      "companies": 8062,
      "acknowledging": 8063,
      "Ax": 8064,
      "dre": 8065,
      "tack": 8066,
      "zb": 8067,
      "onal": 8068,
      "illa": 8069,
      "appreciated": 8070,
      "encouraging": 8071,
      "snippet": 8072,
      "Jewish": 8073,
      "DISTINCT": 8074,
      "mathemat": 8075,
      "BIT": 8076,
      "Cr": 8077,
      "dk": 8078,
      "dm": 8079,
      "valued": 8080,
      "brother": 8081,
      "chains": 8082,
      "probably": 8083,
      "novels": 8084,
      "Media": 8085,
      "Clear": 8086,
      "George": 8087,
      "bernetes": 8088,
      "åħ": 8089,
      "utor": 8090,
      "aign": 8091,
      "holi": 8092,
      "worlds": 8093,
      "sunlight": 8094,
      "safely": 8095,
      "crowd": 8096,
      "perseverance": 8097,
      "Investor": 8098,
      "centered": 8099,
      "connects": 8100,
      "Grad": 8101,
      "patient": 8102,
      "succeed": 8103,
      "Same": 8104,
      "oci": 8105,
      "wants": 8106,
      "olly": 8107,
      "scar": 8108,
      "friendships": 8109,
      "Head": 8110,
      "Descri": 8111,
      "subnets": 8112,
      "Team": 8113,
      "Limit": 8114,
      "French": 8115,
      "conduct": 8116,
      "cipl": 8117,
      "Named": 8118,
      "passes": 8119,
      "orient": 8120,
      "equipment": 8121,
      "COMMAND": 8122,
      "åĲ": 8123,
      "prod": 8124,
      "ultane": 8125,
      "eft": 8126,
      "Obs": 8127,
      "maker": 8128,
      "PRESS": 8129,
      "delimiter": 8130,
      "hat": 8131,
      "preci": 8132,
      "solver": 8133,
      "minimize": 8134,
      "GrpcTransport": 8135,
      "MARK": 8136,
      "MAL": 8137,
      "Ri": 8138,
      "stable": 8139,
      "Incre": 8140,
      "ATTR": 8141,
      "arian": 8142,
      "someday": 8143,
      "activate": 8144,
      "directed": 8145,
      "embedded": 8146,
      "OB": 8147,
      "stead": 8148,
      "metaclass": 8149,
      "ToString": 8150,
      "decide": 8151,
      "Support": 8152,
      "Good": 8153,
      "Spark": 8154,
      "infe": 8155,
      "ilk": 8156,
      "affic": 8157,
      "FilePath": 8158,
      "UNK": 8159,
      "deepcopy": 8160,
      "preferred": 8161,
      "revealing": 8162,
      "embedding": 8163,
      "Greek": 8164,
      "parametrize": 8165,
      "haz": 8166,
      "nurt": 8167,
      "saving": 8168,
      "rely": 8169,
      "anc": 8170,
      "chrom": 8171,
      "implicit": 8172,
      "performed": 8173,
      "caller": 8174,
      "alian": 8175,
      "ashion": 8176,
      "impacts": 8177,
      "numeric": 8178,
      "Validator": 8179,
      "CB": 8180,
      "Parent": 8181,
      "VR": 8182,
      "fans": 8183,
      "hint": 8184,
      "cope": 8185,
      "Thus": 8186,
      "listed": 8187,
      "Research": 8188,
      "distant": 8189,
      "singing": 8190,
      "linked": 8191,
      "medium": 8192,
      "functools": 8193,
      "affecting": 8194,
      "witness": 8195,
      "Offset": 8196,
      "clouds": 8197,
      "fault": 8198,
      "profiles": 8199,
      "procedu": 8200,
      "okay": 8201,
      "attending": 8202,
      "Authenti": 8203,
      "notebook": 8204,
      "bringing": 8205,
      "Bank": 8206,
      "nx": 8207,
      "assertAlmostEqual": 8208,
      "intern": 8209,
      "expressed": 8210,
      "pools": 8211,
      "peaceful": 8212,
      "han": 8213,
      "lunch": 8214,
      "mn": 8215,
      "arms": 8216,
      "netloc": 8217,
      "Kind": 8218,
      "SING": 8219,
      "UST": 8220,
      "bounded": 8221,
      "eu": 8222,
      "jinja": 8223,
      "bra": 8224,
      "Setting": 8225,
      "surprising": 8226,
      "executed": 8227,
      "Lookup": 8228,
      "Japanese": 8229,
      "Given": 8230,
      "Dest": 8231,
      "vendor": 8232,
      "poor": 8233,
      "handled": 8234,
      "openstack": 8235,
      "bigger": 8236,
      "Eventually": 8237,
      "scenes": 8238,
      "dialogue": 8239,
      "snowflake": 8240,
      "admir": 8241,
      "urement": 8242,
      "compiled": 8243,
      "formatter": 8244,
      "Deprecation": 8245,
      "multipart": 8246,
      "calculated": 8247,
      "encourage": 8248,
      "TIMEOUT": 8249,
      "ecosystems": 8250,
      "ManyToMany": 8251,
      "urations": 8252,
      "shed": 8253,
      "literary": 8254,
      "combining": 8255,
      "duplicate": 8256,
      "composition": 8257,
      "Agg": 8258,
      "Mich": 8259,
      "vtk": 8260,
      "lets": 8261,
      "quar": 8262,
      "polymers": 8263,
      "affects": 8264,
      "battle": 8265,
      "reminding": 8266,
      "OrderedDict": 8267,
      "PDF": 8268,
      "wb": 8269,
      "Ð¸": 8270,
      "stunning": 8271,
      "arader": 8272,
      "creations": 8273,
      "comprom": 8274,
      "spection": 8275,
      "cade": 8276,
      "functional": 8277,
      "cutting": 8278,
      "camarader": 8279,
      "accurate": 8280,
      "skep": 8281,
      "camaraderie": 8282,
      "Bel": 8283,
      "Sure": 8284,
      "aloud": 8285,
      "imports": 8286,
      "UNI": 8287,
      "intel": 8288,
      "personality": 8289,
      "described": 8290,
      "rabbit": 8291,
      "HBC": 8292,
      "LIN": 8293,
      "Raw": 8294,
      "nations": 8295,
      "tcp": 8296,
      "paid": 8297,
      "applying": 8298,
      "ites": 8299,
      "dishes": 8300,
      "extreme": 8301,
      "depression": 8302,
      "buckets": 8303,
      "HOLD": 8304,
      "El": 8305,
      "album": 8306,
      "urally": 8307,
      "Ther": 8308,
      "youth": 8309,
      "interact": 8310,
      "ĠĠĠĠĠĠĠĠĠĠĠĠĠĠĠĠĠĠĠĠĠĠĠĠĠĠĠĠĠĠĠĠĠĠĠĠĠĠĠĠĠĠĠĠĠĠĠĠ": 8311,
      "Keyword": 8312,
      "drivers": 8313,
      "Filename": 8314,
      "Labels": 8315,
      "enthusiasts": 8316,
      "RY": 8317,
      "ä¸": 8318,
      "ultural": 8319,
      "discipl": 8320,
      "sentence": 8321,
      "Identity": 8322,
      "initialized": 8323,
      "IndexError": 8324,
      "separated": 8325,
      "frequently": 8326,
      "Struct": 8327,
      "weighted": 8328,
      "AssertionError": 8329,
      "Fast": 8330,
      "ares": 8331,
      "bear": 8332,
      "female": 8333,
      "RET": 8334,
      "performing": 8335,
      "assume": 8336,
      "Avail": 8337,
      "Hy": 8338,
      "enty": 8339,
      "contained": 8340,
      "polynomi": 8341,
      "enjoyed": 8342,
      "SAPT": 8343,
      "verbosity": 8344,
      "Win": 8345,
      "lation": 8346,
      "aim": 8347,
      "apple": 8348,
      "appings": 8349,
      "eigh": 8350,
      "replacement": 8351,
      "preparing": 8352,
      "Dri": 8353,
      "Draw": 8354,
      "Smith": 8355,
      "lif": 8356,
      "ficient": 8357,
      "databases": 8358,
      "softly": 8359,
      "introduce": 8360,
      "diagno": 8361,
      "overwhelming": 8362,
      "Migration": 8363,
      "dashboard": 8364,
      "ENERGY": 8365,
      "exposure": 8366,
      "MI": 8367,
      "cnt": 8368,
      "recipi": 8369,
      "purposes": 8370,
      "relief": 8371,
      "assertAllClose": 8372,
      "DeprecationWarning": 8373,
      "baf": 8374,
      "dff": 8375,
      "god": 8376,
      "tap": 8377,
      "ergy": 8378,
      "alities": 8379,
      "triump": 8380,
      "secretly": 8381,
      "storytelling": 8382,
      "mutable": 8383,
      "colleag": 8384,
      "Icon": 8385,
      "Left": 8386,
      "jac": 8387,
      "rust": 8388,
      "thes": 8389,
      "till": 8390,
      "forum": 8391,
      "instanti": 8392,
      "artwork": 8393,
      "Changed": 8394,
      "kinds": 8395,
      "DAMAGES": 8396,
      "James": 8397,
      "pets": 8398,
      "uncomfortable": 8399,
      "sharp": 8400,
      "Remo": 8401,
      "distutils": 8402,
      "trick": 8403,
      "JOB": 8404,
      "optimization": 8405,
      "declared": 8406,
      "Single": 8407,
      "proved": 8408,
      "umin": 8409,
      "creator": 8410,
      "classroom": 8411,
      "Constraint": 8412,
      "modification": 8413,
      "picked": 8414,
      "Owl": 8415,
      "ENTIAL": 8416,
      "eties": 8417,
      "stors": 8418,
      "entered": 8419,
      "useum": 8420,
      "datat": 8421,
      "postgres": 8422,
      "terminal": 8423,
      "maked": 8424,
      "constructed": 8425,
      "decorator": 8426,
      "AVG": 8427,
      "DC": 8428,
      "RT": 8429,
      "RGB": 8430,
      "çº": 8431,
      "decoder": 8432,
      "Those": 8433,
      "ASK": 8434,
      "tmpl": 8435,
      "classifier": 8436,
      "Rate": 8437,
      "Tur": 8438,
      "gmail": 8439,
      "waters": 8440,
      "admi": 8441,
      "Export": 8442,
      "prints": 8443,
      "basestring": 8444,
      "probability": 8445,
      "annotations": 8446,
      "guided": 8447,
      "surroundings": 8448,
      "sandbox": 8449,
      "gun": 8450,
      "pitch": 8451,
      "rx": 8452,
      "regional": 8453,
      "spirits": 8454,
      "severe": 8455,
      "Cry": 8456,
      "Jour": 8457,
      "xcode": 8458,
      "recv": 8459,
      "ulating": 8460,
      "applies": 8461,
      "bases": 8462,
      "containers": 8463,
      "PROTO": 8464,
      "observed": 8465,
      "Jen": 8466,
      "prices": 8467,
      "happier": 8468,
      "Building": 8469,
      "detection": 8470,
      "LLC": 8471,
      "memorable": 8472,
      "Foc": 8473,
      "mount": 8474,
      "liqu": 8475,
      "retain": 8476,
      "festi": 8477,
      "ONT": 8478,
      "SECRE": 8479,
      "backgrounds": 8480,
      "IDs": 8481,
      "Assign": 8482,
      "Sets": 8483,
      "clicked": 8484,
      "Differ": 8485,
      "shadows": 8486,
      "enrollment": 8487,
      "SECRET": 8488,
      "Agent": 8489,
      "Virt": 8490,
      "gli": 8491,
      "Instrument": 8492,
      "éĩ": 8493,
      "ora": 8494,
      "ancestors": 8495,
      "zeug": 8496,
      "THER": 8497,
      "VC": 8498,
      "fat": 8499,
      "kzeug": 8500,
      "tot": 8501,
      "conci": 8502,
      "vertex": 8503,
      "Anna": 8504,
      "ISO": 8505,
      "Without": 8506,
      "Fire": 8507,
      "guidelines": 8508,
      "ption": 8509,
      "apt": 8510,
      "compression": 8511,
      "listdir": 8512,
      "propag": 8513,
      "fruits": 8514,
      "cosity": 8515,
      "arness": 8516,
      "joining": 8517,
      "viewers": 8518,
      "plane": 8519,
      "photos": 8520,
      "mechanical": 8521,
      "Ass": 8522,
      "Care": 8523,
      "WHE": 8524,
      "elder": 8525,
      "ARIS": 8526,
      "omor": 8527,
      "ERP": 8528,
      "responsib": 8529,
      "ensity": 8530,
      "AUTO": 8531,
      "Extended": 8532,
      "Robert": 8533,
      "Catalog": 8534,
      "sid": 8535,
      "angry": 8536,
      "orn": 8537,
      "elled": 8538,
      "eves": 8539,
      "discrimin": 8540,
      "Exci": 8541,
      "owned": 8542,
      "Most": 8543,
      "posal": 8544,
      "association": 8545,
      "smoothly": 8546,
      "Component": 8547,
      "quad": 8548,
      "pod": 8549,
      "filesystem": 8550,
      "brand": 8551,
      "cris": 8552,
      "visor": 8553,
      "squared": 8554,
      "perfectly": 8555,
      "definitions": 8556,
      "mysteries": 8557,
      "escaped": 8558,
      "Cancel": 8559,
      "tired": 8560,
      "toler": 8561,
      "increases": 8562,
      "Multiple": 8563,
      "frustr": 8564,
      "Embr": 8565,
      "candidates": 8566,
      "ultaneously": 8567,
      "Utils": 8568,
      "Was": 8569,
      "fmap": 8570,
      "insect": 8571,
      "expon": 8572,
      "airs": 8573,
      "audiences": 8574,
      "Endpoint": 8575,
      "swim": 8576,
      "concaten": 8577,
      "concentr": 8578,
      "makedirs": 8579,
      "Ren": 8580,
      "rstrip": 8581,
      "throws": 8582,
      "discus": 8583,
      "arrange": 8584,
      "empow": 8585,
      "gene": 8586,
      "discoveries": 8587,
      "Display": 8588,
      "tmpdir": 8589,
      "symbo": 8590,
      "phrase": 8591,
      "Igno": 8592,
      "UE": 8593,
      "realizing": 8594,
      "neither": 8595,
      "dish": 8596,
      "itize": 8597,
      "occurs": 8598,
      "Depend": 8599,
      "Jesus": 8600,
      "Ids": 8601,
      "fare": 8602,
      "LIABLE": 8603,
      "storing": 8604,
      "ggers": 8605,
      "tracker": 8606,
      "SHALL": 8607,
      "Redistributions": 8608,
      "Events": 8609,
      "jwt": 8610,
      "wf": 8611,
      "antic": 8612,
      "abort": 8613,
      "Refer": 8614,
      "pride": 8615,
      "falls": 8616,
      "HEADER": 8617,
      "PH": 8618,
      "Pen": 8619,
      "çĶ": 8620,
      "criter": 8621,
      "examine": 8622,
      "WISE": 8623,
      "Classifier": 8624,
      "PROVIDED": 8625,
      "Upon": 8626,
      "Var": 8627,
      "ological": 8628,
      "pup": 8629,
      "asses": 8630,
      "vir": 8631,
      "visibility": 8632,
      "Services": 8633,
      "folks": 8634,
      "Users": 8635,
      "Spir": 8636,
      "slices": 8637,
      "neighborhood": 8638,
      "ARISING": 8639,
      "ndim": 8640,
      "primi": 8641,
      "ContentType": 8642,
      "India": 8643,
      "brief": 8644,
      "Snap": 8645,
      "fashion": 8646,
      "sus": 8647,
      "Active": 8648,
      "practical": 8649,
      "broader": 8650,
      "touched": 8651,
      "participate": 8652,
      "Package": 8653,
      "DOCUMENT": 8654,
      "CONNECT": 8655,
      "Describe": 8656,
      "VS": 8657,
      "dx": 8658,
      "ords": 8659,
      "grav": 8660,
      "Construct": 8661,
      "RESS": 8662,
      "privi": 8663,
      "WARNING": 8664,
      "EXPRESS": 8665,
      "computed": 8666,
      "jected": 8667,
      "Small": 8668,
      "revelation": 8669,
      "Wi": 8670,
      "tai": 8671,
      "uploaded": 8672,
      "blobs": 8673,
      "CONTRACT": 8674,
      "Download": 8675,
      "WHETHER": 8676,
      "GR": 8677,
      "medicine": 8678,
      "thoughtful": 8679,
      "instructions": 8680,
      "trailing": 8681,
      "Fetch": 8682,
      "cpy": 8683,
      "haven": 8684,
      "inhabit": 8685,
      "reactions": 8686,
      "shops": 8687,
      "aited": 8688,
      "computers": 8689,
      "meticul": 8690,
      "Bind": 8691,
      "Must": 8692,
      "æĪ": 8693,
      "seam": 8694,
      "edx": 8695,
      "traffic": 8696,
      "outcome": 8697,
      "intently": 8698,
      "predi": 8699,
      "Story": 8700,
      "forests": 8701,
      "occup": 8702,
      "IOS": 8703,
      "quiring": 8704,
      "Pattern": 8705,
      "choosing": 8706,
      "basket": 8707,
      "Grand": 8708,
      "mad": 8709,
      "formula": 8710,
      "interactive": 8711,
      "Prote": 8712,
      "molecu": 8713,
      "PASSWORD": 8714,
      "CURE": 8715,
      "gzip": 8716,
      "slots": 8717,
      "isomor": 8718,
      "listener": 8719,
      "eps": 8720,
      "itertools": 8721,
      "treated": 8722,
      "publication": 8723,
      "optimize": 8724,
      "facilit": 8725,
      "discussed": 8726,
      "SUM": 8727,
      "Watch": 8728,
      "tend": 8729,
      "readable": 8730,
      "interpre": 8731,
      "firs": 8732,
      "assertIsNot": 8733,
      "OrderField": 8734,
      "BUIL": 8735,
      "official": 8736,
      "DEFIN": 8737,
      "Act": 8738,
      "Json": 8739,
      "vpn": 8740,
      "devi": 8741,
      "iface": 8742,
      "Determin": 8743,
      "Reflecting": 8744,
      "Flex": 8745,
      "IAM": 8746,
      "Master": 8747,
      "tok": 8748,
      "transactions": 8749,
      "Algorith": 8750,
      "clip": 8751,
      "itchen": 8752,
      "atoms": 8753,
      "habitats": 8754,
      "approximately": 8755,
      "CKET": 8756,
      "fh": 8757,
      "inch": 8758,
      "chrome": 8759,
      "busy": 8760,
      "plural": 8761,
      "antum": 8762,
      "prefixes": 8763,
      "harsh": 8764,
      "Span": 8765,
      "digit": 8766,
      "massive": 8767,
      "Designate": 8768,
      "Koch": 8769,
      "Practice": 8770,
      "primarily": 8771,
      "BACK": 8772,
      "MT": 8773,
      "narrow": 8774,
      "incident": 8775,
      "ays": 8776,
      "comma": 8777,
      "inese": 8778,
      "publisher": 8779,
      "DOWN": 8780,
      "cherished": 8781,
      "aspir": 8782,
      "mobile": 8783,
      "firsthand": 8784,
      "pour": 8785,
      "spar": 8786,
      "ying": 8787,
      "imported": 8788,
      "underscore": 8789,
      "functionality": 8790,
      "phones": 8791,
      "veness": 8792,
      "stride": 8793,
      "WSGI": 8794,
      "balanced": 8795,
      "losses": 8796,
      "spreading": 8797,
      "sudden": 8798,
      "contributing": 8799,
      "Pos": 8800,
      "ÑĤ": 8801,
      "secs": 8802,
      "tick": 8803,
      "imperson": 8804,
      "hosp": 8805,
      "backs": 8806,
      "presents": 8807,
      "Communic": 8808,
      "infrastructure": 8809,
      "ao": 8810,
      "bread": 8811,
      "cout": 8812,
      "instructor": 8813,
      "apsed": 8814,
      "Testing": 8815,
      "membership": 8816,
      "complexities": 8817,
      "ownership": 8818,
      "replicas": 8819,
      "promised": 8820,
      "Psy": 8821,
      "ancer": 8822,
      "copi": 8823,
      "unsigned": 8824,
      "vivid": 8825,
      "intended": 8826,
      "ains": 8827,
      "Rep": 8828,
      "indigenous": 8829,
      "tracking": 8830,
      "tzinfo": 8831,
      "symmet": 8832,
      "dangerous": 8833,
      "Definition": 8834,
      "ored": 8835,
      "wa": 8836,
      "theory": 8837,
      "modes": 8838,
      "grass": 8839,
      "Because": 8840,
      "zerver": 8841,
      "spired": 8842,
      "subjects": 8843,
      "equivalent": 8844,
      "ManyToManyField": 8845,
      "android": 8846,
      "loving": 8847,
      "adop": 8848,
      "wealth": 8849,
      "INF": 8850,
      "bert": 8851,
      "stands": 8852,
      "contexts": 8853,
      "Students": 8854,
      "scenarios": 8855,
      "privacy": 8856,
      "Oliver": 8857,
      "Bg": 8858,
      "ram": 8859,
      "excell": 8860,
      "abe": 8861,
      "resize": 8862,
      "ulary": 8863,
      "SED": 8864,
      "Loc": 8865,
      "bian": 8866,
      "Running": 8867,
      "University": 8868,
      "STATUS": 8869,
      "Music": 8870,
      "cinder": 8871,
      "DAT": 8872,
      "lem": 8873,
      "unlock": 8874,
      "moon": 8875,
      "wire": 8876,
      "iris": 8877,
      "fundam": 8878,
      "Debug": 8879,
      "carbon": 8880,
      "Such": 8881,
      "combinations": 8882,
      "cooling": 8883,
      "deadline": 8884,
      "campaign": 8885,
      "fingers": 8886,
      "hesitated": 8887,
      "OTHERWISE": 8888,
      "prayer": 8889,
      "SerializeToString": 8890,
      "dhcp": 8891,
      "ND": 8892,
      "SK": 8893,
      "loud": 8894,
      "unable": 8895,
      "grant": 8896,
      "scriptions": 8897,
      "Resol": 8898,
      "possess": 8899,
      "FileName": 8900,
      "confusion": 8901,
      "MySQL": 8902,
      "algorithms": 8903,
      "Analysis": 8904,
      "Bun": 8905,
      "plo": 8906,
      "mox": 8907,
      "icken": 8908,
      "plate": 8909,
      "Login": 8910,
      "transportation": 8911,
      "serialized": 8912,
      "instruments": 8913,
      "resident": 8914,
      "harmful": 8915,
      "TORT": 8916,
      "Willi": 8917,
      "enabling": 8918,
      "chdir": 8919,
      "motiv": 8920,
      "sists": 8921,
      "Social": 8922,
      "ClientInfo": 8923,
      "Quote": 8924,
      "consistency": 8925,
      "Normal": 8926,
      "shutdown": 8927,
      "ico": 8928,
      "xs": 8929,
      "allocation": 8930,
      "veled": 8931,
      "outing": 8932,
      "ulture": 8933,
      "viscosity": 8934,
      "imagination": 8935,
      "clearly": 8936,
      "musicians": 8937,
      "è¡": 8938,
      "forcing": 8939,
      "ila": 8940,
      "strengthen": 8941,
      "concern": 8942,
      "School": 8943,
      "psychology": 8944,
      "nesses": 8945,
      "nam": 8946,
      "tang": 8947,
      "auma": 8948,
      "buttons": 8949,
      "equally": 8950,
      "cryst": 8951,
      "invited": 8952,
      "OPTIONS": 8953,
      "Gateway": 8954,
      "srid": 8955,
      "tweet": 8956,
      "heated": 8957,
      "Rest": 8958,
      "Article": 8959,
      "inclusi": 8960,
      "Poli": 8961,
      "implements": 8962,
      "incredibly": 8963,
      "planned": 8964,
      "Switch": 8965,
      "honor": 8966,
      "iv": 8967,
      "xception": 8968,
      "revolution": 8969,
      "enc": 8970,
      "ctl": 8971,
      "spam": 8972,
      "intersection": 8973,
      "clothes": 8974,
      "populations": 8975,
      "RIL": 8976,
      "engineering": 8977,
      "England": 8978,
      "recognition": 8979,
      "sau": 8980,
      "ç¼": 8981,
      "Reset": 8982,
      "solar": 8983,
      "FIL": 8984,
      "initiatives": 8985,
      "breathtaking": 8986,
      "celebrating": 8987,
      "incorporate": 8988,
      "shares": 8989,
      "æľŁ": 8990,
      "Registration": 8991,
      "opinions": 8992,
      "RUN": 8993,
      "furn": 8994,
      "mber": 8995,
      "ya": 8996,
      "attack": 8997,
      "clothing": 8998,
      "thoughtfully": 8999,
      "intervals": 9000,
      "ICES": 9001,
      "collector": 9002,
      "darkness": 9003,
      "CYRIL": 9004,
      "intellect": 9005,
      "Center": 9006,
      "LY": 9007,
      "PK": 9008,
      "fg": 9009,
      "gdata": 9010,
      "mx": 9011,
      "pager": 9012,
      "wk": 9013,
      "rop": 9014,
      "Training": 9015,
      "oked": 9016,
      "afford": 9017,
      "merged": 9018,
      "mtree": 9019,
      "converter": 9020,
      "marvel": 9021,
      "broke": 9022,
      "CONTENT": 9023,
      "conventional": 9024,
      "Christianity": 9025,
      "vectors": 9026,
      "barriers": 9027,
      "CYRILLIC": 9028,
      "lig": 9029,
      "etree": 9030,
      "pep": 9031,
      "pause": 9032,
      "chest": 9033,
      "Modern": 9034,
      "checker": 9035,
      "cyc": 9036,
      "childhood": 9037,
      "CThostFtdcExchange": 9038,
      "mountains": 9039,
      "Include": 9040,
      "Physical": 9041,
      "Remote": 9042,
      "LAB": 9043,
      "Light": 9044,
      "YY": 9045,
      "dancing": 9046,
      "gf": 9047,
      "isk": 9048,
      "coeff": 9049,
      "terri": 9050,
      "pathname": 9051,
      "collected": 9052,
      "STE": 9053,
      "startup": 9054,
      "ALI": 9055,
      "breathe": 9056,
      "presentation": 9057,
      "trained": 9058,
      "glance": 9059,
      "Canada": 9060,
      "nights": 9061,
      "gaming": 9062,
      "Edge": 9063,
      "Africa": 9064,
      "carrying": 9065,
      "honest": 9066,
      "Old": 9067,
      "Site": 9068,
      "yellow": 9069,
      "tears": 9070,
      "ads": 9071,
      "classmates": 9072,
      "EXAMPLE": 9073,
      "sale": 9074,
      "Processing": 9075,
      "FIXME": 9076,
      "Calculate": 9077,
      "Mor": 9078,
      "RFC": 9079,
      "mg": 9080,
      "Ġĉ": 9081,
      "ofp": 9082,
      "RESP": 9083,
      "seeds": 9084,
      "judgment": 9085,
      "CK": 9086,
      "Sl": 9087,
      "ASF": 9088,
      "Permissions": 9089,
      "imagined": 9090,
      "Leg": 9091,
      "Blue": 9092,
      "ACTION": 9093,
      "Where": 9094,
      "cgl": 9095,
      "gcs": 9096,
      "REST": 9097,
      "tensions": 9098,
      "Americans": 9099,
      "procurement": 9100,
      "TCP": 9101,
      "mappings": 9102,
      "oxy": 9103,
      "rd": 9104,
      "tors": 9105,
      "meters": 9106,
      "mol": 9107,
      "bugs": 9108,
      "angles": 9109,
      "spher": 9110,
      "aked": 9111,
      "Optim": 9112,
      "loyal": 9113,
      "reports": 9114,
      "nbsp": 9115,
      "recommended": 9116,
      "Arguments": 9117,
      "LP": 9118,
      "eras": 9119,
      "chop": 9120,
      "adapter": 9121,
      "contributions": 9122,
      "Runner": 9123,
      "Regular": 9124,
      "Interval": 9125,
      "evolution": 9126,
      "circu": 9127,
      "possibly": 9128,
      "Evaluation": 9129,
      "cheese": 9130,
      "blow": 9131,
      "reported": 9132,
      "prag": 9133,
      "licity": 9134,
      "Assert": 9135,
      "bitr": 9136,
      "slave": 9137,
      "updating": 9138,
      "Append": 9139,
      "tracks": 9140,
      "SERVICE": 9141,
      "combination": 9142,
      "indicates": 9143,
      "coordinate": 9144,
      "Notification": 9145,
      "supportive": 9146,
      "Render": 9147,
      "bq": 9148,
      "hr": 9149,
      "oy": 9150,
      "serted": 9151,
      "getenv": 9152,
      "poem": 9153,
      "odds": 9154,
      "hardware": 9155,
      "haust": 9156,
      "dimensional": 9157,
      "EXISTS": 9158,
      "Aggreg": 9159,
      "ç¼ĸ": 9160,
      "Face": 9161,
      "GIN": 9162,
      "astr": 9163,
      "flight": 9164,
      "tc": 9165,
      "armed": 9166,
      "prime": 9167,
      "denom": 9168,
      "Short": 9169,
      "Attemp": 9170,
      "namespacedef": 9171,
      "mkdir": 9172,
      "pixels": 9173,
      "delightful": 9174,
      "nervous": 9175,
      "Category": 9176,
      "Native": 9177,
      "Shel": 9178,
      "kitchen": 9179,
      "stages": 9180,
      "neur": 9181,
      "OpenERP": 9182,
      "editable": 9183,
      "Methods": 9184,
      "competi": 9185,
      "treasure": 9186,
      "Cookie": 9187,
      "VPC": 9188,
      "casing": 9189,
      "ĉĠĠ": 9190,
      "unting": 9191,
      "histor": 9192,
      "Alter": 9193,
      "xmlns": 9194,
      "rollback": 9195,
      "concerned": 9196,
      "CID": 9197,
      "Rect": 9198,
      "caring": 9199,
      "kins": 9200,
      "undefined": 9201,
      "Trading": 9202,
      "izes": 9203,
      "azure": 9204,
      "Actions": 9205,
      "III": 9206,
      "treasures": 9207,
      "explanation": 9208,
      "Bi": 9209,
      "Mel": 9210,
      "Tal": 9211,
      "æĹ": 9212,
      "ligh": 9213,
      "mpmath": 9214,
      "CEPT": 9215,
      "Width": 9216,
      "Japan": 9217,
      "thorough": 9218,
      "ASCII": 9219,
      "Spirit": 9220,
      "assertIsNotNone": 9221,
      "Bin": 9222,
      "Cs": 9223,
      "Sort": 9224,
      "Safe": 9225,
      "lp": 9226,
      "nm": 9227,
      "diving": 9228,
      "qued": 9229,
      "getter": 9230,
      "getitem": 9231,
      "Consu": 9232,
      "Star": 9233,
      "DEX": 9234,
      "listeners": 9235,
      "POINTER": 9236,
      "birthday": 9237,
      "huge": 9238,
      "sacri": 9239,
      "Cel": 9240,
      "Git": 9241,
      "faction": 9242,
      "oned": 9243,
      "evt": 9244,
      "SEQU": 9245,
      "daemon": 9246,
      "consult": 9247,
      "marveled": 9248,
      "Need": 9249,
      "excitedly": 9250,
      "crop": 9251,
      "whispered": 9252,
      "William": 9253,
      "mtime": 9254,
      "nai": 9255,
      "ogram": 9256,
      "cling": 9257,
      "Encourage": 9258,
      "persons": 9259,
      "normalized": 9260,
      "analyzing": 9261,
      "Reading": 9262,
      "Super": 9263,
      "dynamo": 9264,
      "recovery": 9265,
      "soldiers": 9266,
      "PR": 9267,
      "bf": 9268,
      "earn": 9269,
      "rmtree": 9270,
      "typing": 9271,
      "buildAttributes": 9272,
      "exportAttributes": 9273,
      "Integr": 9274,
      "twice": 9275,
      "participants": 9276,
      "dlp": 9277,
      "COLUM": 9278,
      "exportLiteralAttributes": 9279,
      "exportLiteralChildren": 9280,
      "Sanity": 9281,
      "predicate": 9282,
      "copied": 9283,
      "Gather": 9284,
      "LGB": 9285,
      "PD": 9286,
      "opcode": 9287,
      "regime": 9288,
      "produced": 9289,
      "talent": 9290,
      "generally": 9291,
      "finds": 9292,
      "thrive": 9293,
      "Rows": 9294,
      "routines": 9295,
      "south": 9296,
      "Zero": 9297,
      "apers": 9298,
      "joint": 9299,
      "markup": 9300,
      "validator": 9301,
      "Gets": 9302,
      "Created": 9303,
      "DIFF": 9304,
      "associate": 9305,
      "characteristics": 9306,
      "mutations": 9307,
      "describing": 9308,
      "Execute": 9309,
      "SyntaxError": 9310,
      "Wal": 9311,
      "Will": 9312,
      "km": 9313,
      "ceptions": 9314,
      "overrides": 9315,
      "Prof": 9316,
      "actively": 9317,
      "France": 9318,
      "Subnet": 9319,
      "integrity": 9320,
      "dialogflow": 9321,
      "indicating": 9322,
      "immediate": 9323,
      "debates": 9324,
      "proudly": 9325,
      "leadership": 9326,
      "Extractor": 9327,
      "highlighting": 9328,
      "lens": 9329,
      "packaging": 9330,
      "magni": 9331,
      "detailed": 9332,
      "confused": 9333,
      "increment": 9334,
      "integral": 9335,
      "residents": 9336,
      "VIS": 9337,
      "coord": 9338,
      "ssue": 9339,
      "combo": 9340,
      "LException": 9341,
      "disks": 9342,
      "sheets": 9343,
      "synchron": 9344,
      "SERV": 9345,
      "StatusCode": 9346,
      "Lesser": 9347,
      "accessible": 9348,
      "rhythm": 9349,
      "trends": 9350,
      "Iam": 9351,
      "mapped": 9352,
      "Inspired": 9353,
      "downloaded": 9354,
      "Attach": 9355,
      "Instances": 9356,
      "bench": 9357,
      "crafting": 9358,
      "improvement": 9359,
      "independence": 9360,
      "bgp": 9361,
[...]
