{
  "version": "1.0",
  "truncation": null,
  "padding": null,
  "added_tokens": [
    {
      "id": 0,
      "content": "<unk>",
      "single_word": false,
      "lstrip": false,
      "rstrip": false,
      "normalized": false,
      "special": true
    },
    {
      "id": 1,
      "content": "<pad>",
      "single_word": false,
      "lstrip": false,
      "rstrip": false,
      "normalized": false,
      "special": true
    },
    {
      "id": 2,
      "content": "<eos>",
      "single_word": false,
      "lstrip": false,
      "rstrip": false,
      "normalized": false,
      "special": true
    }
  ],
  "normalizer": null,
  "pre_tokenizer": {
    "type": "Sequence",
    "pretokenizers": [
      {
        "type": "Split",
        "pattern": {
          "Regex": "\\p{L}+|\\p{N}|[^\\s\\p{L}\\p{N}]|\\s+"
        },
        "behavior": "Isolated",
        "invert": false
      },
      {
        "type": "ByteLevel",
        "add_prefix_space": false,
        "trim_offsets": true,
        "use_regex": false
      }
    ]
  },
  "post_processor": null,
  "decoder": {
    "type": "ByteLevel",
    "add_prefix_space": true,
    "trim_offsets": true,
    "use_regex": true
  },
  "model": {
    "type": "BPE",
    "dropout": null,
    "unk_token": "<unk>",
    "continuing_subword_prefix": null,
    "end_of_word_suffix": null,
    "fuse_unk": false,
    "byte_fallback": false,
    "ignore_merges": false,
    "vocab": {
      "<unk>": 0,
      "<pad>": 1,
      "<eos>": 2,
      "!": 3,
      "\"": 4,
      "#": 5,
      "$": 6,
      "%": 7,
      "&": 8,
      "'": 9,
      "(": 10,
      ")": 11,
      "*": 12,
      "+": 13,
      ",": 14,
      "-": 15,
      ".": 16,
      "/": 17,
      "0": 18,
      "1": 19,
      "2": 20,
      "3": 21,
      "4": 22,
      "5": 23,
      "6": 24,
      "7": 25,
      "8": 26,
      "9": 27,
      ":": 28,
      ";": 29,
      "<": 30,
      "=": 31,
      ">": 32,
      "?": 33,
      "@": 34,
      "A": 35,
      "B": 36,
      "C": 37,
      "D": 38,
      "E": 39,
      "F": 40,
      "G": 41,
      "H": 42,
      "I": 43,
      "J": 44,
      "K": 45,
      "L": 46,
      "M": 47,
      "N": 48,
      "O": 49,
      "P": 50,
      "Q": 51,
      "R": 52,
      "S": 53,
      "T": 54,
      "U": 55,
      "V": 56,
      "W": 57,
      "X": 58,
      "Y": 59,
      "Z": 60,
      "[": 61,
      "\\": 62,
      "]": 63,
      "^": 64,
      "_": 65,
      "`": 66,
      "a": 67,
      "b": 68,
      "c": 69,
      "d": 70,
      "e": 71,
      "f": 72,
      "g": 73,
      "h": 74,
      "i": 75,
      "j": 76,
      "k": 77,
      "l": 78,
      "m": 79,
      "n": 80,
      "o": 81,
      "p": 82,
      "q": 83,
      "r": 84,
      "s": 85,
      "t": 86,
      "u": 87,
      "v": 88,
      "w": 89,
      "x": 90,
      "y": 91,
      "z": 92,
      "{": 93,
      "|": 94,
      "}": 95,
      "~": 96,
      "¡": 97,
      "¢": 98,
      "£": 99,
      "¤": 100,
      "¥": 101,
      "¦": 102,
      "§": 103,
      "¨": 104,
      "©": 105,
      "ª": 106,
      "«": 107,
      "¬": 108,
      "®": 109,
      "¯": 110,
      "°": 111,
      "±": 112,
      "²": 113,
      "³": 114,
      "´": 115,
      "µ": 116,
      "¶": 117,
      "·": 118,
      "¸": 119,
      "¹": 120,
      "º": 121,
      "»": 122,
      "¼": 123,
      "½": 124,
      "¾": 125,
      "¿": 126,
      "À": 127,
      "Á": 128,
      "Â": 129,
      "Ã": 130,
      "Ä": 131,
      "Å": 132,
      "Æ": 133,
      "Ç": 134,
      "È": 135,
      "É": 136,
      "Ê": 137,
      "Ë": 138,
      "Ì": 139,
      "Í": 140,
      "Î": 141,
      "Ï": 142,
      "Ð": 143,
      "Ñ": 144,
      "Ò": 145,
      "Ó": 146,
      "Ô": 147,
      "Õ": 148,
      "Ö": 149,
      "×": 150,
      "Ø": 151,
      "Ù": 152,
      "Ú": 153,
      "Û": 154,
      "Ü": 155,
      "Ý": 156,
      "Þ": 157,
      "ß": 158,
      "à": 159,
      "á": 160,
      "â": 161,
      "ã": 162,
      "ä": 163,
      "å": 164,
      "æ": 165,
      "ç": 166,
      "è": 167,
      "é": 168,
      "ê": 169,
      "ë": 170,
      "ì": 171,
      "í": 172,
      "î": 173,
      "ï": 174,
      "ð": 175,
      "ñ": 176,
      "ò": 177,
      "ó": 178,
      "ô": 179,
      "õ": 180,
      "ö": 181,
      "÷": 182,
      "ø": 183,
      "ù": 184,
      "ú": 185,
      "û": 186,
      "ü": 187,
      "ý": 188,
      "þ": 189,
      "ÿ": 190,
      "Ā": 191,
      "ā": 192,
      "Ă": 193,
      "ă": 194,
      "Ą": 195,
      "ą": 196,
      "Ć": 197,
      "ć": 198,
      "Ĉ": 199,
      "ĉ": 200,
      "Ċ": 201,
      "ċ": 202,
      "Č": 203,
      "č": 204,
      "Ď": 205,
      "ď": 206,
      "Đ": 207,
      "đ": 208,
      "Ē": 209,
      "ē": 210,
      "Ĕ": 211,
      "ĕ": 212,
      "Ė": 213,
      "ė": 214,
      "Ę": 215,
      "ę": 216,
      "Ě": 217,
      "ě": 218,
      "Ĝ": 219,
      "ĝ": 220,
      "Ğ": 221,
      "ğ": 222,
      "Ġ": 223,
      "ġ": 224,
      "Ģ": 225,
      "ģ": 226,
      "Ĥ": 227,
      "ĥ": 228,
      "Ħ": 229,
      "ħ": 230,
      "Ĩ": 231,
      "ĩ": 232,
      "Ī": 233,
      "ī": 234,
      "Ĭ": 235,
      "ĭ": 236,
      "Į": 237,
      "į": 238,
      "İ": 239,
      "ı": 240,
      "Ĳ": 241,
      "ĳ": 242,
      "Ĵ": 243,
      "ĵ": 244,
      "Ķ": 245,
      "ķ": 246,
      "ĸ": 247,
      "Ĺ": 248,
      "ĺ": 249,
      "Ļ": 250,
      "ļ": 251,
      "Ľ": 252,
      "ľ": 253,
      "Ŀ": 254,
      "ŀ": 255,
      "Ł": 256,
      "ł": 257,
      "Ń": 258,
      "ĠĠ": 259,
      "ĠĠĠĠ": 260,
      "čĊ": 261,
      "ĠĠĠĠĠĠĠĠ": 262,
      "se": 263,
      "in": 264,
      "re": 265,
      "on": 266,
      "te": 267,
      "th": 268,
      "st": 269,
      "or": 270,
      "er": 271,
      "en": 272,
      "al": 273,
      "an": 274,
      "ti": 275,
      "le": 276,
      "ar": 277,
      "de": 278,
      "sel": 279,
      "self": 280,
      "me": 281,
      "ou": 282,
      "as": 283,
      "at": 284,
      "ĠĠĠĠĠĠĠĠĠĠĠĠ": 285,
      "the": 286,
      "ing": 287,
      "ce": 288,
      "ro": 289,
      "tion": 290,
      "is": 291,
      "ĠĠĠĠĠĠĠĠĠĠĠĠĠĠĠĠ": 292,
      "et": 293,
      "to": 294,
      "li": 295,
      "ue": 296,
      "mp": 297,
      "co": 298,
      "fi": 299,
      "ur": 300,
      "ch": 301,
      "ate": 302,
      "con": 303,
      "and": 304,
      "ame": 305,
      "ct": 306,
      "lo": 307,
      "ri": 308,
      "pe": 309,
      "ad": 310,
      "ent": 311,
      "of": 312,
      "id": 313,
      "ser": 314,
      "it": 315,
      "def": 316,
      "for": 317,
      "el": 318,
      "si": 319,
      "ex": 320,
      "es": 321,
      "ed": 322,
      "ra": 323,
      "mo": 324,
      "ma": 325,
      "if": 326,
      "res": 327,
      "ck": 328,
      "ter": 329,
      "un": 330,
      "ab": 331,
      "no": 332,
      "ul": 333,
      "name": 334,
      "di": 335,
      "cl": 336,
      "ĉĉ": 337,
      "ret": 338,
      "urn": 339,
      "ort": 340,
      "ag": 341,
      "qu": 342,
      "val": 343,
      "he": 344,
      "op": 345,
      "ty": 346,
      "pro": 347,
      "tr": 348,
      "ver": 349,
      "ke": 350,
      "il": 351,
      "one": 352,
      "ap": 353,
      "return": 354,
      "arg": 355,
      "sert": 356,
      "par": 357,
      "ol": 358,
      "pa": 359,
      "ve": 360,
      "assert": 361,
      "nt": 362,
      "imp": 363,
      "um": 364,
      "ation": 365,
      "ut": 366,
      "am": 367,
      "ith": 368,
      "get": 369,
      "ass": 370,
      "ction": 371,
      "rom": 372,
      "all": 373,
      "be": 374,
      "test": 375,
      "set": 376,
      "str": 377,
      "int": 378,
      "ne": 379,
      "per": 380,
      "from": 381,
      "end": 382,
      "out": 383,
      "import": 384,
      "ult": 385,
      "value": 386,
      "with": 387,
      "our": 388,
      "ss": 389,
      "du": 390,
      "ata": 391,
      "vi": 392,
      "xt": 393,
      "sh": 394,
      "su": 395,
      "None": 396,
      "able": 397,
      "po": 398,
      "la": 399,
      "bu": 400,
      "not": 401,
      "ht": 402,
      "type": 403,
      "text": 404,
      "args": 405,
      "ĠĠĠ": 406,
      "ob": 407,
      "sion": 408,
      "ns": 409,
      "ment": 410,
      "do": 411,
      "file": 412,
      "ted": 413,
      "Tr": 414,
      "ly": 415,
      "ic": 416,
      "ect": 417,
      "der": 418,
      "ase": 419,
      "wh": 420,
      "age": 421,
      "ror": 422,
      "qual": 423,
      "class": 424,
      "key": 425,
      "oo": 426,
      "True": 427,
      "AR": 428,
      "data": 429,
      "time": 430,
      "ĠĠĠĠĠĠĠĠĠĠĠĠĠĠĠĠĠĠĠĠ": 431,
      "que": 432,
      "ig": 433,
      "ang": 434,
      "ject": 435,
      "up": 436,
      "add": 437,
      "fe": 438,
      "we": 439,
      "ci": 440,
      "ance": 441,
      "app": 442,
      "LE": 443,
      "red": 444,
      "IN": 445,
      "wor": 446,
      "In": 447,
      "TE": 448,
      "path": 449,
      "rou": 450,
      "ls": 451,
      "com": 452,
      "ds": 453,
      "us": 454,
      "that": 455,
      "ta": 456,
      "fa": 457,
      "so": 458,
      "dule": 459,
      "che": 460,
      "ĠĠĠĠĠĠ": 461,
      "list": 462,
      "ine": 463,
      "nd": 464,
      "pre": 465,
      "ys": 466,
      "col": 467,
      "ac": 468,
      "are": 469,
      "len": 470,
      "put": 471,
      "by": 472,
      "module": 473,
      "ses": 474,
      "The": 475,
      "ir": 476,
      "quest": 477,
      "Re": 478,
      "sc": 479,
      "od": 480,
      "ow": 481,
      "Equal": 482,
      "form": 483,
      "RE": 484,
      "cou": 485,
      "use": 486,
      "ask": 487,
      "ther": 488,
      "Er": 489,
      "cep": 490,
      "comp": 491,
      "ist": 492,
      "Error": 493,
      "option": 494,
      "fun": 495,
      "cre": 496,
      "meth": 497,
      "param": 498,
      "py": 499,
      "iz": 500,
      "fig": 501,
      "this": 502,
      "tem": 503,
      "cli": 504,
      "assertEqual": 505,
      "ces": 506,
      "ld": 507,
      "alse": 508,
      "ĠčĊ": 509,
      "ure": 510,
      "ber": 511,
      "tri": 512,
      "date": 513,
      "mode": 514,
      "lic": 515,
      "ot": 516,
      "inst": 517,
      "ack": 518,
      "cal": 519,
      "os": 520,
      "ge": 521,
      "pr": 522,
      "Con": 523,
      "user": 524,
      "result": 525,
      "om": 526,
      "cur": 527,
      "log": 528,
      "ččĊ": 529,
      "sp": 530,
      "ON": 531,
      "sa": 532,
      "fo": 533,
      "False": 534,
      "kw": 535,
      "ile": 536,
      "request": 537,
      "eld": 538,
      "ault": 539,
      "try": 540,
      "low": 541,
      "ip": 542,
      "bo": 543,
      "SE": 544,
      "new": 545,
      "TA": 546,
      "client": 547,
      "art": 548,
      "default": 549,
      "ity": 550,
      "rent": 551,
      "object": 552,
      "sub": 553,
      "ded": 554,
      "ctor": 555,
      "ten": 556,
      "ant": 557,
      "ev": 558,
      "ind": 559,
      "else": 560,
      "his": 561,
      "pon": 562,
      "ho": 563,
      "you": 564,
      "ress": 565,
      "mple": 566,
      "ĠĠĠĠĠĠĠĠĠĠĠĠĠĠĠĠĠĠĠĠĠĠĠĠ": 567,
      "config": 568,
      "Get": 569,
      "De": 570,
      "ĠĠĠĠĠĠĠĠĠĠĠĠĠĠĠĠĠĠĠ": 571,
      "roup": 572,
      "cess": 573,
      "ary": 574,
      "work": 575,
      "ay": 576,
      "ust": 577,
      "kwargs": 578,
      "pla": 579,
      "RO": 580,
      "cont": 581,
      "ype": 582,
      "read": 583,
      "code": 584,
      "method": 585,
      "string": 586,
      "ated": 587,
      "spe": 588,
      "function": 589,
      "ource": 590,
      "instance": 591,
      "ext": 592,
      "ers": 593,
      "est": 594,
      "ion": 595,
      "ght": 596,
      "atch": 597,
      "rip": 598,
      "count": 599,
      "ray": 600,
      "ha": 601,
      "ca": 602,
      "ill": 603,
      "excep": 604,
      "net": 605,
      "ren": 606,
      "ER": 607,
      "tes": 608,
      "CH": 609,
      "min": 610,
      "OR": 611,
      "exp": 612,
      "ub": 613,
      "vice": 614,
      "const": 615,
      "im": 616,
      "Val": 617,
      "ise": 618,
      "line": 619,
      "ator": 620,
      "ID": 621,
      "can": 622,
      "ST": 623,
      "group": 624,
      "load": 625,
      "ry": 626,
      "map": 627,
      "dict": 628,
      "state": 629,
      "ble": 630,
      "tive": 631,
      "ense": 632,
      "ll": 633,
      "comm": 634,
      "inter": 635,
      "respon": 636,
      "any": 637,
      "print": 638,
      "cls": 639,
      "au": 640,
      "back": 641,
      "ms": 642,
      "sys": 643,
      "ong": 644,
      "AN": 645,
      "oftext": 646,
      "endoftext": 647,
      "mem": 648,
      "Type": 649,
      "array": 650,
      "has": 651,
      "ings": 652,
      "create": 653,
      "TI": 654,
      "Se": 655,
      "ze": 656,
      "num": 657,
      "her": 658,
      "ree": 659,
      "tic": 660,
      "ĉĉĉ": 661,
      "url": 662,
      "St": 663,
      "ari": 664,
      "tribu": 665,
      "other": 666,
      "dis": 667,
      "Set": 668,
      "led": 669,
      "ound": 670,
      "ange": 671,
      "cket": 672,
      "Test": 673,
      "ould": 674,
      "conne": 675,
      "qui": 676,
      "port": 677,
      "ard": 678,
      "ph": 679,
      "Ex": 680,
      "ener": 681,
      "reg": 682,
      "Value": 683,
      "my": 684,
      "lin": 685,
      "contro": 686,
      "enti": 687,
      "node": 688,
      "Name": 689,
      "ans": 690,
      "gn": 691,
      "db": 692,
      "ach": 693,
      "dir": 694,
      "ec": 695,
      "dd": 696,
      "start": 697,
      "ild": 698,
      "wri": 699,
      "check": 700,
      "gle": 701,
      "mess": 702,
      "tp": 703,
      "row": 704,
      "version": 705,
      "was": 706,
      "CT": 707,
      "LI": 708,
      "error": 709,
      "temp": 710,
      "dex": 711,
      "context": 712,
      "now": 713,
      "late": 714,
      "cted": 715,
      "ful": 716,
      "aliz": 717,
      "lement": 718,
      "VAR": 719,
      "ally": 720,
      "stru": 721,
      "size": 722,
      "scrip": 723,
      "son": 724,
      "base": 725,
      "Pro": 726,
      "table": 727,
      "ts": 728,
      "response": 729,
      "This": 730,
      "EN": 731,
      "Mo": 732,
      "run": 733,
      "ved": 734,
      "tions": 735,
      "ations": 736,
      "but": 737,
      "append": 738,
      "CHAR": 739,
      "raise": 740,
      "ff": 741,
      "proper": 742,
      "vo": 743,
      "jo": 744,
      "ument": 745,
      "input": 746,
      "ĠĠĠĠĠĠĠĠĠĠ": 747,
      "VARCHAR": 748,
      "Lic": 749,
      "ield": 750,
      "License": 751,
      "TH": 752,
      "format": 753,
      "dow": 754,
      "ties": 755,
      "umn": 756,
      "your": 757,
      "arn": 758,
      "init": 759,
      "gh": 760,
      "ey": 761,
      "oogle": 762,
      "its": 763,
      "AL": 764,
      "will": 765,
      "call": 766,
      "tain": 767,
      "output": 768,
      "hel": 769,
      "max": 770,
      "ref": 771,
      "pass": 772,
      "Str": 773,
      "host": 774,
      "under": 775,
      "sha": 776,
      "member": 777,
      "except": 778,
      "task": 779,
      "item": 780,
      "og": 781,
      "At": 782,
      "over": 783,
      "DE": 784,
      "ĠĠĠĠĠĠĠĠĠĠĠĠĠĠĠĠĠĠĠĠĠĠĠĠĠĠĠĠ": 785,
      "ĠĠĠĠĠ": 786,
      "ATE": 787,
      "http": 788,
      "av": 789,
      "ight": 790,
      "valid": 791,
      "lab": 792,
      "their": 793,
      "En": 794,
      "pri": 795,
      "main": 796,
      "message": 797,
      "ters": 798,
      "they": 799,
      "ĉĉĉĉ": 800,
      "ery": 801,
      "np": 802,
      "If": 803,
      "models": 804,
      "AS": 805,
      "event": 806,
      "std": 807,
      "sta": 808,
      "sed": 809,
      "BLE": 810,
      "fix": 811,
      "OU": 812,
      "index": 813,
      "sign": 814,
      "ook": 815,
      "api": 816,
      "cor": 817,
      "ory": 818,
      "info": 819,
      "als": 820,
      "job": 821,
      "ml": 822,
      "tw": 823,
      "gra": 824,
      "ew": 825,
      "emp": 826,
      "here": 827,
      "attr": 828,
      "Add": 829,
      "ru": 830,
      "tra": 831,
      "tent": 832,
      "wa": 833,
      "fic": 834,
      "mail": 835,
      "lect": 836,
      "To": 837,
      "ous": 838,
      "when": 839,
      "lib": 840,
      "doc": 841,
      "have": 842,
      "No": 843,
      "elds": 844,
      "ME": 845,
      "pi": 846,
      "make": 847,
      "AP": 848,
      "Ch": 849,
      "Ip": 850,
      "ep": 851,
      "about": 852,
      "dist": 853,
      "controls": 854,
      "project": 855,
      "ark": 856,
      "pos": 857,
      "vari": 858,
      "join": 859,
      "List": 860,
      "google": 861,
      "params": 862,
      "ich": 863,
      "ding": 864,
      "stat": 865,
      "pl": 866,
      "core": 867,
      "values": 868,
      "ample": 869,
      "process": 870,
      "Field": 871,
      "fir": 872,
      "da": 873,
      "uti": 874,
      "ature": 875,
      "label": 876,
      "Key": 877,
      "names": 878,
      "open": 879,
      "fields": 880,
      "Ret": 881,
      "mock": 882,
      "lete": 883,
      "right": 884,
      "thon": 885,
      "some": 886,
      "String": 887,
      "like": 888,
      "Ser": 889,
      "ence": 890,
      "root": 891,
      "blo": 892,
      "Ipv": 893,
      "write": 894,
      "oud": 895,
      "tag": 896,
      "AT": 897,
      "ax": 898,
      "uni": 899,
      "ner": 900,
      "speci": 901,
      "fl": 902,
      "should": 903,
      "sy": 904,
      "Un": 905,
      "mask": 906,
      "ok": 907,
      "requi": 908,
      "Col": 909,
      "dat": 910,
      "arget": 911,
      "fil": 912,
      "clo": 913,
      "sk": 914,
      "word": 915,
      "tle": 916,
      "field": 917,
      "clu": 918,
      "man": 919,
      "hand": 920,
      "ual": 921,
      "tribute": 922,
      "Id": 923,
      "gr": 924,
      "copy": 925,
      "which": 926,
      "into": 927,
      "very": 928,
      "Par": 929,
      "ango": 930,
      "lit": 931,
      "equal": 932,
      "gi": 933,
      "vir": 934,
      "jango": 935,
      "mon": 936,
      "used": 937,
      "ctions": 938,
      "more": 939,
      "gth": 940,
      "TABLE": 941,
      "del": 942,
      "json": 943,
      "ves": 944,
      "sent": 945,
      "options": 946,
      "oper": 947,
      "cho": 948,
      "ulti": 949,
      "head": 950,
      "mis": 951,
      "query": 952,
      "element": 953,
      "CRE": 954,
      "Op": 955,
      "ess": 956,
      "ish": 957,
      "ting": 958,
      "parse": 959,
      "place": 960,
      "local": 961,
      "Data": 962,
      "dif": 963,
      "arch": 964,
      "number": 965,
      "expe": 966,
      "bet": 967,
      "django": 968,
      "vis": 969,
      "Return": 970,
      "ĠĠĠĠĠĠĠĠĠĠĠĠĠĠĠĠĠĠĠĠĠĠĠĠĠĠĠĠĠĠĠĠ": 971,
      "target": 972,
      "shape": 973,
      "remo": 974,
      "SQ": 975,
      "eli": 976,
      "ating": 977,
      "first": 978,
      "network": 979,
      "ises": 980,
      "update": 981,
      "how": 982,
      "ger": 983,
      "descrip": 984,
      "current": 985,
      "ite": 986,
      "ath": 987,
      "exec": 988,
      "address": 989,
      "play": 990,
      "Ra": 991,
      "rap": 992,
      "ven": 993,
      "session": 994,
      "part": 995,
      "chema": 996,
      "sen": 997,
      "keys": 998,
      "model": 999,
      "range": 1000,
      "For": 1001,
      "source": 1002,
      "CREATE": 1003,
      "service": 1004,
      "TER": 1005,
      "face": 1006,
      "sing": 1007,
      "match": 1008,
      "les": 1009,
      "see": 1010,
      "help": 1011,
      "elif": 1012,
      "ore": 1013,
      "CE": 1014,
      "vel": 1015,
      "men": 1016,
      "void": 1017,
      "Res": 1018,
      "Ar": 1019,
      "ING": 1020,
      "IP": 1021,
      "bucket": 1022,
      "feren": 1023,
      "dataset": 1024,
      "connection": 1025,
      "SQL": 1026,
      "bin": 1027,
      "find": 1028,
      "mark": 1029,
      "resource": 1030,
      "results": 1031,
      "ies": 1032,
      "link": 1033,
      "Base": 1034,
      "sor": 1035,
      "lay": 1036,
      "ream": 1037,
      "ww": 1038,
      "cs": 1039,
      "File": 1040,
      "exist": 1041,
      "day": 1042,
      "cloud": 1043,
      "vent": 1044,
      "ROM": 1045,
      "Is": 1046,
      "expected": 1047,
      "fore": 1048,
      "ime": 1049,
      "uint": 1050,
      "gener": 1051,
      "auth": 1052,
      "HT": 1053,
      "seri": 1054,
      "reate": 1055,
      "only": 1056,
      "FI": 1057,
      "length": 1058,
      "olu": 1059,
      "parent": 1060,
      "off": 1061,
      "FROM": 1062,
      "them": 1063,
      "inte": 1064,
      "sq": 1065,
      "af": 1066,
      "template": 1067,
      "dep": 1068,
      "order": 1069,
      "know": 1070,
      "dire": 1071,
      "prefix": 1072,
      "bool": 1073,
      "env": 1074,
      "SELE": 1075,
      "content": 1076,
      "Wh": 1077,
      "ima": 1078,
      "ste": 1079,
      "she": 1080,
      "trans": 1081,
      "mit": 1082,
      "ublic": 1083,
      "rel": 1084,
      "ĠĠĠĠĠĠĠĠĠĠĠĠĠĠĠĠĠ": 1085,
      "sup": 1086,
      "DI": 1087,
      "UR": 1088,
      "Address": 1089,
      "As": 1090,
      "UL": 1091,
      "ments": 1092,
      "cr": 1093,
      "ures": 1094,
      "indi": 1095,
      "rough": 1096,
      "msg": 1097,
      "SELECT": 1098,
      "filen": 1099,
      "description": 1100,
      "mb": 1101,
      "view": 1102,
      "Co": 1103,
      "may": 1104,
      "contain": 1105,
      "while": 1106,
      "types": 1107,
      "constru": 1108,
      "Po": 1109,
      "column": 1110,
      "Th": 1111,
      "loc": 1112,
      "abase": 1113,
      "obj": 1114,
      "ken": 1115,
      "Item": 1116,
      "uid": 1117,
      "ain": 1118,
      "produ": 1119,
      "filename": 1120,
      "ili": 1121,
      "ont": 1122,
      "property": 1123,
      "ak": 1124,
      "fol": 1125,
      "indow": 1126,
      "Raises": 1127,
      "title": 1128,
      "variable": 1129,
      "where": 1130,
      "inclu": 1131,
      "less": 1132,
      "SI": 1133,
      "ValueError": 1134,
      "who": 1135,
      "ava": 1136,
      "account": 1137,
      "Cl": 1138,
      "long": 1139,
      "ustom": 1140,
      "He": 1141,
      "status": 1142,
      "cer": 1143,
      "fied": 1144,
      "tings": 1145,
      "It": 1146,
      "ages": 1147,
      "An": 1148,
      "using": 1149,
      "flo": 1150,
      "stand": 1151,
      "each": 1152,
      "isinstance": 1153,
      "ye": 1154,
      "server": 1155,
      "last": 1156,
      "wid": 1157,
      "ving": 1158,
      "ES": 1159,
      "fin": 1160,
      "old": 1161,
      "example": 1162,
      "gin": 1163,
      "present": 1164,
      "argument": 1165,
      "python": 1166,
      "every": 1167,
      "delete": 1168,
      "func": 1169,
      "TY": 1170,
      "TION": 1171,
      "cle": 1172,
      "ols": 1173,
      "datetime": 1174,
      "CON": 1175,
      "email": 1176,
      "ped": 1177,
      "ctory": 1178,
      "ors": 1179,
      "html": 1180,
      "ids": 1181,
      "Py": 1182,
      "multi": 1183,
      "top": 1184,
      "command": 1185,
      "Que": 1186,
      "files": 1187,
      "own": 1188,
      "entry": 1189,
      "Create": 1190,
      "sions": 1191,
      "ody": 1192,
      "tran": 1193,
      "split": 1194,
      "io": 1195,
      "close": 1196,
      "ribu": 1197,
      "these": 1198,
      "amb": 1199,
      "Returns": 1200,
      "So": 1201,
      "âĢ": 1202,
      "ize": 1203,
      "ount": 1204,
      "required": 1205,
      "block": 1206,
      "tributes": 1207,
      "act": 1208,
      "raw": 1209,
      "err": 1210,
      "CO": 1211,
      "build": 1212,
      "Text": 1213,
      "ull": 1214,
      "lang": 1215,
      "ception": 1216,
      "See": 1217,
      "down": 1218,
      "LO": 1219,
      "NO": 1220,
      "Time": 1221,
      "We": 1222,
      "there": 1223,
      "TO": 1224,
      "rc": 1225,
      "ĠĠĠĠĠĠĠĠĠĠĠĠĠĠ": 1226,
      "had": 1227,
      "ton": 1228,
      "allow": 1229,
      "pack": 1230,
      "ink": 1231,
      "ents": 1232,
      "assertTrue": 1233,
      "char": 1234,
      "select": 1235,
      "found": 1236,
      "gs": 1237,
      "sible": 1238,
      "filter": 1239,
      "LET": 1240,
      "But": 1241,
      "ft": 1242,
      "through": 1243,
      "fault": 1244,
      "ute": 1245,
      "point": 1246,
      "API": 1247,
      "Column": 1248,
      "tional": 1249,
      "nc": 1250,
      "way": 1251,
      "float": 1252,
      "assertRaises": 1253,
      "database": 1254,
      "Di": 1255,
      "RI": 1256,
      "orm": 1257,
      "ann": 1258,
      "org": 1259,
      "timeout": 1260,
      "md": 1261,
      "xx": 1262,
      "book": 1263,
      "coding": 1264,
      "HE": 1265,
      "All": 1266,
      "ative": 1267,
      "ference": 1268,
      "than": 1269,
      "called": 1270,
      "ler": 1271,
      "fr": 1272,
      "parame": 1273,
      "Request": 1274,
      "Default": 1275,
      "br": 1276,
      "cy": 1277,
      "war": 1278,
      "viron": 1279,
      "By": 1280,
      "tal": 1281,
      "sec": 1282,
      "iter": 1283,
      "empty": 1284,
      "ily": 1285,
      "just": 1286,
      "vid": 1287,
      "KE": 1288,
      "OF": 1289,
      "stion": 1290,
      "sample": 1291,
      "ambda": 1292,
      "Schema": 1293,
      "State": 1294,
      "child": 1295,
      "body": 1296,
      "cts": 1297,
      "df": 1298,
      "what": 1299,
      "PRO": 1300,
      "objects": 1301,
      "utils": 1302,
      "ini": 1303,
      "rand": 1304,
      "then": 1305,
      "dest": 1306,
      "tial": 1307,
      "case": 1308,
      "Not": 1309,
      "sure": 1310,
      "sql": 1311,
      "park": 1312,
      "custom": 1313,
      "distribu": 1314,
      "posi": 1315,
      "LETTER": 1316,
      "password": 1317,
      "ast": 1318,
      "foo": 1319,
      "pb": 1320,
      "static": 1321,
      "Question": 1322,
      "lambda": 1323,
      "cap": 1324,
      "page": 1325,
      "alog": 1326,
      "properties": 1327,
      "oc": 1328,
      "mat": 1329,
      "unit": 1330,
      "IS": 1331,
      "mer": 1332,
      "Attribute": 1333,
      "PO": 1334,
      "gen": 1335,
      "var": 1336,
      "ell": 1337,
      "does": 1338,
      "peri": 1339,
      "sty": 1340,
      "proto": 1341,
      "ging": 1342,
      "Gener": 1343,
      "come": 1344,
      "GN": 1345,
      "conn": 1346,
      "serializ": 1347,
      "even": 1348,
      "look": 1349,
      "search": 1350,
      "MP": 1351,
      "sco": 1352,
      "Exception": 1353,
      "next": 1354,
      "uple": 1355,
      "could": 1356,
      "spec": 1357,
      "ice": 1358,
      "NA": 1359,
      "must": 1360,
      "sum": 1361,
      "pace": 1362,
      "entity": 1363,
      "stream": 1364,
      "Che": 1365,
      "med": 1366,
      "lex": 1367,
      "ank": 1368,
      "User": 1369,
      "learn": 1370,
      "side": 1371,
      "ide": 1372,
      "ali": 1373,
      "Path": 1374,
      "go": 1375,
      "uring": 1376,
      "settings": 1377,
      "wait": 1378,
      "bl": 1379,
      "show": 1380,
      "extra": 1381,
      "constructor": 1382,
      "let": 1383,
      "true": 1384,
      "met": 1385,
      "GE": 1386,
      "tern": 1387,
      "bug": 1388,
      "oftw": 1389,
      "tail": 1390,
      "ign": 1391,
      "oftware": 1392,
      "Check": 1393,
      "AND": 1394,
      "Up": 1395,
      "bre": 1396,
      "vide": 1397,
      "after": 1398,
      "fail": 1399,
      "auto": 1400,
      "ps": 1401,
      "wx": 1402,
      "adata": 1403,
      "token": 1404,
      "You": 1405,
      "ople": 1406,
      "UP": 1407,
      "RA": 1408,
      "cp": 1409,
      "ALL": 1410,
      "rest": 1411,
      "king": 1412,
      "force": 1413,
      "flow": 1414,
      "need": 1415,
      "lines": 1416,
      "secon": 1417,
      "ister": 1418,
      "action": 1419,
      "also": 1420,
      "chang": 1421,
      "applic": 1422,
      "Cli": 1423,
      "Ho": 1424,
      "ration": 1425,
      "render": 1426,
      "sm": 1427,
      "ws": 1428,
      "ash": 1429,
      "abc": 1430,
      "Hel": 1431,
      "MA": 1432,
      "environ": 1433,
      "fri": 1434,
      "ning": 1435,
      "bytes": 1436,
      "flag": 1437,
      "follow": 1438,
      "Event": 1439,
      "lection": 1440,
      "ates": 1441,
      "curity": 1442,
      "feel": 1443,
      "were": 1444,
      "connect": 1445,
      "coun": 1446,
      "PA": 1447,
      "ĠĠĠĠĠĠĠĠĠĠĠĠĠĠĠ": 1448,
      "uration": 1449,
      "iled": 1450,
      "system": 1451,
      "would": 1452,
      "many": 1453,
      "trl": 1454,
      "ility": 1455,
      "Ctrl": 1456,
      "mary": 1457,
      "ud": 1458,
      "ops": 1459,
      "isten": 1460,
      "ression": 1461,
      "stor": 1462,
      "before": 1463,
      "ose": 1464,
      "DEF": 1465,
      "JO": 1466,
      "Config": 1467,
      "wrap": 1468,
      "IT": 1469,
      "change": 1470,
      "ways": 1471,
      "ods": 1472,
      "tmp": 1473,
      "Ob": 1474,
      "Pre": 1475,
      "given": 1476,
      "real": 1477,
      "life": 1478,
      "rule": 1479,
      "NAME": 1480,
      "Service": 1481,
      "thing": 1482,
      "annel": 1483,
      "random": 1484,
      "style": 1485,
      "constant": 1486,
      "image": 1487,
      "And": 1488,
      "limit": 1489,
      "struct": 1490,
      "langu": 1491,
      "tuple": 1492,
      "detail": 1493,
      "WAR": 1494,
      "ef": 1495,
      "tree": 1496,
      "Ac": 1497,
      "cing": 1498,
      "tests": 1499,
      "include": 1500,
      "cmd": 1501,
      "remove": 1502,
      "ffer": 1503,
      "Lo": 1504,
      "dtype": 1505,
      "people": 1506,
      "times": 1507,
      "den": 1508,
      "replace": 1509,
      "cred": 1510,
      "cache": 1511,
      "noti": 1512,
      "ager": 1513,
      "fel": 1514,
      "pc": 1515,
      "without": 1516,
      "uster": 1517,
      "Bu": 1518,
      "tual": 1519,
      "Size": 1520,
      "WI": 1521,
      "round": 1522,
      "exception": 1523,
      "specific": 1524,
      "mu": 1525,
      "ipv": 1526,
      "sw": 1527,
      "contin": 1528,
      "non": 1529,
      "Al": 1530,
      "Cop": 1531,
      "fer": 1532,
      "ping": 1533,
      "post": 1534,
      "null": 1535,
      "exten": 1536,
      "most": 1537,
      "level": 1538,
      "friend": 1539,
      "gine": 1540,
      "vate": 1541,
      "big": 1542,
      "ices": 1543,
      "ical": 1544,
      "register": 1545,
      "ECT": 1546,
      "WHE": 1547,
      "within": 1548,
      "items": 1549,
      "such": 1550,
      "lot": 1551,
      "Context": 1552,
      "UN": 1553,
      "hash": 1554,
      "same": 1555,
      "ord": 1556,
      "Client": 1557,
      "req": 1558,
      "Tree": 1559,
      "conver": 1560,
      "experi": 1561,
      "DO": 1562,
      "Me": 1563,
      "STA": 1564,
      "Copy": 1565,
      "conf": 1566,
      "tools": 1567,
      "offset": 1568,
      "URL": 1569,
      "ader": 1570,
      "igh": 1571,
      "Au": 1572,
      "Case": 1573,
      "cf": 1574,
      "debug": 1575,
      "parser": 1576,
      "thou": 1577,
      "ĠĠĠĠĠĠĠĠĠĠĠĠĠĠĠĠĠĠĠĠĠĠĠĠĠĠĠĠĠĠĠĠĠĠĠĠ": 1578,
      "TEST": 1579,
      "FOR": 1580,
      "forma": 1581,
      "ars": 1582,
      "wer": 1583,
      "cei": 1584,
      "metadata": 1585,
      "access": 1586,
      "Ver": 1587,
      "mt": 1588,
      "super": 1589,
      "Ptr": 1590,
      "Inst": 1591,
      "NT": 1592,
      "batch": 1593,
      "subprocess": 1594,
      "ix": 1595,
      "ched": 1596,
      "ood": 1597,
      "Node": 1598,
      "ship": 1599,
      "ween": 1600,
      "store": 1601,
      "location": 1602,
      "ources": 1603,
      "Bo": 1604,
      "ferent": 1605,
      "internet": 1606,
      "pol": 1607,
      "OUT": 1608,
      "exists": 1609,
      "Com": 1610,
      "security": 1611,
      "repr": 1612,
      "por": 1613,
      "methods": 1614,
      "ENT": 1615,
      "Fa": 1616,
      "www": 1617,
      "control": 1618,
      "RAN": 1619,
      "recor": 1620,
      "document": 1621,
      "cry": 1622,
      "gy": 1623,
      "public": 1624,
      "TAL": 1625,
      "atures": 1626,
      "span": 1627,
      "EX": 1628,
      "pas": 1629,
      "between": 1630,
      "lob": 1631,
      "unique": 1632,
      "attribute": 1633,
      "cause": 1634,
      "ify": 1635,
      "Object": 1636,
      "save": 1637,
      "With": 1638,
      "pt": 1639,
      "different": 1640,
      "WHERE": 1641,
      "fam": 1642,
      "support": 1643,
      "warn": 1644,
      "licy": 1645,
      "continue": 1646,
      "hist": 1647,
      "been": 1648,
      "added": 1649,
      "ĠĠĠĠĠĠĠĠĠĠĠĠĠĠĠĠĠĠĠĠĠĠĠĠĠ": 1650,
      "olume": 1651,
      "lish": 1652,
      "Inter": 1653,
      "scope": 1654,
      "entials": 1655,
      "ick": 1656,
      "Wri": 1657,
      "air": 1658,
      "LAT": 1659,
      "ination": 1660,
      "ither": 1661,
      "gor": 1662,
      "stdout": 1663,
      "KEY": 1664,
      "desc": 1665,
      "mething": 1666,
      "interface": 1667,
      "bar": 1668,
      "abs": 1669,
      "compon": 1670,
      "header": 1671,
      "language": 1672,
      "Window": 1673,
      "web": 1674,
      "directory": 1675,
      "WITH": 1676,
      "username": 1677,
      "ED": 1678,
      "zer": 1679,
      "assertIs": 1680,
      "Model": 1681,
      "enable": 1682,
      "exc": 1683,
      "Group": 1684,
      "light": 1685,
      "ries": 1686,
      "sport": 1687,
      "ling": 1688,
      "sets": 1689,
      "igno": 1690,
      "ges": 1691,
      "ANY": 1692,
      "LIC": 1693,
      "gram": 1694,
      "pk": 1695,
      "two": 1696,
      "DA": 1697,
      "Imp": 1698,
      "sur": 1699,
      "Fe": 1700,
      "attributes": 1701,
      "cluster": 1702,
      "person": 1703,
      "something": 1704,
      "SM": 1705,
      "SS": 1706,
      "medi": 1707,
      "river": 1708,
      "Tag": 1709,
      "metri": 1710,
      "utf": 1711,
      "LATIN": 1712,
      "left": 1713,
      "vision": 1714,
      "LA": 1715,
      "pop": 1716,
      "ics": 1717,
      "color": 1718,
      "Date": 1719,
      "UT": 1720,
      "fy": 1721,
      "graph": 1722,
      "util": 1723,
      "clas": 1724,
      "formation": 1725,
      "JECT": 1726,
      "QU": 1727,
      "those": 1728,
      "ie": 1729,
      "pp": 1730,
      "dup": 1731,
      "frame": 1732,
      "felt": 1733,
      "lied": 1734,
      "feature": 1735,
      "TestCase": 1736,
      "enter": 1737,
      "verse": 1738,
      "patch": 1739,
      "optional": 1740,
      "ness": 1741,
      "BY": 1742,
      "Public": 1743,
      "cour": 1744,
      "send": 1745,
      "ined": 1746,
      "lock": 1747,
      "choices": 1748,
      "Python": 1749,
      "admin": 1750,
      "active": 1751,
      "keep": 1752,
      "Call": 1753,
      "On": 1754,
      "orig": 1755,
      "suc": 1756,
      "distributed": 1757,
      "axis": 1758,
      "Net": 1759,
      "specified": 1760,
      "fut": 1761,
      "oun": 1762,
      "lean": 1763,
      "mean": 1764,
      "cate": 1765,
      "sal": 1766,
      "known": 1767,
      "PE": 1768,
      "SER": 1769,
      "virtual": 1770,
      "him": 1771,
      "ced": 1772,
      "might": 1773,
      "quence": 1774,
      "gether": 1775,
      "ready": 1776,
      "stamp": 1777,
      "Char": 1778,
      "profile": 1779,
      "full": 1780,
      "either": 1781,
      "sin": 1782,
      "ĠĠĠĠĠĠĠĠčĊ": 1783,
      "move": 1784,
      "blob": 1785,
      "tend": 1786,
      "Inte": 1787,
      "mapper": 1788,
      "weight": 1789,
      "indices": 1790,
      "bit": 1791,
      "pay": 1792,
      "BO": 1793,
      "ĠĠĠĠĠĠĠĠĠĠĠ": 1794,
      "EV": 1795,
      "Ima": 1796,
      "Per": 1797,
      "details": 1798,
      "bla": 1799,
      "lease": 1800,
      "understand": 1801,
      "multip": 1802,
      "false": 1803,
      "stop": 1804,
      "window": 1805,
      "Or": 1806,
      "errors": 1807,
      "Comp": 1808,
      "operator": 1809,
      "edit": 1810,
      "testType": 1811,
      "Reg": 1812,
      "AD": 1813,
      "during": 1814,
      "pub": 1815,
      "seq": 1816,
      "break": 1817,
      "java": 1818,
      "na": 1819,
      "domain": 1820,
      "widget": 1821,
      "PROJECT": 1822,
      "returned": 1823,
      "derr": 1824,
      "font": 1825,
      "ĠĠĠĠĠĠĠĠĠ": 1826,
      "nsor": 1827,
      "ULT": 1828,
      "total": 1829,
      "retry": 1830,
      "One": 1831,
      "permis": 1832,
      "functions": 1833,
      "Do": 1834,
      "section": 1835,
      "sele": 1836,
      "logging": 1837,
      "groups": 1838,
      "From": 1839,
      "ump": 1840,
      "backend": 1841,
      "rows": 1842,
      "Respon": 1843,
      "unittest": 1844,
      "future": 1845,
      "ular": 1846,
      "want": 1847,
      "strip": 1848,
      "parameters": 1849,
      "along": 1850,
      "changed": 1851,
      "Mess": 1852,
      "script": 1853,
      "product": 1854,
      "around": 1855,
      "Copyright": 1856,
      "ĠĠĠĠĠĠĠ": 1857,
      "They": 1858,
      "Pack": 1859,
      "mod": 1860,
      "created": 1861,
      "TypeError": 1862,
      "credentials": 1863,
      "tition": 1864,
      "listen": 1865,
      "olve": 1866,
      "depend": 1867,
      "PAR": 1868,
      "stderr": 1869,
      "happ": 1870,
      "zip": 1871,
      "UM": 1872,
      "world": 1873,
      "Example": 1874,
      "actions": 1875,
      "role": 1876,
      "too": 1877,
      "resp": 1878,
      "common": 1879,
      "xml": 1880,
      "Ad": 1881,
      "volume": 1882,
      "encoding": 1883,
      "atform": 1884,
      "being": 1885,
      "General": 1886,
      "box": 1887,
      "GNU": 1888,
      "Message": 1889,
      "colle": 1890,
      "nodes": 1891,
      "private": 1892,
      "Count": 1893,
      "cial": 1894,
      "AC": 1895,
      "Cur": 1896,
      "always": 1897,
      "alize": 1898,
      "components": 1899,
      "ave": 1900,
      "enum": 1901,
      "ason": 1902,
      "https": 1903,
      "Log": 1904,
      "cul": 1905,
      "glob": 1906,
      "channel": 1907,
      "Ma": 1908,
      "application": 1909,
      "stra": 1910,
      "remote": 1911,
      "Fr": 1912,
      "condi": 1913,
      "cat": 1914,
      "repo": 1915,
      "math": 1916,
      "home": 1917,
      "ome": 1918,
      "poke": 1919,
      "gu": 1920,
      "width": 1921,
      "position": 1922,
      "cent": 1923,
      "dot": 1924,
      "HTM": 1925,
      "lice": 1926,
      "utable": 1927,
      "because": 1928,
      "Found": 1929,
      "What": 1930,
      "win": 1931,
      "together": 1932,
      "primary": 1933,
      "exit": 1934,
      "callback": 1935,
      "handle": 1936,
      "score": 1937,
      "loye": 1938,
      "single": 1939,
      "marker": 1940,
      "pat": 1941,
      "tiv": 1942,
      "Conne": 1943,
      "mi": 1944,
      "src": 1945,
      "ush": 1946,
      "prec": 1947,
      "gorith": 1948,
      "Response": 1949,
      "Dis": 1950,
      "recei": 1951,
      "users": 1952,
      "ORD": 1953,
      "destination": 1954,
      "second": 1955,
      "ache": 1956,
      "stud": 1957,
      "dec": 1958,
      "rid": 1959,
      "gre": 1960,
      "schema": 1961,
      "program": 1962,
      "alized": 1963,
      "libr": 1964,
      "Index": 1965,
      "labels": 1966,
      "handler": 1967,
      "elements": 1968,
      "package": 1969,
      "SH": 1970,
      "hum": 1971,
      "device": 1972,
      "asy": 1973,
      "Be": 1974,
      "ĠĠĠĠĠĠĠĠĠĠĠĠĠĠĠĠĠĠĠĠĠ": 1975,
      "Parame": 1976,
      "Fil": 1977,
      "uv": 1978,
      "thread": 1979,
      "fit": 1980,
      "commit": 1981,
      "Class": 1982,
      "Ge": 1983,
      "rect": 1984,
      "once": 1985,
      "tensor": 1986,
      "named": 1987,
      "author": 1988,
      "ignore": 1989,
      "Qu": 1990,
      "did": 1991,
      "rac": 1992,
      "TIC": 1993,
      "operation": 1994,
      "ather": 1995,
      "rag": 1996,
      "argv": 1997,
      "both": 1998,
      "SMALL": 1999,
      "software": 2000,
      "aster": 2001,
      "success": 2002,
      "Met": 2003,
      "policy": 2004,
      "commun": 2005,
      "helper": 2006,
      "sort": 2007,
      "timestamp": 2008,
      "fully": 2009,
      "Args": 2010,
      "sts": 2011,
      "unicode": 2012,
      "step": 2013,
      "AULT": 2014,
      "pool": 2015,
      "scal": 2016,
      "bose": 2017,
      "platform": 2018,
      "related": 2019,
      "DEFAULT": 2020,
      "rad": 2021,
      "spark": 2022,
      "returns": 2023,
      "words": 2024,
      "Sub": 2025,
      "Ns": 2026,
      "Vi": 2027,
      "Wrap": 2028,
      "execute": 2029,
      "course": 2030,
      "Emp": 2031,
      "inv": 2032,
      "team": 2033,
      "display": 2034,
      "WARRAN": 2035,
      "logger": 2036,
      "memory": 2037,
      "flags": 2038,
      "CA": 2039,
      "Out": 2040,
      "Tra": 2041,
      "idx": 2042,
      "Ref": 2043,
      "ward": 2044,
      "ĠĠĠĠčĊ": 2045,
      "star": 2046,
      "simple": 2047,
      "setup": 2048,
      "Instance": 2049,
      "fill": 2050,
      "verbose": 2051,
      "Seri": 2052,
      "quot": 2053,
      "rep": 2054,
      "ĠĠĠĠĠĠĠĠĠĠĠĠĠĠĠĠĠĠ": 2055,
      "represent": 2056,
      "imple": 2057,
      "RES": 2058,
      "US": 2059,
      "cast": 2060,
      "storage": 2061,
      "Element": 2062,
      "lu": 2063,
      "short": 2064,
      "features": 2065,
      "region": 2066,
      "Result": 2067,
      "COU": 2068,
      "site": 2069,
      "til": 2070,
      "cept": 2071,
      "Device": 2072,
      "VER": 2073,
      "eval": 2074,
      "âĢĵ": 2075,
      "expression": 2076,
      "kes": 2077,
      "ilable": 2078,
      "sess": 2079,
      "ross": 2080,
      "ym": 2081,
      "ride": 2082,
      "headers": 2083,
      "cursor": 2084,
      "stead": 2085,
      "Run": 2086,
      "deci": 2087,
      "termin": 2088,
      "umns": 2089,
      "CAPI": 2090,
      "sn": 2091,
      "partic": 2092,
      "queue": 2093,
      "Open": 2094,
      "partner": 2095,
      "gorithm": 2096,
      "dense": 2097,
      "train": 2098,
      "binary": 2099,
      "DB": 2100,
      "uuid": 2101,
      "ĉĉĉĉĉ": 2102,
      "Dict": 2103,
      "ometry": 2104,
      "CAPITAL": 2105,
      "ĠĠĠĠĠĠĠĠĠĠĠĠĠĠĠĠĠĠĠĠĠĠĠĠĠĠĠĠĠĠ": 2106,
      "Optional": 2107,
      "Num": 2108,
      "invalid": 2109,
      "disable": 2110,
      "don": 2111,
      "arguments": 2112,
      "free": 2113,
      "div": 2114,
      "tags": 2115,
      "When": 2116,
      "dev": 2117,
      "byte": 2118,
      "Tool": 2119,
      "alias": 2120,
      "small": 2121,
      "PATH": 2122,
      "origin": 2123,
      "yield": 2124,
      "quo": 2125,
      "ski": 2126,
      "FILE": 2127,
      "EC": 2128,
      "cus": 2129,
      "norm": 2130,
      "sparse": 2131,
      "buil": 2132,
      "button": 2133,
      "swith": 2134,
      "insert": 2135,
      "iso": 2136,
      "socket": 2137,
      "Module": 2138,
      "eded": 2139,
      "ĠĠĠĠĠĠĠĠĠĠĠĠĠĠĠĠĠĠĠĠĠĠ": 2140,
      "Attributes": 2141,
      "variables": 2142,
      "aws": 2143,
      "ni": 2144,
      "tf": 2145,
      "xy": 2146,
      "COUNT": 2147,
      "App": 2148,
      "another": 2149,
      "INT": 2150,
      "ants": 2151,
      "Lay": 2152,
      "Valid": 2153,
      "hook": 2154,
      "Input": 2155,
      "acl": 2156,
      "plot": 2157,
      "ones": 2158,
      "columns": 2159,
      "messages": 2160,
      "clean": 2161,
      "metric": 2162,
      "GHT": 2163,
      "She": 2164,
      "cons": 2165,
      "appro": 2166,
      "menu": 2167,
      "parameter": 2168,
      "family": 2169,
      "wise": 2170,
      "power": 2171,
      "Button": 2172,
      "passed": 2173,
      "atten": 2174,
      "fier": 2175,
      "cla": 2176,
      "configuration": 2177,
      "perform": 2178,
      "Version": 2179,
      "Write": 2180,
      "tre": 2181,
      "dump": 2182,
      "visit": 2183,
      "pokemon": 2184,
      "Map": 2185,
      "raph": 2186,
      "vices": 2187,
      "buf": 2188,
      "vor": 2189,
      "signed": 2190,
      "symb": 2191,
      "skip": 2192,
      "wards": 2193,
      "cu": 2194,
      "ever": 2195,
      "TR": 2196,
      "ati": 2197,
      "deep": 2198,
      "meta": 2199,
      "idden": 2200,
      "take": 2201,
      "failed": 2202,
      "available": 2203,
      "instead": 2204,
      "Info": 2205,
      "transform": 2206,
      "Row": 2207,
      "encode": 2208,
      "urllib": 2209,
      "OUR": 2210,
      "upload": 2211,
      "NOT": 2212,
      "track": 2213,
      "protocol": 2214,
      "git": 2215,
      "ural": 2216,
      "SC": 2217,
      "TP": 2218,
      "got": 2219,
      "tro": 2220,
      "ĉĠĠ": 2221,
      "ouble": 2222,
      "TIME": 2223,
      "require": 2224,
      "things": 2225,
      "opt": 2226,
      "layer": 2227,
      "Helper": 2228,
      "library": 2229,
      "ability": 2230,
      "parts": 2231,
      "vided": 2232,
      "LD": 2233,
      "information": 2234,
      "tered": 2235,
      "ision": 2236,
      "oot": 2237,
      "WS": 2238,
      "CharField": 2239,
      "zy": 2240,
      "repe": 2241,
      "environment": 2242,
      "came": 2243,
      "care": 2244,
      "ground": 2245,
      "oring": 2246,
      "anti": 2247,
      "allen": 2248,
      "boto": 2249,
      "mal": 2250,
      "ĠĠĠĠĠĠĠĠĠĠĠĠĠ": 2251,
      "lower": 2252,
      "Tests": 2253,
      "charac": 2254,
      "history": 2255,
      "Task": 2256,
      "lead": 2257,
      "diction": 2258,
      "classmethod": 2259,
      "saction": 2260,
      "Mock": 2261,
      "cryp": 2262,
      "attrs": 2263,
      "operations": 2264,
      "Man": 2265,
      "transport": 2266,
      "Interface": 2267,
      "Des": 2268,
      "fn": 2269,
      "wever": 2270,
      "paths": 2271,
      "ĠĠĠĠĠĠĠĠĠĠĠĠĠĠĠĠĠĠĠĠĠĠĠĠĠĠ": 2272,
      "report": 2273,
      "resources": 2274,
      "These": 2275,
      "sorted": 2276,
      "uff": 2277,
      "identi": 2278,
      "question": 2279,
      "hosts": 2280,
      "JOIN": 2281,
      "made": 2282,
      "complex": 2283,
      "based": 2284,
      "loss": 2285,
      "served": 2286,
      "cii": 2287,
      "modules": 2288,
      "others": 2289,
      "Proto": 2290,
      "Has": 2291,
      "brow": 2292,
      "enses": 2293,
      "algorithm": 2294,
      "iss": 2295,
      "provided": 2296,
      "states": 2297,
      "IO": 2298,
      "car": 2299,
      "partition": 2300,
      "THE": 2301,
      "trace": 2302,
      "classes": 2303,
      "Int": 2304,
      "gg": 2305,
      "land": 2306,
      "comment": 2307,
      "individ": 2308,
      "secret": 2309,
      "aded": 2310,
      "spa": 2311,
      "reference": 2312,
      "begin": 2313,
      "safe": 2314,
      "blank": 2315,
      "liter": 2316,
      "following": 2317,
      "cell": 2318,
      "install": 2319,
      "FF": 2320,
      "ran": 2321,
      "coder": 2322,
      "disco": 2323,
      "inputs": 2324,
      "Google": 2325,
      "cv": 2326,
      "city": 2327,
      "none": 2328,
      "lim": 2329,
      "aga": 2330,
      "licenses": 2331,
      "COM": 2332,
      "EVT": 2333,
      "Current": 2334,
      "pan": 2335,
      "missing": 2336,
      "Output": 2337,
      "ia": 2338,
      "Reference": 2339,
      "selected": 2340,
      "ually": 2341,
      "TYPE": 2342,
      "thought": 2343,
      "since": 2344,
      "Wrapper": 2345,
      "Sh": 2346,
      "Sys": 2347,
      "ek": 2348,
      "tist": 2349,
      "ater": 2350,
      "heal": 2351,
      "ized": 2352,
      "initi": 2353,
      "video": 2354,
      "fla": 2355,
      "ĠĠĠĠĠĠĠĠĠĠĠĠĠĠĠĠĠĠĠĠĠĠĠĠĠĠĠ": 2356,
      "ĠĠĠĠĠĠĠĠĠĠĠĠĠĠĠĠĠĠĠĠĠĠĠĠĠĠĠĠĠĠĠ": 2357,
      "xxxx": 2358,
      "Software": 2359,
      "exceptions": 2360,
      "imum": 2361,
      "DATA": 2362,
      "XT": 2363,
      "card": 2364,
      "driver": 2365,
      "kind": 2366,
      "sive": 2367,
      "dimen": 2368,
      "Contro": 2369,
      "payload": 2370,
      "Packet": 2371,
      "ged": 2372,
      "atta": 2373,
      "Stat": 2374,
      "Attr": 2375,
      "Param": 2376,
      "executable": 2377,
      "publish": 2378,
      "ession": 2379,
      "fication": 2380,
      "stats": 2381,
      "Connection": 2382,
      "AV": 2383,
      "BI": 2384,
      "My": 2385,
      "bind": 2386,
      "dered": 2387,
      "WITHOUT": 2388,
      "mapping": 2389,
      "END": 2390,
      "masked": 2391,
      "HTTP": 2392,
      "ible": 2393,
      "ences": 2394,
      "tical": 2395,
      "Protocol": 2396,
      "Hand": 2397,
      "turn": 2398,
      "instances": 2399,
      "ffect": 2400,
      "mented": 2401,
      "Box": 2402,
      "Iter": 2403,
      "ured": 2404,
      "well": 2405,
      "inp": 2406,
      "already": 2407,
      "challen": 2408,
      "Contain": 2409,
      "Posi": 2410,
      "BE": 2411,
      "ins": 2412,
      "velo": 2413,
      "events": 2414,
      "GER": 2415,
      "asic": 2416,
      "until": 2417,
      "Integer": 2418,
      "Now": 2419,
      "cri": 2420,
      "done": 2421,
      "emb": 2422,
      "rules": 2423,
      "extension": 2424,
      "Frame": 2425,
      "ming": 2426,
      "complete": 2427,
      "calcul": 2428,
      "Parameters": 2429,
      "Bit": 2430,
      "Fore": 2431,
      "MS": 2432,
      "defined": 2433,
      "clear": 2434,
      "JOB": 2435,
      "dt": 2436,
      "mand": 2437,
      "room": 2438,
      "Enable": 2439,
      "Callback": 2440,
      "Jo": 2441,
      "tab": 2442,
      "oolean": 2443,
      "existing": 2444,
      "View": 2445,
      "Link": 2446,
      "Show": 2447,
      "ues": 2448,
      "TEXT": 2449,
      "serialize": 2450,
      "bad": 2451,
      "jour": 2452,
      "space": 2453,
      "uri": 2454,
      "terms": 2455,
      "implied": 2456,
      "callable": 2457,
      "sof": 2458,
      "ane": 2459,
      "ets": 2460,
      "fake": 2461,
      "manager": 2462,
      "Update": 2463,
      "against": 2464,
      "CL": 2465,
      "Multi": 2466,
      "Source": 2467,
      "fet": 2468,
      "txt": 2469,
      "correct": 2470,
      "Cloud": 2471,
      "country": 2472,
      "bound": 2473,
      "dmp": 2474,
      "implement": 2475,
      "record": 2476,
      "click": 2477,
      "signature": 2478,
      "better": 2479,
      "incre": 2480,
      "term": 2481,
      "center": 2482,
      "rs": 2483,
      "licit": 2484,
      "Entry": 2485,
      "namespace": 2486,
      "beta": 2487,
      "Table": 2488,
      "mig": 2489,
      "ware": 2490,
      "invo": 2491,
      "Image": 2492,
      "IPv": 2493,
      "customer": 2494,
      "Simple": 2495,
      "Wid": 2496,
      "emo": 2497,
      "Header": 2498,
      "bility": 2499,
      "ned": 2500,
      "extend": 2501,
      "spi": 2502,
      "delta": 2503,
      "assertIsNone": 2504,
      "blah": 2505,
      "dictionary": 2506,
      "Oper": 2507,
      "VAL": 2508,
      "vl": 2509,
      "ĠĠĠĠĠĠĠĠĠĠĠĠĠĠĠĠĠĠĠĠĠĠĠ": 2510,
      "Produ": 2511,
      "much": 2512,
      "high": 2513,
      "buffer": 2514,
      "Tran": 2515,
      "plu": 2516,
      "SION": 2517,
      "ensor": 2518,
      "pose": 2519,
      "everyone": 2520,
      "month": 2521,
      "ens": 2522,
      "hether": 2523,
      "shared": 2524,
      "ished": 2525,
      "OURCE": 2526,
      "fd": 2527,
      "ouqu": 2528,
      "abo": 2529,
      "That": 2530,
      "tech": 2531,
      "direct": 2532,
      "mil": 2533,
      "sequence": 2534,
      "cip": 2535,
      "permissions": 2536,
      "compile": 2537,
      "TypeId": 2538,
      "LIST": 2539,
      "days": 2540,
      "received": 2541,
      "Query": 2542,
      "Fun": 2543,
      "gate": 2544,
      "ng": 2545,
      "interval": 2546,
      "ULL": 2547,
      "year": 2548,
      "download": 2549,
      "pkg": 2550,
      "draw": 2551,
      "ouse": 2552,
      "cies": 2553,
      "Content": 2554,
      "uses": 2555,
      "upon": 2556,
      "INE": 2557,
      "Number": 2558,
      "crip": 2559,
      "hol": 2560,
      "theme": 2561,
      "Note": 2562,
      "integer": 2563,
      "System": 2564,
      "CS": 2565,
      "grow": 2566,
      "ene": 2567,
      "esca": 2568,
      "requests": 2569,
      "running": 2570,
      "plugin": 2571,
      "bi": 2572,
      "still": 2573,
      "ferences": 2574,
      "Bar": 2575,
      "How": 2576,
      "rix": 2577,
      "Spe": 2578,
      "ctive": 2579,
      "LITY": 2580,
      "Back": 2581,
      "CK": 2582,
      "DATE": 2583,
      "GRO": 2584,
      "master": 2585,
      "pur": 2586,
      "reci": 2587,
      "ons": 2588,
      "fast": 2589,
      "CHAN": 2590,
      "ĠĠĠĠĠĠĠĠĠĠĠĠĠĠĠĠĠĠĠĠĠĠĠĠĠĠĠĠĠ": 2591,
      "stmt": 2592,
      "pair": 2593,
      "feed": 2594,
      "seconds": 2595,
      "BILITY": 2596,
      "hidden": 2597,
      "tool": 2598,
      "contri": 2599,
      "loaded": 2600,
      "INGS": 2601,
      "ear": 2602,
      "tu": 2603,
      "reed": 2604,
      "ough": 2605,
      "vely": 2606,
      "mys": 2607,
      "aring": 2608,
      "ordin": 2609,
      "hard": 2610,
      "mate": 2611,
      "release": 2612,
      "itu": 2613,
      "rain": 2614,
      "Server": 2615,
      "ternal": 2616,
      "understanding": 2617,
      "bal": 2618,
      "fp": 2619,
      "height": 2620,
      "pick": 2621,
      "samples": 2622,
      "Control": 2623,
      "Fin": 2624,
      "Pick": 2625,
      "eve": 2626,
      "ift": 2627,
      "aml": 2628,
      "collect": 2629,
      "itera": 2630,
      "layout": 2631,
      "health": 2632,
      "hy": 2633,
      "rela": 2634,
      "setting": 2635,
      "explo": 2636,
      "dify": 2637,
      "doesn": 2638,
      "yet": 2639,
      "resh": 2640,
      "arge": 2641,
      "subject": 2642,
      "decode": 2643,
      "usr": 2644,
      "employe": 2645,
      "Auth": 2646,
      "ZZ": 2647,
      "har": 2648,
      "prac": 2649,
      "dele": 2650,
      "INTE": 2651,
      "zero": 2652,
      "multiple": 2653,
      "tivity": 2654,
      "COMM": 2655,
      "Imple": 2656,
      "Su": 2657,
      "Use": 2658,
      "vm": 2659,
      "inner": 2660,
      "stub": 2661,
      "modify": 2662,
      "clf": 2663,
      "assertFalse": 2664,
      "SET": 2665,
      "olution": 2666,
      "convert": 2667,
      "Foreign": 2668,
      "Action": 2669,
      "ah": 2670,
      "parsed": 2671,
      "startswith": 2672,
      "above": 2673,
      "DRA": 2674,
      "Red": 2675,
      "Tim": 2676,
      "XX": 2677,
      "YRI": 2678,
      "sle": 2679,
      "think": 2680,
      "provid": 2681,
      "provide": 2682,
      "ending": 2683,
      "catalog": 2684,
      "GROUP": 2685,
      "across": 2686,
      "generate": 2687,
      "Filter": 2688,
      "Over": 2689,
      "gover": 2690,
      "yaml": 2691,
      "coded": 2692,
      "making": 2693,
      "beli": 2694,
      "hasattr": 2695,
      "Stream": 2696,
      "ENSE": 2697,
      "Feature": 2698,
      "started": 2699,
      "OP": 2700,
      "duce": 2701,
      "writing": 2702,
      "ported": 2703,
      "Ed": 2704,
      "Sta": 2705,
      "inher": 2706,
      "stack": 2707,
      "roll": 2708,
      "raises": 2709,
      "needed": 2710,
      "aries": 2711,
      "Proper": 2712,
      "LICENSE": 2713,
      "MI": 2714,
      "Temp": 2715,
      "ism": 2716,
      "geometry": 2717,
      "Ansible": 2718,
      "Container": 2719,
      "Bad": 2720,
      "FO": 2721,
      "mar": 2722,
      "express": 2723,
      "tasks": 2724,
      "cfg": 2725,
      "Find": 2726,
      "Len": 2727,
      "means": 2728,
      "towards": 2729,
      "loy": 2730,
      "modi": 2731,
      "addr": 2732,
      "TIES": 2733,
      "friends": 2734,
      "OS": 2735,
      "tx": 2736,
      "sto": 2737,
      "sync": 2738,
      "However": 2739,
      "weights": 2740,
      "soft": 2741,
      "won": 2742,
      "shot": 2743,
      "points": 2744,
      "though": 2745,
      "Import": 2746,
      "ForeignKey": 2747,
      "vg": 2748,
      "anal": 2749,
      "topic": 2750,
      "INTEGER": 2751,
      "Fl": 2752,
      "adi": 2753,
      "ney": 2754,
      "intern": 2755,
      "VI": 2756,
      "wal": 2757,
      "cond": 2758,
      "various": 2759,
      "transaction": 2760,
      "escape": 2761,
      "BU": 2762,
      "ency": 2763,
      "rop": 2764,
      "prote": 2765,
      "asso": 2766,
      "setUp": 2767,
      "ORT": 2768,
      "someone": 2769,
      "children": 2770,
      "Examples": 2771,
      "inf": 2772,
      "heart": 2773,
      "HO": 2774,
      "apply": 2775,
      "Settings": 2776,
      "Make": 2777,
      "WARRANTIES": 2778,
      "DS": 2779,
      "cult": 2780,
      "ele": 2781,
      "asc": 2782,
      "entries": 2783,
      "never": 2784,
      "relation": 2785,
      "container": 2786,
      "learning": 2787,
      "ORDER": 2788,
      "hope": 2789,
      "wn": 2790,
      "remain": 2791,
      "beg": 2792,
      "become": 2793,
      "structure": 2794,
      "teri": 2795,
      "IND": 2796,
      "Af": 2797,
      "hour": 2798,
      "Read": 2799,
      "later": 2800,
      "Point": 2801,
      "POST": 2802,
      "Widget": 2803,
      "reverse": 2804,
      "appe": 2805,
      "amount": 2806,
      "contains": 2807,
      "Some": 2808,
      "musi": 2809,
      "global": 2810,
      "original": 2811,
      "Font": 2812,
      "OK": 2813,
      "sep": 2814,
      "oul": 2815,
      "ques": 2816,
      "Colour": 2817,
      "cra": 2818,
      "gent": 2819,
      "ĉĉčĊ": 2820,
      "indent": 2821,
      "Free": 2822,
      "Wor": 2823,
      "fro": 2824,
      "six": 2825,
      "endar": 2826,
      "share": 2827,
      "ances": 2828,
      "SIGN": 2829,
      "Account": 2830,
      "umpy": 2831,
      "Can": 2832,
      "cb": 2833,
      "apache": 2834,
      "lists": 2835,
      "symp": 2836,
      "Let": 2837,
      "NULL": 2838,
      "fs": 2839,
      "reload": 2840,
      "orph": 2841,
      "selves": 2842,
      "chain": 2843,
      "gest": 2844,
      "ators": 2845,
      "ared": 2846,
      "em": 2847,
      "fixt": 2848,
      "los": 2849,
      "often": 2850,
      "getattr": 2851,
      "Selection": 2852,
      "Unless": 2853,
      "BOX": 2854,
      "Bitmap": 2855,
      "SON": 2856,
      "Tensor": 2857,
      "aa": 2858,
      "due": 2859,
      "login": 2860,
      "sleep": 2861,
      "Ext": 2862,
      "Mach": 2863,
      "bro": 2864,
      "ific": 2865,
      "assertAll": 2866,
      "stry": 2867,
      "forms": 2868,
      "Options": 2869,
      "communic": 2870,
      "FA": 2871,
      "mind": 2872,
      "leg": 2873,
      "ctors": 2874,
      "export": 2875,
      "Select": 2876,
      "versionadded": 2877,
      "allowed": 2878,
      "swig": 2879,
      "warnings": 2880,
      "double": 2881,
      "ki": 2882,
      "ked": 2883,
      "apter": 2884,
      "assertHTM": 2885,
      "LEqual": 2886,
      "Iterator": 2887,
      "assertHTMLEqual": 2888,
      "AA": 2889,
      "MER": 2890,
      "SAP": 2891,
      "ks": 2892,
      "verage": 2893,
      "law": 2894,
      "prepa": 2895,
      "defaults": 2896,
      "statement": 2897,
      "jobs": 2898,
      "containing": 2899,
      "bigquery": 2900,
      "numpy": 2901,
      "rp": 2902,
      "ui": 2903,
      "utes": 2904,
      "enforce": 2905,
      "des": 2906,
      "logy": 2907,
      "ROR": 2908,
      "Array": 2909,
      "products": 2910,
      "DRAW": 2911,
      "Machine": 2912,
      "Vari": 2913,
      "isted": 2914,
      "vers": 2915,
      "verify": 2916,
      "joy": 2917,
      "fetch": 2918,
      "water": 2919,
      "subnet": 2920,
      "ERROR": 2921,
      "numer": 2922,
      "projects": 2923,
      "actual": 2924,
      "Line": 2925,
      "hi": 2926,
      "mid": 2927,
      "ql": 2928,
      "Clo": 2929,
      "Mask": 2930,
      "Session": 2931,
      "dy": 2932,
      "game": 2933,
      "scho": 2934,
      "tell": 2935,
      "anch": 2936,
      "ansible": 2937,
      "opts": 2938,
      "ization": 2939,
      "Start": 2940,
      "olute": 2941,
      "ouquet": 2942,
      "Picker": 2943,
      "Apa": 2944,
      "Dat": 2945,
      "native": 2946,
      "xm": 2947,
      "neg": 2948,
      "NetDevice": 2949,
      "After": 2950,
      "Apache": 2951,
      "Sy": 2952,
      "hn": 2953,
      "engine": 2954,
      "Checker": 2955,
      "experience": 2956,
      "filled": 2957,
      "TIONS": 2958,
      "associ": 2959,
      "Li": 2960,
      "PRE": 2961,
      "bot": 2962,
      "three": 2963,
      "assi": 2964,
      "love": 2965,
      "cient": 2966,
      "matches": 2967,
      "Ste": 2968,
      "prop": 2969,
      "perf": 2970,
      "predi": 2971,
      "standard": 2972,
      "TODO": 2973,
      "matrix": 2974,
      "DRAWINGS": 2975,
      "stri": 2976,
      "tives": 2977,
      "pot": 2978,
      "wxEVT": 2979,
      "wrapper": 2980,
      "human": 2981,
      "dle": 2982,
      "mic": 2983,
      "tor": 2984,
      "whether": 2985,
      "ond": 2986,
      "dee": 2987,
      "lite": 2988,
      "identity": 2989,
      "week": 2990,
      "havi": 2991,
      "ĉĉĉĉĉĉ": 2992,
      "sometimes": 2993,
      "Code": 2994,
      "Status": 2995,
      "Mark": 2996,
      "href": 2997,
      "proble": 2998,
      "strong": 2999,
      "folder": 3000,
      "Socket": 3001,
      "books": 3002,
      "staticmethod": 3003,
      "FORM": 3004,
      "Pri": 3005,
      "Qgs": 3006,
      "ba": 3007,
      "pure": 3008,
      "abel": 3009,
      "obtain": 3010,
      "Delete": 3011,
      "serializer": 3012,
      "precated": 3013,
      "New": 3014,
      "USE": 3015,
      "ctype": 3016,
      "among": 3017,
      "deri": 3018,
      "Invalid": 3019,
      "combin": 3020,
      "useful": 3021,
      "creating": 3022,
      "Mode": 3023,
      "links": 3024,
      "csv": 3025,
      "contents": 3026,
      "Help": 3027,
      "Foundation": 3028,
      "good": 3029,
      "ited": 3030,
      "sci": 3031,
      "requ": 3032,
      "note": 3033,
      "prog": 3034,
      "paces": 3035,
      "packet": 3036,
      "checked": 3037,
      "ogr": 3038,
      "validate": 3039,
      "pie": 3040,
      "CR": 3041,
      "JSON": 3042,
      "sun": 3043,
      "watch": 3044,
      "expr": 3045,
      "testing": 3046,
      "expl": 3047,
      "override": 3048,
      "iterable": 3049,
      "Max": 3050,
      "basic": 3051,
      "nb": 3052,
      "rpc": 3053,
      "mag": 3054,
      "matic": 3055,
      "props": 3056,
      "finally": 3057,
      "ja": 3058,
      "att": 3059,
      "itch": 3060,
      "possible": 3061,
      "built": 3062,
      "eta": 3063,
      "important": 3064,
      "soci": 3065,
      "acy": 3066,
      "pipe": 3067,
      "manage": 3068,
      "Parser": 3069,
      "generated": 3070,
      "happen": 3071,
      "particle": 3072,
      "CI": 3073,
      "reason": 3074,
      "ctx": 3075,
      "formed": 3076,
      "unch": 3077,
      "signific": 3078,
      "Network": 3079,
      "KIND": 3080,
      "Qt": 3081,
      "separ": 3082,
      "beau": 3083,
      "There": 3084,
      "REE": 3085,
      "working": 3086,
      "FIT": 3087,
      "supported": 3088,
      "widgets": 3089,
      "stract": 3090,
      "Ab": 3091,
      "Doc": 3092,
      "grid": 3093,
      "mac": 3094,
      "proces": 3095,
      "special": 3096,
      "little": 3097,
      "initial": 3098,
      "salt": 3099,
      "COMMAND": 3100,
      "pres": 3101,
      "ename": 3102,
      "cogn": 3103,
      "agreed": 3104,
      "vered": 3105,
      "best": 3106,
      "Command": 3107,
      "Trace": 3108,
      "vol": 3109,
      "exclu": 3110,
      "apt": 3111,
      "outing": 3112,
      "GET": 3113,
      "Buffer": 3114,
      "iam": 3115,
      "sched": 3116,
      "liance": 3117,
      "cols": 3118,
      "moves": 3119,
      "mach": 3120,
      "ssh": 3121,
      "ESS": 3122,
      "documentation": 3123,
      "condition": 3124,
      "Position": 3125,
      "journey": 3126,
      "MO": 3127,
      "seen": 3128,
      "fact": 3129,
      "calendar": 3130,
      "strings": 3131,
      "namespaces": 3132,
      "Empty": 3133,
      "anted": 3134,
      "deli": 3135,
      "intain": 3136,
      "execu": 3137,
      "records": 3138,
      "bum": 3139,
      "ium": 3140,
      "night": 3141,
      "why": 3142,
      "logs": 3143,
      "hostname": 3144,
      "sym": 3145,
      "attach": 3146,
      "IL": 3147,
      "LINE": 3148,
      "develo": 3149,
      "sole": 3150,
      "Sequence": 3151,
      "DIR": 3152,
      "enumer": 3153,
      "PIP": 3154,
      "VE": 3155,
      "gap": 3156,
      "pys": 3157,
      "tb": 3158,
      "story": 3159,
      "alp": 3160,
      "tables": 3161,
      "eyes": 3162,
      "stdin": 3163,
      "mission": 3164,
      "MAX": 3165,
      "extensions": 3166,
      "AWS": 3167,
      "Cho": 3168,
      "Ne": 3169,
      "Root": 3170,
      "WN": 3171,
      "fc": 3172,
      "fed": 3173,
      "attemp": 3174,
      "ety": 3175,
      "marked": 3176,
      "COL": 3177,
      "organ": 3178,
      "stories": 3179,
      "conditions": 3180,
      "relationship": 3181,
      "ious": 3182,
      "opener": 3183,
      "osity": 3184,
      "img": 3185,
      "outputs": 3186,
      "OUBLE": 3187,
      "Channel": 3188,
      "Auto": 3189,
      "CYRI": 3190,
      "FT": 3191,
      "LLIC": 3192,
      "NS": 3193,
      "PC": 3194,
      "UD": 3195,
      "arra": 3196,
      "Trans": 3197,
      "alizer": 3198,
      "years": 3199,
      "CYRILLIC": 3200,
      "Many": 3201,
      "sli": 3202,
      "Host": 3203,
      "PY": 3204,
      "dc": 3205,
      "isn": 3206,
      "DESC": 3207,
      "lookup": 3208,
      "HTML": 3209,
      "snap": 3210,
      "Custom": 3211,
      "Fir": 3212,
      "ensure": 3213,
      "today": 3214,
      "behavi": 3215,
      "works": 3216,
      "dirname": 3217,
      "signal": 3218,
      "Resource": 3219,
      "RIGHT": 3220,
      "absolute": 3221,
      "decided": 3222,
      "Handler": 3223,
      "FORMAT": 3224,
      "MIT": 3225,
      "pect": 3226,
      "Requi": 3227,
      "cert": 3228,
      "warning": 3229,
      "Implemented": 3230,
      "began": 3231,
      "BA": 3232,
      "DOUBLE": 3233,
      "May": 3234,
      "cid": 3235,
      "lon": 3236,
      "tz": 3237,
      "seed": 3238,
      "ines": 3239,
      "arm": 3240,
      "etc": 3241,
      "NotImplemented": 3242,
      "ny": 3243,
      "tk": 3244,
      "reach": 3245,
      "arti": 3246,
      "apps": 3247,
      "docs": 3248,
      "Step": 3249,
      "Page": 3250,
      "lat": 3251,
      "zone": 3252,
      "ended": 3253,
      "rations": 3254,
      "umb": 3255,
      "certain": 3256,
      "counter": 3257,
      "polym": 3258,
      "relative": 3259,
      "orphic": 3260,
      "polymorphic": 3261,
      "fall": 3262,
      "ditional": 3263,
      "compo": 3264,
      "ONE": 3265,
      "spect": 3266,
      "connections": 3267,
      "DataFrame": 3268,
      "final": 3269,
      "Meta": 3270,
      "school": 3271,
      "PIPE": 3272,
      "First": 3273,
      "Ht": 3274,
      "SU": 3275,
      "ech": 3276,
      "hs": 3277,
      "house": 3278,
      "lint": 3279,
      "ider": 3280,
      "branch": 3281,
      "assertAllEqual": 3282,
      "pyspark": 3283,
      "AU": 3284,
      "mk": 3285,
      "ric": 3286,
      "Remove": 3287,
      "Child": 3288,
      "Sar": 3289,
      "USER": 3290,
      "lass": 3291,
      "deprecated": 3292,
      "necess": 3293,
      "poten": 3294,
      "compliance": 3295,
      "Dele": 3296,
      "Template": 3297,
      "End": 3298,
      "away": 3299,
      "meet": 3300,
      "serve": 3301,
      "dic": 3302,
      "building": 3303,
      "fixture": 3304,
      "mc": 3305,
      "maintain": 3306,
      "dialog": 3307,
      "iler": 3308,
      "REQU": 3309,
      "board": 3310,
      "phone": 3311,
      "views": 3312,
      "MPL": 3313,
      "async": 3314,
      "vs": 3315,
      "ison": 3316,
      "dition": 3317,
      "TED": 3318,
      "coming": 3319,
      "newexp": 3320,
      "requires": 3321,
      "Prefix": 3322,
      "repeated": 3323,
      "Popen": 3324,
      "dete": 3325,
      "services": 3326,
      "favor": 3327,
      "license": 3328,
      "price": 3329,
      "choice": 3330,
      "iterator": 3331,
      "vars": 3332,
      "Meth": 3333,
      "quote": 3334,
      "Validator": 3335,
      "John": 3336,
      "MachineState": 3337,
      "Block": 3338,
      "Cal": 3339,
      "Label": 3340,
      "Ms": 3341,
      "sources": 3342,
      "wd": 3343,
      "ergy": 3344,
      "sig": 3345,
      "collection": 3346,
      "Exec": 3347,
      "descri": 3348,
      "explore": 3349,
      "Of": 3350,
      "Pcap": 3351,
      "hass": 3352,
      "eng": 3353,
      "almost": 3354,
      "anim": 3355,
      "ART": 3356,
      "cannot": 3357,
      "RESOURCE": 3358,
      "Operation": 3359,
      "Sarah": 3360,
      "Email": 3361,
      "hex": 3362,
      "endpoint": 3363,
      "saved": 3364,
      "partment": 3365,
      "Ascii": 3366,
      "fds": 3367,
      "nat": 3368,
      "remember": 3369,
      "isol": 3370,
      "rather": 3371,
      "maz": 3372,
      "distance": 3373,
      "experiences": 3374,
      "Layer": 3375,
      "Close": 3376,
      "NESS": 3377,
      "cand": 3378,
      "rit": 3379,
      "forward": 3380,
      "adding": 3381,
      "pylint": 3382,
      "Licensed": 3383,
      "utili": 3384,
      "integr": 3385,
      "DateTime": 3386,
      "sever": 3387,
      "stage": 3388,
      "classi": 3389,
      "symbol": 3390,
      "Tit": 3391,
      "shift": 3392,
      "RED": 3393,
      "generator": 3394,
      "everything": 3395,
      "crypt": 3396,
      "MERCHAN": 3397,
      "FITNESS": 3398,
      "feder": 3399,
      "drop": 3400,
      "lap": 3401,
      "ĉčĊ": 3402,
      "reen": 3403,
      "latest": 3404,
      "including": 3405,
      "pattern": 3406,
      "performance": 3407,
      "gapic": 3408,
      "PER": 3409,
      "ality": 3410,
      "again": 3411,
      "contrib": 3412,
      "progress": 3413,
      "openerp": 3414,
      "duration": 3415,
      "hor": 3416,
      "choo": 3417,
      "ancel": 3418,
      "compar": 3419,
      "diff": 3420,
      "numbers": 3421,
      "transfer": 3422,
      "snapshot": 3423,
      "MERCHANTA": 3424,
      "AB": 3425,
      "Cache": 3426,
      "Dir": 3427,
      "Down": 3428,
      "PUR": 3429,
      "TRA": 3430,
      "frequ": 3431,
      "pret": 3432,
      "station": 3433,
      "moment": 3434,
      "via": 3435,
      "acti": 3436,
      "accept": 3437,
      "area": 3438,
      "Process": 3439,
      "ULAR": 3440,
      "enabled": 3441,
      "practi": 3442,
      "Edit": 3443,
      "Database": 3444,
      "uals": 3445,
      "tex": 3446,
      "enough": 3447,
      "otherwise": 3448,
      "POSE": 3449,
      "limitations": 3450,
      "PARTIC": 3451,
      "Manager": 3452,
      "PURPOSE": 3453,
      "PARTICULAR": 3454,
      "ATION": 3455,
      "Pr": 3456,
      "resi": 3457,
      "roid": 3458,
      "cook": 3459,
      "ledge": 3460,
      "Through": 3461,
      "summary": 3462,
      "needs": 3463,
      "wr": 3464,
      "retri": 3465,
      "company": 3466,
      "Under": 3467,
      "LOG": 3468,
      "OFT": 3469,
      "applicable": 3470,
      "Imagine": 3471,
      "Sp": 3472,
      "gory": 3473,
      "nes": 3474,
      "pid": 3475,
      "teach": 3476,
      "loop": 3477,
      "members": 3478,
      "updated": 3479,
      "governing": 3480,
      "sympy": 3481,
      "cas": 3482,
      "icon": 3483,
      "mul": 3484,
      "tify": 3485,
      "determin": 3486,
      "essen": 3487,
      "correspon": 3488,
      "intera": 3489,
      "AttributeError": 3490,
      "ferred": 3491,
      "enumerate": 3492,
      "NCE": 3493,
      "average": 3494,
      "css": 3495,
      "sound": 3496,
      "took": 3497,
      "dian": 3498,
      "ational": 3499,
      "vious": 3500,
      "expdat": 3501,
      "audi": 3502,
      "arning": 3503,
      "calls": 3504,
      "Web": 3505,
      "DefaultAttributes": 3506,
      "occur": 3507,
      "Load": 3508,
      "associated": 3509,
      "significant": 3510,
      "CLI": 3511,
      "bru": 3512,
      "valu": 3513,
      "mental": 3514,
      "LEFT": 3515,
      "compati": 3516,
      "grade": 3517,
      "filters": 3518,
      "Option": 3519,
      "ĠĠĠĠĠĠĠĠĠĠĠĠĠĠĠĠĠĠĠĠĠĠĠĠĠĠĠĠĠĠĠĠĠ": 3520,
      "DEFIN": 3521,
      "listener": 3522,
      "decision": 3523,
      "tensorflow": 3524,
      "Bob": 3525,
      "jvm": 3526,
      "focus": 3527,
      "unities": 3528,
      "helps": 3529,
      "allows": 3530,
      "changes": 3531,
      "Windows": 3532,
      "balance": 3533,
      "Title": 3534,
      "MERCHANTABILITY": 3535,
      "Book": 3536,
      "CP": 3537,
      "Le": 3538,
      "Spark": 3539,
      "unk": 3540,
      "ird": 3541,
      "owner": 3542,
      "GetClass": 3543,
      "visible": 3544,
      "images": 3545,
      "matter": 3546,
      "clause": 3547,
      "published": 3548,
      "ImportError": 3549,
      "BUT": 3550,
      "encoded": 3551,
      "sight": 3552,
      "subscrip": 3553,
      "discus": 3554,
      "black": 3555,
      "analy": 3556,
      "ace": 3557,
      "wi": 3558,
      "orted": 3559,
      "prob": 3560,
      "keyword": 3561,
      "asked": 3562,
      "prior": 3563,
      "deploy": 3564,
      "community": 3565,
      "Function": 3566,
      "BAS": 3567,
      "Em": 3568,
      "Vis": 3569,
      "ummy": 3570,
      "near": 3571,
      "ector": 3572,
      "creation": 3573,
      "LIMIT": 3574,
      "steps": 3575,
      "indic": 3576,
      "CONDI": 3577,
      "packages": 3578,
      "Mem": 3579,
      "ixin": 3580,
      "student": 3581,
      "symbols": 3582,
      "Http": 3583,
      "Next": 3584,
      "OO": 3585,
      "effect": 3586,
      "ron": 3587,
      "ressed": 3588,
      "strate": 3589,
      "compute": 3590,
      "phra": 3591,
      "âĢĻ": 3592,
      "dimension": 3593,
      "Product": 3594,
      "BASIS": 3595,
      "CONDITIONS": 3596,
      "Amer": 3597,
      "hd": 3598,
      "slice": 3599,
      "selection": 3600,
      "Form": 3601,
      "servicelist": 3602,
      "Post": 3603,
      "cycle": 3604,
      "going": 3605,
      "permission": 3606,
      "Extra": 3607,
      "GetClassDefaultAttributes": 3608,
      "Americ": 3609,
      "knew": 3610,
      "album": 3611,
      "pod": 3612,
      "usage": 3613,
      "tact": 3614,
      "speed": 3615,
      "phy": 3616,
      "THER": 3617,
      "sentry": 3618,
      "construct": 3619,
      "radio": 3620,
      "holder": 3621,
      "alpha": 3622,
      "Pe": 3623,
      "SP": 3624,
      "iti": 3625,
      "tun": 3626,
      "tten": 3627,
      "ately": 3628,
      "clone": 3629,
      "lyr": 3630,
      "presen": 3631,
      "KeyError": 3632,
      "merge": 3633,
      "ĠĠĠĠĠĠĠĠĠĠĠĠĠĠĠĠĠĠĠĠĠĠĠĠĠĠĠĠĠĠĠĠĠĠĠĠĠĠ": 3634,
      "browser": 3635,
      "individual": 3636,
      "Choice": 3637,
      "Vector": 3638,
      "ial": 3639,
      "lives": 3640,
      "vector": 3641,
      "INSTA": 3642,
      "entities": 3643,
      "maximum": 3644,
      "targets": 3645,
      "Employe": 3646,
      "literal": 3647,
      "tistics": 3648,
      "Driver": 3649,
      "MAR": 3650,
      "fmt": 3651,
      "lst": 3652,
      "sical": 3653,
      "simil": 3654,
      "exact": 3655,
      "poli": 3656,
      "TEM": 3657,
      "having": 3658,
      "expand": 3659,
      "localhost": 3660,
      "whose": 3661,
      "notice": 3662,
      "characters": 3663,
      "necessary": 3664,
      "DEFINED": 3665,
      "Sign": 3666,
      "eq": 3667,
      "gue": 3668,
      "va": 3669,
      "reset": 3670,
      "Stor": 3671,
      "finished": 3672,
      "extract": 3673,
      "machine": 3674,
      "NotImplementedError": 3675,
      "WORD": 3676,
      "ĠĠĠĠĠĠĠĠĠĠĠĠčĊ": 3677,
      "ithub": 3678,
      "Inc": 3679,
      "throughout": 3680,
      "feelings": 3681,
      "evalu": 3682,
      "inherit": 3683,
      "Ke": 3684,
      "fasc": 3685,
      "lev": 3686,
      "least": 3687,
      "quali": 3688,
      "appreci": 3689,
      "say": 3690,
      "sense": 3691,
      "distribute": 3692,
      "ounds": 3693,
      "collector": 3694,
      "students": 3695,
      "dumps": 3696,
      "modified": 3697,
      "His": 3698,
      "bene": 3699,
      "js": 3700,
      "urls": 3701,
      "chemy": 3702,
      "seemed": 3703,
      "Local": 3704,
      "Bucket": 3705,
      "potential": 3706,
      "Boolean": 3707,
      "ga": 3708,
      "large": 3709,
      "inx": 3710,
      "encies": 3711,
      "beat": 3712,
      "neigh": 3713,
      "ases": 3714,
      "faces": 3715,
      "curses": 3716,
      "explicit": 3717,
      "regi": 3718,
      "accounts": 3719,
      "Each": 3720,
      "Port": 3721,
      "ZE": 3722,
      "bb": 3723,
      "cc": 3724,
      "klass": 3725,
      "cks": 3726,
      "START": 3727,
      "ATTR": 3728,
      "give": 3729,
      "approach": 3730,
      "Alice": 3731,
      "Min": 3732,
      "Norm": 3733,
      "dld": 3734,
      "gather": 3735,
      "mut": 3736,
      "mount": 3737,
      "atom": 3738,
      "cture": 3739,
      "dim": 3740,
      "datastore": 3741,
      "said": 3742,
      "CHE": 3743,
      "minutes": 3744,
      "copyright": 3745,
      "expect": 3746,
      "currently": 3747,
      "interest": 3748,
      "supp": 3749,
      "couldn": 3750,
      "Admin": 3751,
      "hooks": 3752,
      "internal": 3753,
      "Variable": 3754,
      "natural": 3755,
      "Mac": 3756,
      "SOFT": 3757,
      "echo": 3758,
      "fname": 3759,
      "situ": 3760,
      "wom": 3761,
      "inside": 3762,
      "resses": 3763,
      "units": 3764,
      "scra": 3765,
      "compat": 3766,
      "quick": 3767,
      "Uni": 3768,
      "feeling": 3769,
      "WARE": 3770,
      "WARRANTY": 3771,
      "termine": 3772,
      "Flag": 3773,
      "several": 3774,
      "AM": 3775,
      "Her": 3776,
      "Just": 3777,
      "Sty": 3778,
      "dead": 3779,
      "agg": 3780,
      "ills": 3781,
      "assertIn": 3782,
      "written": 3783,
      "yourself": 3784,
      "looked": 3785,
      "particular": 3786,
      "Descrip": 3787,
      "NE": 3788,
      "Pass": 3789,
      "bri": 3790,
      "nam": 3791,
      "ert": 3792,
      "alt": 3793,
      "lies": 3794,
      "ASS": 3795,
      "plt": 3796,
      "ĠĠĠĠĠĠĠĠĠĠĠĠĠĠĠĠĠĠĠĠĠĠĠĠĠĠĠĠĠĠĠĠĠĠ": 3797,
      "food": 3798,
      "Factory": 3799,
      "didn": 3800,
      "individuals": 3801,
      "dimensions": 3802,
      "push": 3803,
      "usu": 3804,
      "urther": 3805,
      "terns": 3806,
      "prov": 3807,
      "lication": 3808,
      "writer": 3809,
      "Project": 3810,
      "standing": 3811,
      "music": 3812,
      "prepare": 3813,
      "dldp": 3814,
      "catch": 3815,
      "rate": 3816,
      "sol": 3817,
      "td": 3818,
      "season": 3819,
      "inspi": 3820,
      "external": 3821,
      "unsigned": 3822,
      "aging": 3823,
      "pers": 3824,
      "suf": 3825,
      "upper": 3826,
      "INFO": 3827,
      "Here": 3828,
      "UNDEFINED": 3829,
      "character": 3830,
      "employees": 3831,
      "Cat": 3832,
      "Clean": 3833,
      "UTE": 3834,
      "boolean": 3835,
      "ule": 3836,
      "tific": 3837,
      "ascii": 3838,
      "atype": 3839,
      "adio": 3840,
      "ssl": 3841,
      "screen": 3842,
      "expi": 3843,
      "dirs": 3844,
      "flu": 3845,
      "player": 3846,
      "commands": 3847,
      "TextAttr": 3848,
      "positive": 3849,
      "learned": 3850,
      "scale": 3851,
      "SparkContext": 3852,
      "Ben": 3853,
      "bel": 3854,
      "zz": 3855,
      "simp": 3856,
      "tradi": 3857,
      "facts": 3858,
      "assertEquals": 3859,
      "trip": 3860,
      "hape": 3861,
      "âĢĶ": 3862,
      "AttributeValue": 3863,
      "Java": 3864,
      "gl": 3865,
      "ker": 3866,
      "wanted": 3867,
      "ofc": 3868,
      "promo": 3869,
      "ints": 3870,
      "ically": 3871,
      "INTER": 3872,
      "reader": 3873,
      "Exp": 3874,
      "gnu": 3875,
      "wasn": 3876,
      "fixed": 3877,
      "posit": 3878,
      "convers": 3879,
      "normal": 3880,
      "issues": 3881,
      "migration": 3882,
      "relationships": 3883,
      "Mixin": 3884,
      "Rel": 3885,
      "nature": 3886,
      "yes": 3887,
      "setValue": 3888,
      "loads": 3889,
      "Search": 3890,
      "Environ": 3891,
      "statistics": 3892,
      "grpc": 3893,
      "FIX": 3894,
      "sqlite": 3895,
      "Any": 3896,
      "NotFound": 3897,
      "failure": 3898,
      "RefCount": 3899,
      "ufffe": 3900,
      "SimpleRefCount": 3901,
      "VALU": 3902,
      "stored": 3903,
      "PickerCtrl": 3904,
      "micro": 3905,
      "nbsp": 3906,
      "Bin": 3907,
      "nor": 3908,
      "expla": 3909,
      "unknown": 3910,
      "route": 3911,
      "comfor": 3912,
      "scan": 3913,
      "depth": 3914,
      "Policy": 3915,
      "problem": 3916,
      "behavior": 3917,
      "Storage": 3918,
      "VR": 3919,
      "vp": 3920,
      "shell": 3921,
      "LED": 3922,
      "STR": 3923,
      "patterns": 3924,
      "Employee": 3925,
      "Men": 3926,
      "MENT": 3927,
      "Warning": 3928,
      "ive": 3929,
      "ris": 3930,
      "references": 3931,
      "enc": 3932,
      "digit": 3933,
      "previous": 3934,
      "quiet": 3935,
      "Provid": 3936,
      "grad": 3937,
      "Parse": 3938,
      "ilities": 3939,
      "comes": 3940,
      "switch": 3941,
      "Writer": 3942,
      "wrong": 3943,
      "Graph": 3944,
      "living": 3945,
      "cover": 3946,
      "strument": 3947,
      "Moved": 3948,
      "Dataset": 3949,
      "transl": 3950,
      "CONF": 3951,
      "limits": 3952,
      "directly": 3953,
      "SOFTWARE": 3954,
      "mor": 3955,
      "ume": 3956,
      "sequ": 3957,
      "reduce": 3958,
      "tim": 3959,
      "assign": 3960,
      "istent": 3961,
      "ulation": 3962,
      "aged": 3963,
      "TEMPL": 3964,
      "regard": 3965,
      "flush": 3966,
      "looking": 3967,
      "Access": 3968,
      "Only": 3969,
      "Geo": 3970,
      "Serialized": 3971,
      "Document": 3972,
      "INSTANCE": 3973,
      "TEMPLATE": 3974,
      "hind": 3975,
      "lt": 3976,
      "sche": 3977,
      "ince": 3978,
      "stood": 3979,
      "orter": 3980,
      "encryp": 3981,
      "enium": 3982,
      "coordin": 3983,
      "agent": 3984,
      "ORS": 3985,
      "regex": 3986,
      "rights": 3987,
      "challenges": 3988,
      "PUT": 3989,
      "Please": 3990,
      "Rou": 3991,
      "Radio": 3992,
      "Te": 3993,
      "bor": 3994,
      "tou": 3995,
      "rer": 3996,
      "stone": 3997,
      "titu": 3998,
      "itself": 3999,
      "predict": 4000,
      "regular": 4001,
      "fascin": 4002,
      "Have": 4003,
      "La": 4004,
      "Pla": 4005,
      "Sim": 4006,
      "SING": 4007,
      "Target": 4008,
      "equ": 4009,
      "arri": 4010,
      "cker": 4011,
      "uler": 4012,
      "dies": 4013,
      "quanti": 4014,
      "became": 4015,
      "Constra": 4016,
      "minim": 4017,
      "imator": 4018,
      "loader": 4019,
      "mapped": 4020,
      "versions": 4021,
      "maybe": 4022,
      "front": 4023,
      "friendly": 4024,
      "category": 4025,
      "vgw": 4026,
      "hours": 4027,
      "comparison": 4028,
      "valuable": 4029,
      "gax": 4030,
      "slow": 4031,
      "recogn": 4032,
      "race": 4033,
      "below": 4034,
      "builder": 4035,
      "flavor": 4036,
      "elem": 4037,
      "CLIENT": 4038,
      "ML": 4039,
      "pages": 4040,
      "instrument": 4041,
      "realized": 4042,
      "reserved": 4043,
      "redistribute": 4044,
      "live": 4045,
      "ORI": 4046,
      "Chang": 4047,
      "warm": 4048,
      "ToolBar": 4049,
      "gateway": 4050,
      "exploring": 4051,
      "similar": 4052,
      "registry": 4053,
      "Style": 4054,
      "Alex": 4055,
      "PORT": 4056,
      "TREE": 4057,
      "gt": 4058,
      "vpc": 4059,
      "ino": 4060,
      "inct": 4061,
      "orary": 4062,
      "enjoy": 4063,
      "console": 4064,
      "loved": 4065,
      "makes": 4066,
      "vert": 4067,
      "impro": 4068,
      "factory": 4069,
      "ndarray": 4070,
      "evolve": 4071,
      "mydate": 4072,
      "Arn": 4073,
      "Statement": 4074,
      "breath": 4075,
      "consider": 4076,
      "crypto": 4077,
      "browse": 4078,
      "arrays": 4079,
      "seg": 4080,
      "prod": 4081,
      "vig": 4082,
      "sharing": 4083,
      "dom": 4084,
      "licity": 4085,
      "logical": 4086,
      "ctories": 4087,
      "Arg": 4088,
      "prefixlen": 4089,
      "ixed": 4090,
      "personal": 4091,
      "radi": 4092,
      "emotions": 4093,
      "Deleter": 4094,
      "Provider": 4095
    },
    "merges": [
      [
        "Ġ",
        "Ġ"
      ],
      [
        "ĠĠ",
        "ĠĠ"
      ],
      [
        "č",
        "Ċ"
      ],
      [
        "ĠĠĠĠ",
        "ĠĠĠĠ"
      ],
      [
        "s",
        "e"
      ],
      [
        "i",
        "n"
      ],
      [
        "r",
        "e"
      ],
      [
        "o",
        "n"
      ],
      [
        "t",
        "e"
      ],
      [
        "t",
        "h"
      ],
      [
        "s",
        "t"
      ],
      [
        "o",
        "r"
      ],
      [
        "e",
        "r"
      ],
      [
        "e",
        "n"
      ],
      [
        "a",
        "l"
      ],
      [
        "a",
        "n"
      ],
      [
        "t",
        "i"
      ],
      [
        "l",
        "e"
      ],
      [
        "a",
        "r"
      ],
      [
        "d",
        "e"
      ],
      [
        "se",
        "l"
      ],
      [
        "sel",
        "f"
      ],
      [
        "m",
        "e"
      ],
      [
        "o",
        "u"
      ],
      [
        "a",
        "s"
      ],
      [
        "a",
        "t"
      ],
      [
        "ĠĠĠĠĠĠĠĠ",
        "ĠĠĠĠ"
      ],
      [
        "th",
        "e"
      ],
      [
        "in",
        "g"
      ],
      [
        "c",
        "e"
      ],
      [
        "r",
        "o"
      ],
      [
        "ti",
        "on"
      ],
      [
        "i",
        "s"
      ],
      [
        "ĠĠĠĠĠĠĠĠ",
        "ĠĠĠĠĠĠĠĠ"
      ],
      [
        "e",
        "t"
      ],
      [
        "t",
        "o"
      ],
      [
        "l",
        "i"
      ],
      [
        "u",
        "e"
      ],
      [
        "m",
        "p"
      ],
      [
        "c",
        "o"
      ],
      [
        "f",
        "i"
      ],
      [
        "u",
        "r"
      ],
      [
        "c",
        "h"
      ],
      [
        "a",
        "te"
      ],
      [
        "c",
        "on"
      ],
      [
        "an",
        "d"
      ],
      [
        "a",
        "me"
      ],
      [
        "c",
        "t"
      ],
      [
        "l",
        "o"
      ],
      [
        "r",
        "i"
      ],
      [
        "p",
        "e"
      ],
      [
        "a",
        "d"
      ],
      [
        "en",
        "t"
      ],
      [
        "o",
        "f"
      ],
      [
        "i",
        "d"
      ],
      [
        "se",
        "r"
      ],
      [
        "i",
        "t"
      ],
      [
        "de",
        "f"
      ],
      [
        "f",
        "or"
      ],
      [
        "e",
        "l"
      ],
      [
        "s",
        "i"
      ],
      [
        "e",
        "x"
      ],
      [
        "e",
        "s"
      ],
      [
        "e",
        "d"
      ],
      [
        "r",
        "a"
      ],
      [
        "m",
        "o"
      ],
      [
        "m",
        "a"
      ],
      [
        "i",
        "f"
      ],
      [
        "re",
        "s"
      ],
      [
        "c",
        "k"
      ],
      [
        "te",
        "r"
      ],
      [
        "u",
        "n"
      ],
      [
        "a",
        "b"
      ],
      [
        "n",
        "o"
      ],
      [
        "u",
        "l"
      ],
      [
        "n",
        "ame"
      ],
      [
        "d",
        "i"
      ],
      [
        "c",
        "l"
      ],
      [
        "ĉ",
        "ĉ"
      ],
      [
        "re",
        "t"
      ],
      [
        "ur",
        "n"
      ],
      [
        "or",
        "t"
      ],
      [
        "a",
        "g"
      ],
      [
        "q",
        "u"
      ],
      [
        "v",
        "al"
      ],
      [
        "h",
        "e"
      ],
      [
        "o",
        "p"
      ],
      [
        "t",
        "y"
      ],
      [
        "p",
        "ro"
      ],
      [
        "t",
        "r"
      ],
      [
        "v",
        "er"
      ],
      [
        "k",
        "e"
      ],
      [
        "i",
        "l"
      ],
      [
        "on",
        "e"
      ],
      [
        "a",
        "p"
      ],
      [
        "ret",
        "urn"
      ],
      [
        "ar",
        "g"
      ],
      [
        "ser",
        "t"
      ],
      [
        "p",
        "ar"
      ],
      [
        "o",
        "l"
      ],
      [
        "p",
        "a"
      ],
      [
        "v",
        "e"
      ],
      [
        "as",
        "sert"
      ],
      [
        "n",
        "t"
      ],
      [
        "i",
        "mp"
      ],
      [
        "u",
        "m"
      ],
      [
        "a",
        "tion"
      ],
      [
        "u",
        "t"
      ],
      [
        "a",
        "m"
      ],
      [
        "i",
        "th"
      ],
      [
        "g",
        "et"
      ],
      [
        "as",
        "s"
      ],
      [
        "c",
        "tion"
      ],
      [
        "ro",
        "m"
      ],
      [
        "al",
        "l"
      ],
      [
        "b",
        "e"
      ],
      [
        "te",
        "st"
      ],
      [
        "se",
        "t"
      ],
      [
        "st",
        "r"
      ],
      [
        "in",
        "t"
      ],
      [
        "n",
        "e"
      ],
      [
        "p",
        "er"
      ],
      [
        "f",
        "rom"
      ],
      [
        "en",
        "d"
      ],
      [
        "ou",
        "t"
      ],
      [
        "imp",
        "ort"
      ],
      [
        "ul",
        "t"
      ],
      [
        "val",
        "ue"
      ],
      [
        "w",
        "ith"
      ],
      [
        "ou",
        "r"
      ],
      [
        "s",
        "s"
      ],
      [
        "d",
        "u"
      ],
      [
        "at",
        "a"
      ],
      [
        "v",
        "i"
      ],
      [
        "x",
        "t"
      ],
      [
        "s",
        "h"
      ],
      [
        "s",
        "u"
      ],
      [
        "N",
        "one"
      ],
      [
        "ab",
        "le"
      ],
      [
        "p",
        "o"
      ],
      [
        "l",
        "a"
      ],
      [
        "b",
        "u"
      ],
      [
        "no",
        "t"
      ],
      [
        "h",
        "t"
      ],
      [
        "ty",
        "pe"
      ],
      [
        "te",
        "xt"
      ],
      [
        "arg",
        "s"
      ],
      [
        "ĠĠ",
        "Ġ"
      ],
      [
        "o",
        "b"
      ],
      [
        "si",
        "on"
      ],
      [
        "n",
        "s"
      ],
      [
        "m",
        "ent"
      ],
      [
        "d",
        "o"
      ],
      [
        "fi",
        "le"
      ],
      [
        "te",
        "d"
      ],
      [
        "T",
        "r"
      ],
      [
        "l",
        "y"
      ],
      [
        "i",
        "c"
      ],
      [
        "e",
        "ct"
      ],
      [
        "d",
        "er"
      ],
      [
        "a",
        "se"
      ],
      [
        "w",
        "h"
      ],
      [
        "ag",
        "e"
      ],
      [
        "r",
        "or"
      ],
      [
        "qu",
        "al"
      ],
      [
        "cl",
        "ass"
      ],
      [
        "ke",
        "y"
      ],
      [
        "o",
        "o"
      ],
      [
        "Tr",
        "ue"
      ],
      [
        "A",
        "R"
      ],
      [
        "d",
        "ata"
      ],
      [
        "ti",
        "me"
      ],
      [
        "ĠĠĠĠĠĠĠĠ",
        "ĠĠĠĠĠĠĠĠĠĠĠĠ"
      ],
      [
        "q",
        "ue"
      ],
      [
        "i",
        "g"
      ],
      [
        "an",
        "g"
      ],
      [
        "j",
        "ect"
      ],
      [
        "u",
        "p"
      ],
      [
        "ad",
        "d"
      ],
      [
        "f",
        "e"
      ],
      [
        "w",
        "e"
      ],
      [
        "c",
        "i"
      ],
      [
        "an",
        "ce"
      ],
      [
        "ap",
        "p"
      ],
      [
        "L",
        "E"
      ],
      [
        "re",
        "d"
      ],
      [
        "I",
        "N"
      ],
      [
        "w",
        "or"
      ],
      [
        "I",
        "n"
      ],
      [
        "T",
        "E"
      ],
      [
        "pa",
        "th"
      ],
      [
        "r",
        "ou"
      ],
      [
        "l",
        "s"
      ],
      [
        "co",
        "m"
      ],
      [
        "d",
        "s"
      ],
      [
        "u",
        "s"
      ],
      [
        "th",
        "at"
      ],
      [
        "t",
        "a"
      ],
      [
        "f",
        "a"
      ],
      [
        "s",
        "o"
      ],
      [
        "du",
        "le"
      ],
      [
        "ch",
        "e"
      ],
      [
        "ĠĠĠĠ",
        "ĠĠ"
      ],
      [
        "li",
        "st"
      ],
      [
        "in",
        "e"
      ],
      [
        "n",
        "d"
      ],
      [
        "p",
        "re"
      ],
      [
        "y",
        "s"
      ],
      [
        "co",
        "l"
      ],
      [
        "a",
        "c"
      ],
      [
        "a",
        "re"
      ],
      [
        "l",
        "en"
      ],
      [
        "p",
        "ut"
      ],
      [
        "b",
        "y"
      ],
      [
        "mo",
        "dule"
      ],
      [
        "se",
        "s"
      ],
      [
        "T",
        "he"
      ],
      [
        "i",
        "r"
      ],
      [
        "que",
        "st"
      ],
      [
        "R",
        "e"
      ],
      [
        "s",
        "c"
      ],
      [
        "o",
        "d"
      ],
      [
        "o",
        "w"
      ],
      [
        "E",
        "qual"
      ],
      [
        "for",
        "m"
      ],
      [
        "R",
        "E"
      ],
      [
        "c",
        "ou"
      ],
      [
        "u",
        "se"
      ],
      [
        "as",
        "k"
      ],
      [
        "th",
        "er"
      ],
      [
        "E",
        "r"
      ],
      [
        "ce",
        "p"
      ],
      [
        "co",
        "mp"
      ],
      [
        "i",
        "st"
      ],
      [
        "Er",
        "ror"
      ],
      [
        "op",
        "tion"
      ],
      [
        "f",
        "un"
      ],
      [
        "c",
        "re"
      ],
      [
        "me",
        "th"
      ],
      [
        "par",
        "am"
      ],
      [
        "p",
        "y"
      ],
      [
        "i",
        "z"
      ],
      [
        "fi",
        "g"
      ],
      [
        "th",
        "is"
      ],
      [
        "te",
        "m"
      ],
      [
        "c",
        "li"
      ],
      [
        "assert",
        "Equal"
      ],
      [
        "ce",
        "s"
      ],
      [
        "l",
        "d"
      ],
      [
        "al",
        "se"
      ],
      [
        "Ġ",
        "čĊ"
      ],
      [
        "u",
        "re"
      ],
      [
        "b",
        "er"
      ],
      [
        "t",
        "ri"
      ],
      [
        "d",
        "ate"
      ],
      [
        "mo",
        "de"
      ],
      [
        "li",
        "c"
      ],
      [
        "o",
        "t"
      ],
      [
        "in",
        "st"
      ],
      [
        "a",
        "ck"
      ],
      [
        "c",
        "al"
      ],
      [
        "o",
        "s"
      ],
      [
        "g",
        "e"
      ],
      [
        "p",
        "r"
      ],
      [
        "C",
        "on"
      ],
      [
        "u",
        "ser"
      ],
      [
        "res",
        "ult"
      ],
      [
        "o",
        "m"
      ],
      [
        "c",
        "ur"
      ],
      [
        "lo",
        "g"
      ],
      [
        "č",
        "čĊ"
      ],
      [
        "s",
        "p"
      ],
      [
        "O",
        "N"
      ],
      [
        "s",
        "a"
      ],
      [
        "f",
        "o"
      ],
      [
        "F",
        "alse"
      ],
      [
        "k",
        "w"
      ],
      [
        "i",
        "le"
      ],
      [
        "re",
        "quest"
      ],
      [
        "el",
        "d"
      ],
      [
        "a",
        "ult"
      ],
      [
        "tr",
        "y"
      ],
      [
        "lo",
        "w"
      ],
      [
        "i",
        "p"
      ],
      [
        "b",
        "o"
      ],
      [
        "S",
        "E"
      ],
      [
        "ne",
        "w"
      ],
      [
        "T",
        "A"
      ],
      [
        "cli",
        "ent"
      ],
      [
        "ar",
        "t"
      ],
      [
        "def",
        "ault"
      ],
      [
        "it",
        "y"
      ],
      [
        "re",
        "nt"
      ],
      [
        "ob",
        "ject"
      ],
      [
        "su",
        "b"
      ],
      [
        "de",
        "d"
      ],
      [
        "ct",
        "or"
      ],
      [
        "te",
        "n"
      ],
      [
        "an",
        "t"
      ],
      [
        "e",
        "v"
      ],
      [
        "in",
        "d"
      ],
      [
        "el",
        "se"
      ],
      [
        "h",
        "is"
      ],
      [
        "p",
        "on"
      ],
      [
        "h",
        "o"
      ],
      [
        "y",
        "ou"
      ],
      [
        "res",
        "s"
      ],
      [
        "mp",
        "le"
      ],
      [
        "ĠĠĠĠĠĠĠĠĠĠĠĠĠĠĠĠ",
        "ĠĠĠĠĠĠĠĠ"
      ],
      [
        "con",
        "fig"
      ],
      [
        "G",
        "et"
      ],
      [
        "D",
        "e"
      ],
      [
        "ĠĠĠĠĠĠĠĠĠĠĠĠĠĠĠĠ",
        "ĠĠĠ"
      ],
      [
        "rou",
        "p"
      ],
      [
        "ce",
        "ss"
      ],
      [
        "ar",
        "y"
      ],
      [
        "wor",
        "k"
      ],
      [
        "a",
        "y"
      ],
      [
        "u",
        "st"
      ],
      [
        "kw",
        "args"
      ],
      [
        "p",
        "la"
      ],
      [
        "R",
        "O"
      ],
      [
        "con",
        "t"
      ],
      [
        "y",
        "pe"
      ],
      [
        "re",
        "ad"
      ],
      [
        "co",
        "de"
      ],
      [
        "meth",
        "od"
      ],
      [
        "str",
        "ing"
      ],
      [
        "ate",
        "d"
      ],
      [
        "s",
        "pe"
      ],
      [
        "fun",
        "ction"
      ],
      [
        "our",
        "ce"
      ],
      [
        "inst",
        "ance"
      ],
      [
        "ex",
        "t"
      ],
      [
        "er",
        "s"
      ],
      [
        "e",
        "st"
      ],
      [
        "i",
        "on"
      ],
      [
        "g",
        "ht"
      ],
      [
        "at",
        "ch"
      ],
      [
        "ri",
        "p"
      ],
      [
        "cou",
        "nt"
      ],
      [
        "ra",
        "y"
      ],
      [
        "h",
        "a"
      ],
      [
        "c",
        "a"
      ],
      [
        "il",
        "l"
      ],
      [
        "ex",
        "cep"
      ],
      [
        "n",
        "et"
      ],
      [
        "re",
        "n"
      ],
      [
        "E",
        "R"
      ],
      [
        "te",
        "s"
      ],
      [
        "C",
        "H"
      ],
      [
        "m",
        "in"
      ],
      [
        "O",
        "R"
      ],
      [
        "ex",
        "p"
      ],
      [
        "u",
        "b"
      ],
      [
        "vi",
        "ce"
      ],
      [
        "con",
        "st"
      ],
      [
        "i",
        "m"
      ],
      [
        "V",
        "al"
      ],
      [
        "i",
        "se"
      ],
      [
        "l",
        "ine"
      ],
      [
        "at",
        "or"
      ],
      [
        "I",
        "D"
      ],
      [
        "c",
        "an"
      ],
      [
        "S",
        "T"
      ],
      [
        "g",
        "roup"
      ],
      [
        "lo",
        "ad"
      ],
      [
        "r",
        "y"
      ],
      [
        "ma",
        "p"
      ],
      [
        "di",
        "ct"
      ],
      [
        "st",
        "ate"
      ],
      [
        "b",
        "le"
      ],
      [
        "ti",
        "ve"
      ],
      [
        "en",
        "se"
      ],
      [
        "l",
        "l"
      ],
      [
        "com",
        "m"
      ],
      [
        "in",
        "ter"
      ],
      [
        "res",
        "pon"
      ],
      [
        "an",
        "y"
      ],
      [
        "pr",
        "int"
      ],
      [
        "cl",
        "s"
      ],
      [
        "a",
        "u"
      ],
      [
        "b",
        "ack"
      ],
      [
        "m",
        "s"
      ],
      [
        "s",
        "ys"
      ],
      [
        "on",
        "g"
      ],
      [
        "A",
        "N"
      ],
      [
        "of",
        "text"
      ],
      [
        "end",
        "oftext"
      ],
      [
        "me",
        "m"
      ],
      [
        "T",
        "ype"
      ],
      [
        "ar",
        "ray"
      ],
      [
        "h",
        "as"
      ],
      [
        "ing",
        "s"
      ],
      [
        "cre",
        "ate"
      ],
      [
        "T",
        "I"
      ],
      [
        "S",
        "e"
      ],
      [
        "z",
        "e"
      ],
      [
        "n",
        "um"
      ],
      [
        "h",
        "er"
      ],
      [
        "re",
        "e"
      ],
      [
        "ti",
        "c"
      ],
      [
        "ĉĉ",
        "ĉ"
      ],
      [
        "ur",
        "l"
      ],
      [
        "S",
        "t"
      ],
      [
        "ar",
        "i"
      ],
      [
        "tri",
        "bu"
      ],
      [
        "o",
        "ther"
      ],
      [
        "d",
        "is"
      ],
      [
        "S",
        "et"
      ],
      [
        "le",
        "d"
      ],
      [
        "ou",
        "nd"
      ],
      [
        "ang",
        "e"
      ],
      [
        "ck",
        "et"
      ],
      [
        "T",
        "est"
      ],
      [
        "ou",
        "ld"
      ],
      [
        "con",
        "ne"
      ],
      [
        "qu",
        "i"
      ],
      [
        "p",
        "ort"
      ],
      [
        "ar",
        "d"
      ],
      [
        "p",
        "h"
      ],
      [
        "E",
        "x"
      ],
      [
        "en",
        "er"
      ],
      [
        "re",
        "g"
      ],
      [
        "Val",
        "ue"
      ],
      [
        "m",
        "y"
      ],
      [
        "l",
        "in"
      ],
      [
        "cont",
        "ro"
      ],
      [
        "en",
        "ti"
      ],
      [
        "no",
        "de"
      ],
      [
        "N",
        "ame"
      ],
      [
        "an",
        "s"
      ],
      [
        "g",
        "n"
      ],
      [
        "d",
        "b"
      ],
      [
        "a",
        "ch"
      ],
      [
        "di",
        "r"
      ],
      [
        "e",
        "c"
      ],
      [
        "d",
        "d"
      ],
      [
        "st",
        "art"
      ],
      [
        "il",
        "d"
      ],
      [
        "w",
        "ri"
      ],
      [
        "che",
        "ck"
      ],
      [
        "g",
        "le"
      ],
      [
        "me",
        "ss"
      ],
      [
        "t",
        "p"
      ],
      [
        "ro",
        "w"
      ],
      [
        "ver",
        "sion"
      ],
      [
        "w",
        "as"
      ],
      [
        "C",
        "T"
      ],
      [
        "L",
        "I"
      ],
      [
        "er",
        "ror"
      ],
      [
        "te",
        "mp"
      ],
      [
        "de",
        "x"
      ],
      [
        "con",
        "text"
      ],
      [
        "no",
        "w"
      ],
      [
        "l",
        "ate"
      ],
      [
        "c",
        "ted"
      ],
      [
        "f",
        "ul"
      ],
      [
        "al",
        "iz"
      ],
      [
        "le",
        "ment"
      ],
      [
        "V",
        "AR"
      ],
      [
        "all",
        "y"
      ],
      [
        "str",
        "u"
      ],
      [
        "si",
        "ze"
      ],
      [
        "sc",
        "rip"
      ],
      [
        "s",
        "on"
      ],
      [
        "b",
        "ase"
      ],
      [
        "P",
        "ro"
      ],
      [
        "t",
        "able"
      ],
      [
        "t",
        "s"
      ],
      [
        "respon",
        "se"
      ],
      [
        "T",
        "his"
      ],
      [
        "E",
        "N"
      ],
      [
        "M",
        "o"
      ],
      [
        "r",
        "un"
      ],
      [
        "v",
        "ed"
      ],
      [
        "tion",
        "s"
      ],
      [
        "ation",
        "s"
      ],
      [
        "b",
        "ut"
      ],
      [
        "app",
        "end"
      ],
      [
        "CH",
        "AR"
      ],
      [
        "ra",
        "ise"
      ],
      [
        "f",
        "f"
      ],
      [
        "pro",
        "per"
      ],
      [
        "v",
        "o"
      ],
      [
        "j",
        "o"
      ],
      [
        "um",
        "ent"
      ],
      [
        "in",
        "put"
      ],
      [
        "ĠĠĠĠĠĠĠĠ",
        "ĠĠ"
      ],
      [
        "VAR",
        "CHAR"
      ],
      [
        "L",
        "ic"
      ],
      [
        "i",
        "eld"
      ],
      [
        "Lic",
        "ense"
      ],
      [
        "T",
        "H"
      ],
      [
        "form",
        "at"
      ],
      [
        "do",
        "w"
      ],
      [
        "ti",
        "es"
      ],
      [
        "um",
        "n"
      ],
      [
        "y",
        "our"
      ],
      [
        "ar",
        "n"
      ],
      [
        "in",
        "it"
      ],
      [
        "g",
        "h"
      ],
      [
        "e",
        "y"
      ],
      [
        "oo",
        "gle"
      ],
      [
        "it",
        "s"
      ],
      [
        "A",
        "L"
      ],
      [
        "w",
        "ill"
      ],
      [
        "c",
        "all"
      ],
      [
        "ta",
        "in"
      ],
      [
        "out",
        "put"
      ],
      [
        "h",
        "el"
      ],
      [
        "ma",
        "x"
      ],
      [
        "re",
        "f"
      ],
      [
        "p",
        "ass"
      ],
      [
        "S",
        "tr"
      ],
      [
        "ho",
        "st"
      ],
      [
        "un",
        "der"
      ],
      [
        "sh",
        "a"
      ],
      [
        "mem",
        "ber"
      ],
      [
        "excep",
        "t"
      ],
      [
        "t",
        "ask"
      ],
      [
        "i",
        "tem"
      ],
      [
        "o",
        "g"
      ],
      [
        "A",
        "t"
      ],
      [
        "o",
        "ver"
      ],
      [
        "D",
        "E"
      ],
      [
        "ĠĠĠĠĠĠĠĠĠĠĠĠĠĠĠĠ",
        "ĠĠĠĠĠĠĠĠĠĠĠĠ"
      ],
      [
        "ĠĠĠĠ",
        "Ġ"
      ],
      [
        "A",
        "TE"
      ],
      [
        "ht",
        "tp"
      ],
      [
        "a",
        "v"
      ],
      [
        "ig",
        "ht"
      ],
      [
        "val",
        "id"
      ],
      [
        "l",
        "ab"
      ],
      [
        "the",
        "ir"
      ],
      [
        "E",
        "n"
      ],
      [
        "p",
        "ri"
      ],
      [
        "ma",
        "in"
      ],
      [
        "mess",
        "age"
      ],
      [
        "ter",
        "s"
      ],
      [
        "the",
        "y"
      ],
      [
        "ĉĉ",
        "ĉĉ"
      ],
      [
        "er",
        "y"
      ],
      [
        "n",
        "p"
      ],
      [
        "I",
        "f"
      ],
      [
        "mode",
        "ls"
      ],
      [
        "A",
        "S"
      ],
      [
        "ev",
        "ent"
      ],
      [
        "st",
        "d"
      ],
      [
        "st",
        "a"
      ],
      [
        "se",
        "d"
      ],
      [
        "B",
        "LE"
      ],
      [
        "fi",
        "x"
      ],
      [
        "O",
        "U"
      ],
      [
        "in",
        "dex"
      ],
      [
        "si",
        "gn"
      ],
      [
        "oo",
        "k"
      ],
      [
        "ap",
        "i"
      ],
      [
        "c",
        "or"
      ],
      [
        "or",
        "y"
      ],
      [
        "in",
        "fo"
      ],
      [
        "al",
        "s"
      ],
      [
        "j",
        "ob"
      ],
      [
        "m",
        "l"
      ],
      [
        "t",
        "w"
      ],
      [
        "g",
        "ra"
      ],
      [
        "e",
        "w"
      ],
      [
        "e",
        "mp"
      ],
      [
        "he",
        "re"
      ],
      [
        "at",
        "tr"
      ],
      [
        "A",
        "dd"
      ],
      [
        "r",
        "u"
      ],
      [
        "t",
        "ra"
      ],
      [
        "te",
        "nt"
      ],
      [
        "w",
        "a"
      ],
      [
        "fi",
        "c"
      ],
      [
        "ma",
        "il"
      ],
      [
        "le",
        "ct"
      ],
      [
        "T",
        "o"
      ],
      [
        "ou",
        "s"
      ],
      [
        "wh",
        "en"
      ],
      [
        "li",
        "b"
      ],
      [
        "do",
        "c"
      ],
      [
        "ha",
        "ve"
      ],
      [
        "N",
        "o"
      ],
      [
        "el",
        "ds"
      ],
      [
        "M",
        "E"
      ],
      [
        "p",
        "i"
      ],
      [
        "ma",
        "ke"
      ],
      [
        "A",
        "P"
      ],
      [
        "C",
        "h"
      ],
      [
        "I",
        "p"
      ],
      [
        "e",
        "p"
      ],
      [
        "ab",
        "out"
      ],
      [
        "di",
        "st"
      ],
      [
        "contro",
        "ls"
      ],
      [
        "pro",
        "ject"
      ],
      [
        "ar",
        "k"
      ],
      [
        "po",
        "s"
      ],
      [
        "v",
        "ari"
      ],
      [
        "jo",
        "in"
      ],
      [
        "L",
        "ist"
      ],
      [
        "g",
        "oogle"
      ],
      [
        "param",
        "s"
      ],
      [
        "i",
        "ch"
      ],
      [
        "d",
        "ing"
      ],
      [
        "st",
        "at"
      ],
      [
        "p",
        "l"
      ],
      [
        "co",
        "re"
      ],
      [
        "value",
        "s"
      ],
      [
        "a",
        "mple"
      ],
      [
        "pro",
        "cess"
      ],
      [
        "F",
        "ield"
      ],
      [
        "fi",
        "r"
      ],
      [
        "d",
        "a"
      ],
      [
        "u",
        "ti"
      ],
      [
        "at",
        "ure"
      ],
      [
        "lab",
        "el"
      ],
      [
        "K",
        "ey"
      ],
      [
        "name",
        "s"
      ],
      [
        "op",
        "en"
      ],
      [
        "fi",
        "elds"
      ],
      [
        "R",
        "et"
      ],
      [
        "mo",
        "ck"
      ],
      [
        "le",
        "te"
      ],
      [
        "ri",
        "ght"
      ],
      [
        "th",
        "on"
      ],
      [
        "so",
        "me"
      ],
      [
        "Str",
        "ing"
      ],
      [
        "li",
        "ke"
      ],
      [
        "S",
        "er"
      ],
      [
        "en",
        "ce"
      ],
      [
        "ro",
        "ot"
      ],
      [
        "b",
        "lo"
      ],
      [
        "Ip",
        "v"
      ],
      [
        "wri",
        "te"
      ],
      [
        "ou",
        "d"
      ],
      [
        "t",
        "ag"
      ],
      [
        "A",
        "T"
      ],
      [
        "a",
        "x"
      ],
      [
        "un",
        "i"
      ],
      [
        "n",
        "er"
      ],
      [
        "spe",
        "ci"
      ],
      [
        "f",
        "l"
      ],
      [
        "sh",
        "ould"
      ],
      [
        "s",
        "y"
      ],
      [
        "U",
        "n"
      ],
      [
        "m",
        "ask"
      ],
      [
        "o",
        "k"
      ],
      [
        "re",
        "qui"
      ],
      [
        "C",
        "ol"
      ],
      [
        "d",
        "at"
      ],
      [
        "arg",
        "et"
      ],
      [
        "fi",
        "l"
      ],
      [
        "c",
        "lo"
      ],
      [
        "s",
        "k"
      ],
      [
        "wor",
        "d"
      ],
      [
        "t",
        "le"
      ],
      [
        "fi",
        "eld"
      ],
      [
        "cl",
        "u"
      ],
      [
        "m",
        "an"
      ],
      [
        "h",
        "and"
      ],
      [
        "u",
        "al"
      ],
      [
        "tribu",
        "te"
      ],
      [
        "I",
        "d"
      ],
      [
        "g",
        "r"
      ],
      [
        "co",
        "py"
      ],
      [
        "wh",
        "ich"
      ],
      [
        "in",
        "to"
      ],
      [
        "ver",
        "y"
      ],
      [
        "P",
        "ar"
      ],
      [
        "ang",
        "o"
      ],
      [
        "li",
        "t"
      ],
      [
        "e",
        "qual"
      ],
      [
        "g",
        "i"
      ],
      [
        "vi",
        "r"
      ],
      [
        "j",
        "ango"
      ],
      [
        "m",
        "on"
      ],
      [
        "use",
        "d"
      ],
      [
        "ction",
        "s"
      ],
      [
        "mo",
        "re"
      ],
      [
        "g",
        "th"
      ],
      [
        "TA",
        "BLE"
      ],
      [
        "de",
        "l"
      ],
      [
        "j",
        "son"
      ],
      [
        "v",
        "es"
      ],
      [
        "se",
        "nt"
      ],
      [
        "option",
        "s"
      ],
      [
        "op",
        "er"
      ],
      [
        "ch",
        "o"
      ],
      [
        "ul",
        "ti"
      ],
      [
        "he",
        "ad"
      ],
      [
        "m",
        "is"
      ],
      [
        "qu",
        "ery"
      ],
      [
        "e",
        "lement"
      ],
      [
        "C",
        "RE"
      ],
      [
        "O",
        "p"
      ],
      [
        "es",
        "s"
      ],
      [
        "is",
        "h"
      ],
      [
        "t",
        "ing"
      ],
      [
        "par",
        "se"
      ],
      [
        "pla",
        "ce"
      ],
      [
        "lo",
        "cal"
      ],
      [
        "D",
        "ata"
      ],
      [
        "d",
        "if"
      ],
      [
        "ar",
        "ch"
      ],
      [
        "num",
        "ber"
      ],
      [
        "ex",
        "pe"
      ],
      [
        "b",
        "et"
      ],
      [
        "d",
        "jango"
      ],
      [
        "v",
        "is"
      ],
      [
        "Ret",
        "urn"
      ],
      [
        "ĠĠĠĠĠĠĠĠĠĠĠĠĠĠĠĠ",
        "ĠĠĠĠĠĠĠĠĠĠĠĠĠĠĠĠ"
      ],
      [
        "t",
        "arget"
      ],
      [
        "sha",
        "pe"
      ],
      [
        "re",
        "mo"
      ],
      [
        "S",
        "Q"
      ],
      [
        "e",
        "li"
      ],
      [
        "at",
        "ing"
      ],
      [
        "fir",
        "st"
      ],
      [
        "net",
        "work"
      ],
      [
        "i",
        "ses"
      ],
      [
        "up",
        "date"
      ],
      [
        "h",
        "ow"
      ],
      [
        "g",
        "er"
      ],
      [
        "de",
        "scrip"
      ],
      [
        "cur",
        "rent"
      ],
      [
        "i",
        "te"
      ],
      [
        "a",
        "th"
      ],
      [
        "ex",
        "ec"
      ],
      [
        "add",
        "ress"
      ],
      [
        "pla",
        "y"
      ],
      [
        "R",
        "a"
      ],
      [
        "ra",
        "p"
      ],
      [
        "v",
        "en"
      ],
      [
        "ses",
        "sion"
      ],
      [
        "par",
        "t"
      ],
      [
        "che",
        "ma"
      ],
      [
        "se",
        "n"
      ],
      [
        "key",
        "s"
      ],
      [
        "mode",
        "l"
      ],
      [
        "r",
        "ange"
      ],
      [
        "F",
        "or"
      ],
      [
        "s",
        "ource"
      ],
      [
        "CRE",
        "ATE"
      ],
      [
        "ser",
        "vice"
      ],
      [
        "TE",
        "R"
      ],
      [
        "fa",
        "ce"
      ],
      [
        "s",
        "ing"
      ],
      [
        "m",
        "atch"
      ],
      [
        "le",
        "s"
      ],
      [
        "se",
        "e"
      ],
      [
        "hel",
        "p"
      ],
      [
        "eli",
        "f"
      ],
      [
        "o",
        "re"
      ],
      [
        "C",
        "E"
      ],
      [
        "v",
        "el"
      ],
      [
        "m",
        "en"
      ],
      [
        "vo",
        "id"
      ],
      [
        "R",
        "es"
      ],
      [
        "A",
        "r"
      ],
      [
        "IN",
        "G"
      ],
      [
        "I",
        "P"
      ],
      [
        "bu",
        "cket"
      ],
      [
        "fe",
        "ren"
      ],
      [
        "data",
        "set"
      ],
      [
        "conne",
        "ction"
      ],
      [
        "SQ",
        "L"
      ],
      [
        "b",
        "in"
      ],
      [
        "f",
        "ind"
      ],
      [
        "m",
        "ark"
      ],
      [
        "res",
        "ource"
      ],
      [
        "result",
        "s"
      ],
      [
        "i",
        "es"
      ],
      [
        "lin",
        "k"
      ],
      [
        "B",
        "ase"
      ],
      [
        "s",
        "or"
      ],
      [
        "la",
        "y"
      ],
      [
        "re",
        "am"
      ],
      [
        "w",
        "w"
      ],
      [
        "c",
        "s"
      ],
      [
        "F",
        "ile"
      ],
      [
        "ex",
        "ist"
      ],
      [
        "d",
        "ay"
      ],
      [
        "cl",
        "oud"
      ],
      [
        "v",
        "ent"
      ],
      [
        "RO",
        "M"
      ],
      [
        "I",
        "s"
      ],
      [
        "expe",
        "cted"
      ],
      [
        "fo",
        "re"
      ],
      [
        "i",
        "me"
      ],
      [
        "u",
        "int"
      ],
      [
        "g",
        "ener"
      ],
      [
        "au",
        "th"
      ],
      [
        "H",
        "T"
      ],
      [
        "se",
        "ri"
      ],
      [
        "re",
        "ate"
      ],
      [
        "on",
        "ly"
      ],
      [
        "F",
        "I"
      ],
      [
        "len",
        "gth"
      ],
      [
        "ol",
        "u"
      ],
      [
        "pa",
        "rent"
      ],
      [
        "of",
        "f"
      ],
      [
        "F",
        "ROM"
      ],
      [
        "the",
        "m"
      ],
      [
        "in",
        "te"
      ],
      [
        "s",
        "q"
      ],
      [
        "a",
        "f"
      ],
      [
        "temp",
        "late"
      ],
      [
        "de",
        "p"
      ],
      [
        "or",
        "der"
      ],
      [
        "k",
        "now"
      ],
      [
        "di",
        "re"
      ],
      [
        "pre",
        "fix"
      ],
      [
        "bo",
        "ol"
      ],
      [
        "en",
        "v"
      ],
      [
        "SE",
        "LE"
      ],
      [
        "con",
        "tent"
      ],
      [
        "W",
        "h"
      ],
      [
        "i",
        "ma"
      ],
      [
        "s",
        "te"
      ],
      [
        "s",
        "he"
      ],
      [
        "tr",
        "ans"
      ],
      [
        "m",
        "it"
      ],
      [
        "ub",
        "lic"
      ],
      [
        "re",
        "l"
      ],
      [
        "ĠĠĠĠĠĠĠĠĠĠĠĠĠĠĠĠ",
        "Ġ"
      ],
      [
        "su",
        "p"
      ],
      [
        "D",
        "I"
      ],
      [
        "U",
        "R"
      ],
      [
        "Add",
        "ress"
      ],
      [
        "A",
        "s"
      ],
      [
        "U",
        "L"
      ],
      [
        "ment",
        "s"
      ],
      [
        "c",
        "r"
      ],
      [
        "u",
        "res"
      ],
      [
        "in",
        "di"
      ],
      [
        "rou",
        "gh"
      ],
      [
        "ms",
        "g"
      ],
      [
        "SELE",
        "CT"
      ],
      [
        "fi",
        "len"
      ],
      [
        "descrip",
        "tion"
      ],
      [
        "m",
        "b"
      ],
      [
        "vi",
        "ew"
      ],
      [
        "C",
        "o"
      ],
      [
        "ma",
        "y"
      ],
      [
        "con",
        "tain"
      ],
      [
        "wh",
        "ile"
      ],
      [
        "type",
        "s"
      ],
      [
        "con",
        "stru"
      ],
      [
        "P",
        "o"
      ],
      [
        "col",
        "umn"
      ],
      [
        "T",
        "h"
      ],
      [
        "lo",
        "c"
      ],
      [
        "ab",
        "ase"
      ],
      [
        "ob",
        "j"
      ],
      [
        "k",
        "en"
      ],
      [
        "I",
        "tem"
      ],
      [
        "u",
        "id"
      ],
      [
        "a",
        "in"
      ],
      [
        "pro",
        "du"
      ],
      [
        "filen",
        "ame"
      ],
      [
        "i",
        "li"
      ],
      [
        "on",
        "t"
      ],
      [
        "proper",
        "ty"
      ],
      [
        "a",
        "k"
      ],
      [
        "f",
        "ol"
      ],
      [
        "in",
        "dow"
      ],
      [
        "Ra",
        "ises"
      ],
      [
        "ti",
        "tle"
      ],
      [
        "vari",
        "able"
      ],
      [
        "w",
        "here"
      ],
      [
        "in",
        "clu"
      ],
      [
        "le",
        "ss"
      ],
      [
        "S",
        "I"
      ],
      [
        "Value",
        "Error"
      ],
      [
        "wh",
        "o"
      ],
      [
        "av",
        "a"
      ],
      [
        "ac",
        "count"
      ],
      [
        "C",
        "l"
      ],
      [
        "l",
        "ong"
      ],
      [
        "ust",
        "om"
      ],
      [
        "H",
        "e"
      ],
      [
        "stat",
        "us"
      ],
      [
        "c",
        "er"
      ],
      [
        "fi",
        "ed"
      ],
      [
        "t",
        "ings"
      ],
      [
        "I",
        "t"
      ],
      [
        "ag",
        "es"
      ],
      [
        "A",
        "n"
      ],
      [
        "us",
        "ing"
      ],
      [
        "f",
        "lo"
      ],
      [
        "st",
        "and"
      ],
      [
        "e",
        "ach"
      ],
      [
        "is",
        "instance"
      ],
      [
        "y",
        "e"
      ],
      [
        "ser",
        "ver"
      ],
      [
        "la",
        "st"
      ],
      [
        "w",
        "id"
      ],
      [
        "v",
        "ing"
      ],
      [
        "E",
        "S"
      ],
      [
        "f",
        "in"
      ],
      [
        "ol",
        "d"
      ],
      [
        "ex",
        "ample"
      ],
      [
        "g",
        "in"
      ],
      [
        "pre",
        "sent"
      ],
      [
        "arg",
        "ument"
      ],
      [
        "py",
        "thon"
      ],
      [
        "e",
        "very"
      ],
      [
        "de",
        "lete"
      ],
      [
        "fun",
        "c"
      ],
      [
        "T",
        "Y"
      ],
      [
        "TI",
        "ON"
      ],
      [
        "c",
        "le"
      ],
      [
        "ol",
        "s"
      ],
      [
        "date",
        "time"
      ],
      [
        "C",
        "ON"
      ],
      [
        "e",
        "mail"
      ],
      [
        "pe",
        "d"
      ],
      [
        "ctor",
        "y"
      ],
      [
        "or",
        "s"
      ],
      [
        "ht",
        "ml"
      ],
      [
        "id",
        "s"
      ],
      [
        "P",
        "y"
      ],
      [
        "m",
        "ulti"
      ],
      [
        "to",
        "p"
      ],
      [
        "comm",
        "and"
      ],
      [
        "Q",
        "ue"
      ],
      [
        "file",
        "s"
      ],
      [
        "ow",
        "n"
      ],
      [
        "ent",
        "ry"
      ],
      [
        "C",
        "reate"
      ],
      [
        "sion",
        "s"
      ],
      [
        "od",
        "y"
      ],
      [
        "tr",
        "an"
      ],
      [
        "sp",
        "lit"
      ],
      [
        "i",
        "o"
      ],
      [
        "clo",
        "se"
      ],
      [
        "ri",
        "bu"
      ],
      [
        "the",
        "se"
      ],
      [
        "am",
        "b"
      ],
      [
        "Return",
        "s"
      ],
      [
        "S",
        "o"
      ],
      [
        "â",
        "Ģ"
      ],
      [
        "iz",
        "e"
      ],
      [
        "ou",
        "nt"
      ],
      [
        "requi",
        "red"
      ],
      [
        "blo",
        "ck"
      ],
      [
        "tribu",
        "tes"
      ],
      [
        "a",
        "ct"
      ],
      [
        "ra",
        "w"
      ],
      [
        "er",
        "r"
      ],
      [
        "C",
        "O"
      ],
      [
        "bu",
        "ild"
      ],
      [
        "T",
        "ext"
      ],
      [
        "ul",
        "l"
      ],
      [
        "l",
        "ang"
      ],
      [
        "cep",
        "tion"
      ],
      [
        "Se",
        "e"
      ],
      [
        "dow",
        "n"
      ],
      [
        "L",
        "O"
      ],
      [
        "N",
        "O"
      ],
      [
        "T",
        "ime"
      ],
      [
        "W",
        "e"
      ],
      [
        "the",
        "re"
      ],
      [
        "T",
        "O"
      ],
      [
        "r",
        "c"
      ],
      [
        "ĠĠĠĠĠĠĠĠĠĠĠĠ",
        "ĠĠ"
      ],
      [
        "h",
        "ad"
      ],
      [
        "t",
        "on"
      ],
      [
        "al",
        "low"
      ],
      [
        "pa",
        "ck"
      ],
      [
        "in",
        "k"
      ],
      [
        "ent",
        "s"
      ],
      [
        "assert",
        "True"
      ],
      [
        "ch",
        "ar"
      ],
      [
        "se",
        "lect"
      ],
      [
        "f",
        "ound"
      ],
      [
        "g",
        "s"
      ],
      [
        "si",
        "ble"
      ],
      [
        "fil",
        "ter"
      ],
      [
        "LE",
        "T"
      ],
      [
        "B",
        "ut"
      ],
      [
        "f",
        "t"
      ],
      [
        "th",
        "rough"
      ],
      [
        "fa",
        "ult"
      ],
      [
        "u",
        "te"
      ],
      [
        "po",
        "int"
      ],
      [
        "AP",
        "I"
      ],
      [
        "Col",
        "umn"
      ],
      [
        "tion",
        "al"
      ],
      [
        "n",
        "c"
      ],
      [
        "w",
        "ay"
      ],
      [
        "flo",
        "at"
      ],
      [
        "assert",
        "Raises"
      ],
      [
        "dat",
        "abase"
      ],
      [
        "D",
        "i"
      ],
      [
        "R",
        "I"
      ],
      [
        "or",
        "m"
      ],
      [
        "an",
        "n"
      ],
      [
        "or",
        "g"
      ],
      [
        "time",
        "out"
      ],
      [
        "m",
        "d"
      ],
      [
        "x",
        "x"
      ],
      [
        "b",
        "ook"
      ],
      [
        "co",
        "ding"
      ],
      [
        "H",
        "E"
      ],
      [
        "A",
        "ll"
      ],
      [
        "a",
        "tive"
      ],
      [
        "feren",
        "ce"
      ],
      [
        "th",
        "an"
      ],
      [
        "cal",
        "led"
      ],
      [
        "l",
        "er"
      ],
      [
        "f",
        "r"
      ],
      [
        "par",
        "ame"
      ],
      [
        "Re",
        "quest"
      ],
      [
        "De",
        "fault"
      ],
      [
        "b",
        "r"
      ],
      [
        "c",
        "y"
      ],
      [
        "w",
        "ar"
      ],
      [
        "vir",
        "on"
      ],
      [
        "B",
        "y"
      ],
      [
        "t",
        "al"
      ],
      [
        "se",
        "c"
      ],
      [
        "i",
        "ter"
      ],
      [
        "emp",
        "ty"
      ],
      [
        "il",
        "y"
      ],
      [
        "j",
        "ust"
      ],
      [
        "v",
        "id"
      ],
      [
        "K",
        "E"
      ],
      [
        "O",
        "F"
      ],
      [
        "st",
        "ion"
      ],
      [
        "sa",
        "mple"
      ],
      [
        "amb",
        "da"
      ],
      [
        "S",
        "chema"
      ],
      [
        "St",
        "ate"
      ],
      [
        "ch",
        "ild"
      ],
      [
        "b",
        "ody"
      ],
      [
        "ct",
        "s"
      ],
      [
        "d",
        "f"
      ],
      [
        "wh",
        "at"
      ],
      [
        "P",
        "RO"
      ],
      [
        "object",
        "s"
      ],
      [
        "uti",
        "ls"
      ],
      [
        "in",
        "i"
      ],
      [
        "r",
        "and"
      ],
      [
        "th",
        "en"
      ],
      [
        "de",
        "st"
      ],
      [
        "ti",
        "al"
      ],
      [
        "c",
        "ase"
      ],
      [
        "N",
        "ot"
      ],
      [
        "su",
        "re"
      ],
      [
        "sq",
        "l"
      ],
      [
        "par",
        "k"
      ],
      [
        "c",
        "ustom"
      ],
      [
        "dist",
        "ribu"
      ],
      [
        "po",
        "si"
      ],
      [
        "LET",
        "TER"
      ],
      [
        "pass",
        "word"
      ],
      [
        "a",
        "st"
      ],
      [
        "f",
        "oo"
      ],
      [
        "p",
        "b"
      ],
      [
        "sta",
        "tic"
      ],
      [
        "Que",
        "stion"
      ],
      [
        "l",
        "ambda"
      ],
      [
        "c",
        "ap"
      ],
      [
        "p",
        "age"
      ],
      [
        "al",
        "og"
      ],
      [
        "proper",
        "ties"
      ],
      [
        "o",
        "c"
      ],
      [
        "m",
        "at"
      ],
      [
        "un",
        "it"
      ],
      [
        "I",
        "S"
      ],
      [
        "m",
        "er"
      ],
      [
        "At",
        "tribute"
      ],
      [
        "P",
        "O"
      ],
      [
        "g",
        "en"
      ],
      [
        "v",
        "ar"
      ],
      [
        "el",
        "l"
      ],
      [
        "do",
        "es"
      ],
      [
        "per",
        "i"
      ],
      [
        "st",
        "y"
      ],
      [
        "pro",
        "to"
      ],
      [
        "g",
        "ing"
      ],
      [
        "G",
        "ener"
      ],
      [
        "co",
        "me"
      ],
      [
        "G",
        "N"
      ],
      [
        "con",
        "n"
      ],
      [
        "seri",
        "aliz"
      ],
      [
        "ev",
        "en"
      ],
      [
        "lo",
        "ok"
      ],
      [
        "se",
        "arch"
      ],
      [
        "M",
        "P"
      ],
      [
        "s",
        "co"
      ],
      [
        "Ex",
        "ception"
      ],
      [
        "n",
        "ext"
      ],
      [
        "up",
        "le"
      ],
      [
        "cou",
        "ld"
      ],
      [
        "spe",
        "c"
      ],
      [
        "i",
        "ce"
      ],
      [
        "N",
        "A"
      ],
      [
        "m",
        "ust"
      ],
      [
        "s",
        "um"
      ],
      [
        "pa",
        "ce"
      ],
      [
        "enti",
        "ty"
      ],
      [
        "st",
        "ream"
      ],
      [
        "C",
        "he"
      ],
      [
        "me",
        "d"
      ],
      [
        "le",
        "x"
      ],
      [
        "an",
        "k"
      ],
      [
        "U",
        "ser"
      ],
      [
        "le",
        "arn"
      ],
      [
        "si",
        "de"
      ],
      [
        "i",
        "de"
      ],
      [
        "al",
        "i"
      ],
      [
        "P",
        "ath"
      ],
      [
        "g",
        "o"
      ],
      [
        "ur",
        "ing"
      ],
      [
        "set",
        "tings"
      ],
      [
        "wa",
        "it"
      ],
      [
        "b",
        "l"
      ],
      [
        "sh",
        "ow"
      ],
      [
        "ext",
        "ra"
      ],
      [
        "constru",
        "ctor"
      ],
      [
        "le",
        "t"
      ],
      [
        "tr",
        "ue"
      ],
      [
        "me",
        "t"
      ],
      [
        "G",
        "E"
      ],
      [
        "ter",
        "n"
      ],
      [
        "bu",
        "g"
      ],
      [
        "of",
        "tw"
      ],
      [
        "ta",
        "il"
      ],
      [
        "ig",
        "n"
      ],
      [
        "oftw",
        "are"
      ],
      [
        "Che",
        "ck"
      ],
      [
        "AN",
        "D"
      ],
      [
        "U",
        "p"
      ],
      [
        "b",
        "re"
      ],
      [
        "vi",
        "de"
      ],
      [
        "af",
        "ter"
      ],
      [
        "fa",
        "il"
      ],
      [
        "au",
        "to"
      ],
      [
        "p",
        "s"
      ],
      [
        "w",
        "x"
      ],
      [
        "ad",
        "ata"
      ],
      [
        "to",
        "ken"
      ],
      [
        "Y",
        "ou"
      ],
      [
        "op",
        "le"
      ],
      [
        "U",
        "P"
      ],
      [
        "R",
        "A"
      ],
      [
        "c",
        "p"
      ],
      [
        "AL",
        "L"
      ],
      [
        "re",
        "st"
      ],
      [
        "k",
        "ing"
      ],
      [
        "for",
        "ce"
      ],
      [
        "f",
        "low"
      ],
      [
        "ne",
        "ed"
      ],
      [
        "lin",
        "es"
      ],
      [
        "se",
        "con"
      ],
      [
        "is",
        "ter"
      ],
      [
        "a",
        "ction"
      ],
      [
        "al",
        "so"
      ],
      [
        "ch",
        "ang"
      ],
      [
        "app",
        "lic"
      ],
      [
        "C",
        "li"
      ],
      [
        "H",
        "o"
      ],
      [
        "ra",
        "tion"
      ],
      [
        "ren",
        "der"
      ],
      [
        "s",
        "m"
      ],
      [
        "w",
        "s"
      ],
      [
        "as",
        "h"
      ],
      [
        "ab",
        "c"
      ],
      [
        "H",
        "el"
      ],
      [
        "M",
        "A"
      ],
      [
        "en",
        "viron"
      ],
      [
        "f",
        "ri"
      ],
      [
        "n",
        "ing"
      ],
      [
        "by",
        "tes"
      ],
      [
        "fl",
        "ag"
      ],
      [
        "fol",
        "low"
      ],
      [
        "E",
        "vent"
      ],
      [
        "le",
        "ction"
      ],
      [
        "ate",
        "s"
      ],
      [
        "cur",
        "ity"
      ],
      [
        "fe",
        "el"
      ],
      [
        "we",
        "re"
      ],
      [
        "conne",
        "ct"
      ],
      [
        "cou",
        "n"
      ],
      [
        "P",
        "A"
      ],
      [
        "ĠĠĠĠĠĠĠĠĠĠĠĠ",
        "ĠĠĠ"
      ],
      [
        "ur",
        "ation"
      ],
      [
        "ile",
        "d"
      ],
      [
        "sys",
        "tem"
      ],
      [
        "w",
        "ould"
      ],
      [
        "m",
        "any"
      ],
      [
        "tr",
        "l"
      ],
      [
        "ili",
        "ty"
      ],
      [
        "C",
        "trl"
      ],
      [
        "m",
        "ary"
      ],
      [
        "u",
        "d"
      ],
      [
        "op",
        "s"
      ],
      [
        "is",
        "ten"
      ],
      [
        "res",
        "sion"
      ],
      [
        "st",
        "or"
      ],
      [
        "be",
        "fore"
      ],
      [
        "o",
        "se"
      ],
      [
        "DE",
        "F"
      ],
      [
        "J",
        "O"
      ],
      [
        "Con",
        "fig"
      ],
      [
        "w",
        "rap"
      ],
      [
        "I",
        "T"
      ],
      [
        "ch",
        "ange"
      ],
      [
        "wa",
        "ys"
      ],
      [
        "o",
        "ds"
      ],
      [
        "t",
        "mp"
      ],
      [
        "O",
        "b"
      ],
      [
        "P",
        "re"
      ],
      [
        "gi",
        "ven"
      ],
      [
        "re",
        "al"
      ],
      [
        "li",
        "fe"
      ],
      [
        "ru",
        "le"
      ],
      [
        "NA",
        "ME"
      ],
      [
        "Ser",
        "vice"
      ],
      [
        "th",
        "ing"
      ],
      [
        "ann",
        "el"
      ],
      [
        "rand",
        "om"
      ],
      [
        "sty",
        "le"
      ],
      [
        "const",
        "ant"
      ],
      [
        "ima",
        "ge"
      ],
      [
        "A",
        "nd"
      ],
      [
        "li",
        "mit"
      ],
      [
        "stru",
        "ct"
      ],
      [
        "lang",
        "u"
      ],
      [
        "t",
        "uple"
      ],
      [
        "de",
        "tail"
      ],
      [
        "W",
        "AR"
      ],
      [
        "e",
        "f"
      ],
      [
        "t",
        "ree"
      ],
      [
        "A",
        "c"
      ],
      [
        "c",
        "ing"
      ],
      [
        "test",
        "s"
      ],
      [
        "inclu",
        "de"
      ],
      [
        "c",
        "md"
      ],
      [
        "remo",
        "ve"
      ],
      [
        "ff",
        "er"
      ],
      [
        "L",
        "o"
      ],
      [
        "d",
        "type"
      ],
      [
        "pe",
        "ople"
      ],
      [
        "time",
        "s"
      ],
      [
        "d",
        "en"
      ],
      [
        "re",
        "place"
      ],
      [
        "c",
        "red"
      ],
      [
        "ca",
        "che"
      ],
      [
        "no",
        "ti"
      ],
      [
        "ag",
        "er"
      ],
      [
        "f",
        "el"
      ],
      [
        "p",
        "c"
      ],
      [
        "with",
        "out"
      ],
      [
        "us",
        "ter"
      ],
      [
        "B",
        "u"
      ],
      [
        "t",
        "ual"
      ],
      [
        "S",
        "ize"
      ],
      [
        "W",
        "I"
      ],
      [
        "rou",
        "nd"
      ],
      [
        "excep",
        "tion"
      ],
      [
        "speci",
        "fic"
      ],
      [
        "m",
        "u"
      ],
      [
        "ip",
        "v"
      ],
      [
        "s",
        "w"
      ],
      [
        "cont",
        "in"
      ],
      [
        "n",
        "on"
      ],
      [
        "A",
        "l"
      ],
      [
        "C",
        "op"
      ],
      [
        "f",
        "er"
      ],
      [
        "p",
        "ing"
      ],
      [
        "po",
        "st"
      ],
      [
        "n",
        "ull"
      ],
      [
        "ex",
        "ten"
      ],
      [
        "mo",
        "st"
      ],
      [
        "le",
        "vel"
      ],
      [
        "fri",
        "end"
      ],
      [
        "g",
        "ine"
      ],
      [
        "v",
        "ate"
      ],
      [
        "b",
        "ig"
      ],
      [
        "i",
        "ces"
      ],
      [
        "ic",
        "al"
      ],
      [
        "reg",
        "ister"
      ],
      [
        "E",
        "CT"
      ],
      [
        "W",
        "HE"
      ],
      [
        "with",
        "in"
      ],
      [
        "item",
        "s"
      ],
      [
        "su",
        "ch"
      ],
      [
        "lo",
        "t"
      ],
      [
        "Con",
        "text"
      ],
      [
        "U",
        "N"
      ],
      [
        "has",
        "h"
      ],
      [
        "s",
        "ame"
      ],
      [
        "or",
        "d"
      ],
      [
        "Cli",
        "ent"
      ],
      [
        "re",
        "q"
      ],
      [
        "T",
        "ree"
      ],
      [
        "con",
        "ver"
      ],
      [
        "ex",
        "peri"
      ],
      [
        "D",
        "O"
      ],
      [
        "M",
        "e"
      ],
      [
        "S",
        "TA"
      ],
      [
        "Cop",
        "y"
      ],
      [
        "con",
        "f"
      ],
      [
        "to",
        "ols"
      ],
      [
        "off",
        "set"
      ],
      [
        "UR",
        "L"
      ],
      [
        "ad",
        "er"
      ],
      [
        "ig",
        "h"
      ],
      [
        "A",
        "u"
      ],
      [
        "C",
        "ase"
      ],
      [
        "c",
        "f"
      ],
      [
        "de",
        "bug"
      ],
      [
        "par",
        "ser"
      ],
      [
        "th",
        "ou"
      ],
      [
        "ĠĠĠĠĠĠĠĠĠĠĠĠĠĠĠĠ",
        "ĠĠĠĠĠĠĠĠĠĠĠĠĠĠĠĠĠĠĠĠ"
      ],
      [
        "TE",
        "ST"
      ],
      [
        "F",
        "OR"
      ],
      [
        "for",
        "ma"
      ],
      [
        "ar",
        "s"
      ],
      [
        "w",
        "er"
      ],
      [
        "ce",
        "i"
      ],
      [
        "met",
        "adata"
      ],
      [
        "ac",
        "cess"
      ],
      [
        "V",
        "er"
      ],
      [
        "m",
        "t"
      ],
      [
        "su",
        "per"
      ],
      [
        "P",
        "tr"
      ],
      [
        "In",
        "st"
      ],
      [
        "N",
        "T"
      ],
      [
        "b",
        "atch"
      ],
      [
        "sub",
        "process"
      ],
      [
        "i",
        "x"
      ],
      [
        "ch",
        "ed"
      ],
      [
        "oo",
        "d"
      ],
      [
        "No",
        "de"
      ],
      [
        "sh",
        "ip"
      ],
      [
        "we",
        "en"
      ],
      [
        "st",
        "ore"
      ],
      [
        "loc",
        "ation"
      ],
      [
        "our",
        "ces"
      ],
      [
        "B",
        "o"
      ],
      [
        "fe",
        "rent"
      ],
      [
        "inter",
        "net"
      ],
      [
        "p",
        "ol"
      ],
      [
        "OU",
        "T"
      ],
      [
        "exist",
        "s"
      ],
      [
        "C",
        "om"
      ],
      [
        "se",
        "curity"
      ],
      [
        "re",
        "pr"
      ],
      [
        "p",
        "or"
      ],
      [
        "meth",
        "ods"
      ],
      [
        "EN",
        "T"
      ],
      [
        "F",
        "a"
      ],
      [
        "ww",
        "w"
      ],
      [
        "contro",
        "l"
      ],
      [
        "R",
        "AN"
      ],
      [
        "re",
        "cor"
      ],
      [
        "doc",
        "ument"
      ],
      [
        "c",
        "ry"
      ],
      [
        "g",
        "y"
      ],
      [
        "p",
        "ublic"
      ],
      [
        "TA",
        "L"
      ],
      [
        "at",
        "ures"
      ],
      [
        "sp",
        "an"
      ],
      [
        "E",
        "X"
      ],
      [
        "p",
        "as"
      ],
      [
        "bet",
        "ween"
      ],
      [
        "lo",
        "b"
      ],
      [
        "uni",
        "que"
      ],
      [
        "at",
        "tribute"
      ],
      [
        "ca",
        "use"
      ],
      [
        "if",
        "y"
      ],
      [
        "Ob",
        "ject"
      ],
      [
        "sa",
        "ve"
      ],
      [
        "W",
        "ith"
      ],
      [
        "p",
        "t"
      ],
      [
        "dif",
        "ferent"
      ],
      [
        "WHE",
        "RE"
      ],
      [
        "f",
        "am"
      ],
      [
        "sup",
        "port"
      ],
      [
        "w",
        "arn"
      ],
      [
        "lic",
        "y"
      ],
      [
        "contin",
        "ue"
      ],
      [
        "h",
        "ist"
      ],
      [
        "be",
        "en"
      ],
      [
        "ad",
        "ded"
      ],
      [
        "ĠĠĠĠĠĠĠĠĠĠĠĠĠĠĠĠĠĠĠĠĠĠĠĠ",
        "Ġ"
      ],
      [
        "olu",
        "me"
      ],
      [
        "l",
        "ish"
      ],
      [
        "In",
        "ter"
      ],
      [
        "sco",
        "pe"
      ],
      [
        "enti",
        "als"
      ],
      [
        "i",
        "ck"
      ],
      [
        "W",
        "ri"
      ],
      [
        "a",
        "ir"
      ],
      [
        "L",
        "AT"
      ],
      [
        "in",
        "ation"
      ],
      [
        "ith",
        "er"
      ],
      [
        "g",
        "or"
      ],
      [
        "std",
        "out"
      ],
      [
        "KE",
        "Y"
      ],
      [
        "de",
        "sc"
      ],
      [
        "meth",
        "ing"
      ],
      [
        "inter",
        "face"
      ],
      [
        "b",
        "ar"
      ],
      [
        "ab",
        "s"
      ],
      [
        "comp",
        "on"
      ],
      [
        "head",
        "er"
      ],
      [
        "langu",
        "age"
      ],
      [
        "W",
        "indow"
      ],
      [
        "we",
        "b"
      ],
      [
        "dire",
        "ctory"
      ],
      [
        "WI",
        "TH"
      ],
      [
        "user",
        "name"
      ],
      [
        "E",
        "D"
      ],
      [
        "z",
        "er"
      ],
      [
        "assert",
        "Is"
      ],
      [
        "Mo",
        "del"
      ],
      [
        "en",
        "able"
      ],
      [
        "ex",
        "c"
      ],
      [
        "G",
        "roup"
      ],
      [
        "li",
        "ght"
      ],
      [
        "ri",
        "es"
      ],
      [
        "sp",
        "ort"
      ],
      [
        "l",
        "ing"
      ],
      [
        "set",
        "s"
      ],
      [
        "ig",
        "no"
      ],
      [
        "g",
        "es"
      ],
      [
        "AN",
        "Y"
      ],
      [
        "LI",
        "C"
      ],
      [
        "gra",
        "m"
      ],
      [
        "p",
        "k"
      ],
      [
        "tw",
        "o"
      ],
      [
        "D",
        "A"
      ],
      [
        "I",
        "mp"
      ],
      [
        "s",
        "ur"
      ],
      [
        "F",
        "e"
      ],
      [
        "at",
        "tributes"
      ],
      [
        "cl",
        "uster"
      ],
      [
        "per",
        "son"
      ],
      [
        "so",
        "mething"
      ],
      [
        "S",
        "M"
      ],
      [
        "S",
        "S"
      ],
      [
        "me",
        "di"
      ],
      [
        "ri",
        "ver"
      ],
      [
        "T",
        "ag"
      ],
      [
        "me",
        "tri"
      ],
      [
        "ut",
        "f"
      ],
      [
        "LAT",
        "IN"
      ],
      [
        "le",
        "ft"
      ],
      [
        "vis",
        "ion"
      ],
      [
        "L",
        "A"
      ],
      [
        "p",
        "op"
      ],
      [
        "ic",
        "s"
      ],
      [
        "col",
        "or"
      ],
      [
        "D",
        "ate"
      ],
      [
        "U",
        "T"
      ],
      [
        "f",
        "y"
      ],
      [
        "gra",
        "ph"
      ],
      [
        "uti",
        "l"
      ],
      [
        "cl",
        "as"
      ],
      [
        "forma",
        "tion"
      ],
      [
        "J",
        "ECT"
      ],
      [
        "Q",
        "U"
      ],
      [
        "th",
        "ose"
      ],
      [
        "i",
        "e"
      ],
      [
        "p",
        "p"
      ],
      [
        "du",
        "p"
      ],
      [
        "fr",
        "ame"
      ],
      [
        "fel",
        "t"
      ],
      [
        "li",
        "ed"
      ],
      [
        "fe",
        "ature"
      ],
      [
        "Test",
        "Case"
      ],
      [
        "en",
        "ter"
      ],
      [
        "ver",
        "se"
      ],
      [
        "p",
        "atch"
      ],
      [
        "option",
        "al"
      ],
      [
        "n",
        "ess"
      ],
      [
        "B",
        "Y"
      ],
      [
        "P",
        "ublic"
      ],
      [
        "c",
        "our"
      ],
      [
        "se",
        "nd"
      ],
      [
        "in",
        "ed"
      ],
      [
        "lo",
        "ck"
      ],
      [
        "cho",
        "ices"
      ],
      [
        "Py",
        "thon"
      ],
      [
        "ad",
        "min"
      ],
      [
        "ac",
        "tive"
      ],
      [
        "ke",
        "ep"
      ],
      [
        "C",
        "all"
      ],
      [
        "O",
        "n"
      ],
      [
        "or",
        "ig"
      ],
      [
        "su",
        "c"
      ],
      [
        "distribu",
        "ted"
      ],
      [
        "ax",
        "is"
      ],
      [
        "N",
        "et"
      ],
      [
        "speci",
        "fied"
      ],
      [
        "f",
        "ut"
      ],
      [
        "ou",
        "n"
      ],
      [
        "le",
        "an"
      ],
      [
        "me",
        "an"
      ],
      [
        "c",
        "ate"
      ],
      [
        "s",
        "al"
      ],
      [
        "know",
        "n"
      ],
      [
        "P",
        "E"
      ],
      [
        "SE",
        "R"
      ],
      [
        "vir",
        "tual"
      ],
      [
        "h",
        "im"
      ],
      [
        "ce",
        "d"
      ],
      [
        "m",
        "ight"
      ],
      [
        "qu",
        "ence"
      ],
      [
        "ge",
        "ther"
      ],
      [
        "read",
        "y"
      ],
      [
        "sta",
        "mp"
      ],
      [
        "Ch",
        "ar"
      ],
      [
        "pro",
        "file"
      ],
      [
        "ful",
        "l"
      ],
      [
        "e",
        "ither"
      ],
      [
        "s",
        "in"
      ],
      [
        "ĠĠĠĠĠĠĠĠ",
        "čĊ"
      ],
      [
        "mo",
        "ve"
      ],
      [
        "blo",
        "b"
      ],
      [
        "te",
        "nd"
      ],
      [
        "In",
        "te"
      ],
      [
        "map",
        "per"
      ],
      [
        "we",
        "ight"
      ],
      [
        "indi",
        "ces"
      ],
      [
        "b",
        "it"
      ],
      [
        "pa",
        "y"
      ],
      [
        "B",
        "O"
      ],
      [
        "ĠĠĠĠĠĠĠĠ",
        "ĠĠĠ"
      ],
      [
        "E",
        "V"
      ],
      [
        "I",
        "ma"
      ],
      [
        "P",
        "er"
      ],
      [
        "detail",
        "s"
      ],
      [
        "b",
        "la"
      ],
      [
        "le",
        "ase"
      ],
      [
        "under",
        "stand"
      ],
      [
        "multi",
        "p"
      ],
      [
        "f",
        "alse"
      ],
      [
        "st",
        "op"
      ],
      [
        "w",
        "indow"
      ],
      [
        "O",
        "r"
      ],
      [
        "error",
        "s"
      ],
      [
        "Co",
        "mp"
      ],
      [
        "oper",
        "ator"
      ],
      [
        "ed",
        "it"
      ],
      [
        "test",
        "Type"
      ],
      [
        "Re",
        "g"
      ],
      [
        "A",
        "D"
      ],
      [
        "d",
        "uring"
      ],
      [
        "p",
        "ub"
      ],
      [
        "se",
        "q"
      ],
      [
        "bre",
        "ak"
      ],
      [
        "j",
        "ava"
      ],
      [
        "n",
        "a"
      ],
      [
        "do",
        "main"
      ],
      [
        "wid",
        "get"
      ],
      [
        "PRO",
        "JECT"
      ],
      [
        "return",
        "ed"
      ],
      [
        "der",
        "r"
      ],
      [
        "f",
        "ont"
      ],
      [
        "ĠĠĠĠĠĠĠĠ",
        "Ġ"
      ],
      [
        "ns",
        "or"
      ],
      [
        "UL",
        "T"
      ],
      [
        "to",
        "tal"
      ],
      [
        "ret",
        "ry"
      ],
      [
        "O",
        "ne"
      ],
      [
        "per",
        "mis"
      ],
      [
        "function",
        "s"
      ],
      [
        "D",
        "o"
      ],
      [
        "se",
        "ction"
      ],
      [
        "se",
        "le"
      ],
      [
        "log",
        "ging"
      ],
      [
        "group",
        "s"
      ],
      [
        "F",
        "rom"
      ],
      [
        "u",
        "mp"
      ],
      [
        "back",
        "end"
      ],
      [
        "row",
        "s"
      ],
      [
        "Res",
        "pon"
      ],
      [
        "unit",
        "test"
      ],
      [
        "fut",
        "ure"
      ],
      [
        "ul",
        "ar"
      ],
      [
        "w",
        "ant"
      ],
      [
        "st",
        "rip"
      ],
      [
        "parame",
        "ters"
      ],
      [
        "al",
        "ong"
      ],
      [
        "chang",
        "ed"
      ],
      [
        "M",
        "ess"
      ],
      [
        "scrip",
        "t"
      ],
      [
        "produ",
        "ct"
      ],
      [
        "ar",
        "ound"
      ],
      [
        "Copy",
        "right"
      ],
      [
        "ĠĠĠĠ",
        "ĠĠĠ"
      ],
      [
        "The",
        "y"
      ],
      [
        "P",
        "ack"
      ],
      [
        "mo",
        "d"
      ],
      [
        "cre",
        "ated"
      ],
      [
        "Type",
        "Error"
      ],
      [
        "cred",
        "entials"
      ],
      [
        "ti",
        "tion"
      ],
      [
        "l",
        "isten"
      ],
      [
        "ol",
        "ve"
      ],
      [
        "dep",
        "end"
      ],
      [
        "P",
        "AR"
      ],
      [
        "st",
        "derr"
      ],
      [
        "h",
        "app"
      ],
      [
        "z",
        "ip"
      ],
      [
        "U",
        "M"
      ],
      [
        "wor",
        "ld"
      ],
      [
        "Ex",
        "ample"
      ],
      [
        "a",
        "ctions"
      ],
      [
        "ro",
        "le"
      ],
      [
        "to",
        "o"
      ],
      [
        "res",
        "p"
      ],
      [
        "comm",
        "on"
      ],
      [
        "x",
        "ml"
      ],
      [
        "A",
        "d"
      ],
      [
        "v",
        "olume"
      ],
      [
        "en",
        "coding"
      ],
      [
        "at",
        "form"
      ],
      [
        "be",
        "ing"
      ],
      [
        "Gener",
        "al"
      ],
      [
        "bo",
        "x"
      ],
      [
        "GN",
        "U"
      ],
      [
        "Mess",
        "age"
      ],
      [
        "col",
        "le"
      ],
      [
        "node",
        "s"
      ],
      [
        "pri",
        "vate"
      ],
      [
        "C",
        "ount"
      ],
      [
        "ci",
        "al"
      ],
      [
        "A",
        "C"
      ],
      [
        "C",
        "ur"
      ],
      [
        "al",
        "ways"
      ],
      [
        "aliz",
        "e"
      ],
      [
        "compon",
        "ents"
      ],
      [
        "a",
        "ve"
      ],
      [
        "en",
        "um"
      ],
      [
        "as",
        "on"
      ],
      [
        "http",
        "s"
      ],
      [
        "L",
        "og"
      ],
      [
        "c",
        "ul"
      ],
      [
        "g",
        "lob"
      ],
      [
        "ch",
        "annel"
      ],
      [
        "M",
        "a"
      ],
      [
        "applic",
        "ation"
      ],
      [
        "st",
        "ra"
      ],
      [
        "remo",
        "te"
      ],
      [
        "F",
        "r"
      ],
      [
        "con",
        "di"
      ],
      [
        "c",
        "at"
      ],
      [
        "re",
        "po"
      ],
      [
        "ma",
        "th"
      ],
      [
        "ho",
        "me"
      ],
      [
        "o",
        "me"
      ],
      [
        "po",
        "ke"
      ],
      [
        "g",
        "u"
      ],
      [
        "wid",
        "th"
      ],
      [
        "posi",
        "tion"
      ],
      [
        "c",
        "ent"
      ],
      [
        "do",
        "t"
      ],
      [
        "HT",
        "M"
      ],
      [
        "li",
        "ce"
      ],
      [
        "ut",
        "able"
      ],
      [
        "be",
        "cause"
      ],
      [
        "F",
        "ound"
      ],
      [
        "Wh",
        "at"
      ],
      [
        "w",
        "in"
      ],
      [
        "to",
        "gether"
      ],
      [
        "pri",
        "mary"
      ],
      [
        "ex",
        "it"
      ],
      [
        "call",
        "back"
      ],
      [
        "hand",
        "le"
      ],
      [
        "s",
        "core"
      ],
      [
        "lo",
        "ye"
      ],
      [
        "sing",
        "le"
      ],
      [
        "mark",
        "er"
      ],
      [
        "p",
        "at"
      ],
      [
        "ti",
        "v"
      ],
      [
        "Con",
        "ne"
      ],
      [
        "m",
        "i"
      ],
      [
        "s",
        "rc"
      ],
      [
        "u",
        "sh"
      ],
      [
        "pre",
        "c"
      ],
      [
        "gor",
        "ith"
      ],
      [
        "Respon",
        "se"
      ],
      [
        "D",
        "is"
      ],
      [
        "re",
        "cei"
      ],
      [
        "user",
        "s"
      ],
      [
        "OR",
        "D"
      ],
      [
        "dest",
        "ination"
      ],
      [
        "secon",
        "d"
      ],
      [
        "a",
        "che"
      ],
      [
        "st",
        "ud"
      ],
      [
        "de",
        "c"
      ],
      [
        "ri",
        "d"
      ],
      [
        "g",
        "re"
      ],
      [
        "s",
        "chema"
      ],
      [
        "pro",
        "gram"
      ],
      [
        "aliz",
        "ed"
      ],
      [
        "lib",
        "r"
      ],
      [
        "In",
        "dex"
      ],
      [
        "label",
        "s"
      ],
      [
        "hand",
        "ler"
      ],
      [
        "element",
        "s"
      ],
      [
        "pack",
        "age"
      ],
      [
        "S",
        "H"
      ],
      [
        "h",
        "um"
      ],
      [
        "de",
        "vice"
      ],
      [
        "as",
        "y"
      ],
      [
        "B",
        "e"
      ],
      [
        "ĠĠĠĠĠĠĠĠĠĠĠĠĠĠĠĠĠĠĠĠ",
        "Ġ"
      ],
      [
        "Par",
        "ame"
      ],
      [
        "F",
        "il"
      ],
      [
        "u",
        "v"
      ],
      [
        "th",
        "read"
      ],
      [
        "fi",
        "t"
      ],
      [
        "comm",
        "it"
      ],
      [
        "Cl",
        "ass"
      ],
      [
        "G",
        "e"
      ],
      [
        "re",
        "ct"
      ],
      [
        "on",
        "ce"
      ],
      [
        "te",
        "nsor"
      ],
      [
        "name",
        "d"
      ],
      [
        "auth",
        "or"
      ],
      [
        "igno",
        "re"
      ],
      [
        "Q",
        "u"
      ],
      [
        "d",
        "id"
      ],
      [
        "ra",
        "c"
      ],
      [
        "TI",
        "C"
      ],
      [
        "oper",
        "ation"
      ],
      [
        "a",
        "ther"
      ],
      [
        "ra",
        "g"
      ],
      [
        "arg",
        "v"
      ],
      [
        "bo",
        "th"
      ],
      [
        "SM",
        "ALL"
      ],
      [
        "s",
        "oftware"
      ],
      [
        "as",
        "ter"
      ],
      [
        "suc",
        "cess"
      ],
      [
        "M",
        "et"
      ],
      [
        "po",
        "licy"
      ],
      [
        "comm",
        "un"
      ],
      [
        "hel",
        "per"
      ],
      [
        "s",
        "ort"
      ],
      [
        "time",
        "stamp"
      ],
      [
        "ful",
        "ly"
      ],
      [
        "Ar",
        "gs"
      ],
      [
        "st",
        "s"
      ],
      [
        "uni",
        "code"
      ],
      [
        "ste",
        "p"
      ],
      [
        "A",
        "ULT"
      ],
      [
        "po",
        "ol"
      ],
      [
        "sc",
        "al"
      ],
      [
        "bo",
        "se"
      ],
      [
        "pl",
        "atform"
      ],
      [
        "rel",
        "ated"
      ],
      [
        "DEF",
        "AULT"
      ],
      [
        "r",
        "ad"
      ],
      [
        "s",
        "park"
      ],
      [
        "return",
        "s"
      ],
      [
        "wor",
        "ds"
      ],
      [
        "S",
        "ub"
      ],
      [
        "N",
        "s"
      ],
      [
        "V",
        "i"
      ],
      [
        "W",
        "rap"
      ],
      [
        "exec",
        "ute"
      ],
      [
        "cour",
        "se"
      ],
      [
        "E",
        "mp"
      ],
      [
        "in",
        "v"
      ],
      [
        "te",
        "am"
      ],
      [
        "dis",
        "play"
      ],
      [
        "WAR",
        "RAN"
      ],
      [
        "log",
        "ger"
      ],
      [
        "mem",
        "ory"
      ],
      [
        "flag",
        "s"
      ],
      [
        "C",
        "A"
      ],
      [
        "O",
        "ut"
      ],
      [
        "T",
        "ra"
      ],
      [
        "id",
        "x"
      ],
      [
        "Re",
        "f"
      ],
      [
        "w",
        "ard"
      ],
      [
        "ĠĠĠĠ",
        "čĊ"
      ],
      [
        "st",
        "ar"
      ],
      [
        "si",
        "mple"
      ],
      [
        "set",
        "up"
      ],
      [
        "Inst",
        "ance"
      ],
      [
        "fi",
        "ll"
      ],
      [
        "ver",
        "bose"
      ],
      [
        "Ser",
        "i"
      ],
      [
        "qu",
        "ot"
      ],
      [
        "re",
        "p"
      ],
      [
        "ĠĠĠĠĠĠĠĠĠĠĠĠĠĠĠĠ",
        "ĠĠ"
      ],
      [
        "re",
        "present"
      ],
      [
        "imp",
        "le"
      ],
      [
        "RE",
        "S"
      ],
      [
        "U",
        "S"
      ],
      [
        "ca",
        "st"
      ],
      [
        "stor",
        "age"
      ],
      [
        "E",
        "lement"
      ],
      [
        "l",
        "u"
      ],
      [
        "sh",
        "ort"
      ],
      [
        "fe",
        "atures"
      ],
      [
        "reg",
        "ion"
      ],
      [
        "Res",
        "ult"
      ],
      [
        "C",
        "OU"
      ],
      [
        "si",
        "te"
      ],
      [
        "ti",
        "l"
      ],
      [
        "cep",
        "t"
      ],
      [
        "De",
        "vice"
      ],
      [
        "V",
        "ER"
      ],
      [
        "e",
        "val"
      ],
      [
        "âĢ",
        "ĵ"
      ],
      [
        "exp",
        "ression"
      ],
      [
        "k",
        "es"
      ],
      [
        "il",
        "able"
      ],
      [
        "se",
        "ss"
      ],
      [
        "ro",
        "ss"
      ],
      [
        "y",
        "m"
      ],
      [
        "ri",
        "de"
      ],
      [
        "head",
        "ers"
      ],
      [
        "cur",
        "sor"
      ],
      [
        "ste",
        "ad"
      ],
      [
        "R",
        "un"
      ],
      [
        "de",
        "ci"
      ],
      [
        "ter",
        "min"
      ],
      [
        "um",
        "ns"
      ],
      [
        "C",
        "API"
      ],
      [
        "s",
        "n"
      ],
      [
        "par",
        "tic"
      ],
      [
        "que",
        "ue"
      ],
      [
        "Op",
        "en"
      ],
      [
        "part",
        "ner"
      ],
      [
        "gorith",
        "m"
      ],
      [
        "d",
        "ense"
      ],
      [
        "tra",
        "in"
      ],
      [
        "bin",
        "ary"
      ],
      [
        "D",
        "B"
      ],
      [
        "u",
        "uid"
      ],
      [
        "ĉĉ",
        "ĉĉĉ"
      ],
      [
        "Di",
        "ct"
      ],
      [
        "ome",
        "try"
      ],
      [
        "CAPI",
        "TAL"
      ],
      [
        "ĠĠĠĠĠĠĠĠĠĠĠĠĠĠĠĠĠĠĠĠĠĠĠĠĠĠĠĠ",
        "ĠĠ"
      ],
      [
        "Op",
        "tional"
      ],
      [
        "N",
        "um"
      ],
      [
        "in",
        "valid"
      ],
      [
        "dis",
        "able"
      ],
      [
        "d",
        "on"
      ],
      [
        "argument",
        "s"
      ],
      [
        "f",
        "ree"
      ],
      [
        "di",
        "v"
      ],
      [
        "tag",
        "s"
      ],
      [
        "Wh",
        "en"
      ],
      [
        "de",
        "v"
      ],
      [
        "by",
        "te"
      ],
      [
        "To",
        "ol"
      ],
      [
        "ali",
        "as"
      ],
      [
        "sm",
        "all"
      ],
      [
        "PA",
        "TH"
      ],
      [
        "orig",
        "in"
      ],
      [
        "y",
        "ield"
      ],
      [
        "qu",
        "o"
      ],
      [
        "sk",
        "i"
      ],
      [
        "FI",
        "LE"
      ],
      [
        "E",
        "C"
      ],
      [
        "c",
        "us"
      ],
      [
        "n",
        "orm"
      ],
      [
        "s",
        "parse"
      ],
      [
        "bu",
        "il"
      ],
      [
        "but",
        "ton"
      ],
      [
        "s",
        "with"
      ],
      [
        "in",
        "sert"
      ],
      [
        "is",
        "o"
      ],
      [
        "so",
        "cket"
      ],
      [
        "Mo",
        "dule"
      ],
      [
        "e",
        "ded"
      ],
      [
        "ĠĠĠĠĠĠĠĠĠĠĠĠĠĠĠĠĠĠĠĠ",
        "ĠĠ"
      ],
      [
        "At",
        "tributes"
      ],
      [
        "variable",
        "s"
      ],
      [
        "a",
        "ws"
      ],
      [
        "n",
        "i"
      ],
      [
        "t",
        "f"
      ],
      [
        "x",
        "y"
      ],
      [
        "COU",
        "NT"
      ],
      [
        "A",
        "pp"
      ],
      [
        "an",
        "other"
      ],
      [
        "IN",
        "T"
      ],
      [
        "ant",
        "s"
      ],
      [
        "L",
        "ay"
      ],
      [
        "Val",
        "id"
      ],
      [
        "h",
        "ook"
      ],
      [
        "In",
        "put"
      ],
      [
        "a",
        "cl"
      ],
      [
        "p",
        "lot"
      ],
      [
        "on",
        "es"
      ],
      [
        "col",
        "umns"
      ],
      [
        "mess",
        "ages"
      ],
      [
        "cle",
        "an"
      ],
      [
        "metri",
        "c"
      ],
      [
        "G",
        "HT"
      ],
      [
        "S",
        "he"
      ],
      [
        "con",
        "s"
      ],
      [
        "ap",
        "pro"
      ],
      [
        "men",
        "u"
      ],
      [
        "parame",
        "ter"
      ],
      [
        "fam",
        "ily"
      ],
      [
        "w",
        "ise"
      ],
      [
        "po",
        "wer"
      ],
      [
        "But",
        "ton"
      ],
      [
        "pas",
        "sed"
      ],
      [
        "at",
        "ten"
      ],
      [
        "fi",
        "er"
      ],
      [
        "cl",
        "a"
      ],
      [
        "config",
        "uration"
      ],
      [
        "per",
        "form"
      ],
      [
        "Ver",
        "sion"
      ],
      [
        "Wri",
        "te"
      ],
      [
        "t",
        "re"
      ],
      [
        "du",
        "mp"
      ],
      [
        "vis",
        "it"
      ],
      [
        "poke",
        "mon"
      ],
      [
        "M",
        "ap"
      ],
      [
        "ra",
        "ph"
      ],
      [
        "vi",
        "ces"
      ],
      [
        "bu",
        "f"
      ],
      [
        "v",
        "or"
      ],
      [
        "sign",
        "ed"
      ],
      [
        "sy",
        "mb"
      ],
      [
        "sk",
        "ip"
      ],
      [
        "war",
        "ds"
      ],
      [
        "c",
        "u"
      ],
      [
        "e",
        "ver"
      ],
      [
        "T",
        "R"
      ],
      [
        "a",
        "ti"
      ],
      [
        "de",
        "ep"
      ],
      [
        "me",
        "ta"
      ],
      [
        "id",
        "den"
      ],
      [
        "ta",
        "ke"
      ],
      [
        "fa",
        "iled"
      ],
      [
        "ava",
        "ilable"
      ],
      [
        "in",
        "stead"
      ],
      [
        "In",
        "fo"
      ],
      [
        "trans",
        "form"
      ],
      [
        "R",
        "ow"
      ],
      [
        "en",
        "code"
      ],
      [
        "url",
        "lib"
      ],
      [
        "OU",
        "R"
      ],
      [
        "up",
        "load"
      ],
      [
        "NO",
        "T"
      ],
      [
        "tra",
        "ck"
      ],
      [
        "proto",
        "col"
      ],
      [
        "g",
        "it"
      ],
      [
        "ur",
        "al"
      ],
      [
        "S",
        "C"
      ],
      [
        "T",
        "P"
      ],
      [
        "g",
        "ot"
      ],
      [
        "t",
        "ro"
      ],
      [
        "ĉ",
        "ĠĠ"
      ],
      [
        "ou",
        "ble"
      ],
      [
        "TI",
        "ME"
      ],
      [
        "requi",
        "re"
      ],
      [
        "th",
        "ings"
      ],
      [
        "op",
        "t"
      ],
      [
        "lay",
        "er"
      ],
      [
        "Hel",
        "per"
      ],
      [
        "libr",
        "ary"
      ],
      [
        "ab",
        "ility"
      ],
      [
        "par",
        "ts"
      ],
      [
        "vi",
        "ded"
      ],
      [
        "L",
        "D"
      ],
      [
        "in",
        "formation"
      ],
      [
        "te",
        "red"
      ],
      [
        "is",
        "ion"
      ],
      [
        "oo",
        "t"
      ],
      [
        "W",
        "S"
      ],
      [
        "Char",
        "Field"
      ],
      [
        "z",
        "y"
      ],
      [
        "re",
        "pe"
      ],
      [
        "environ",
        "ment"
      ],
      [
        "c",
        "ame"
      ],
      [
        "c",
        "are"
      ],
      [
        "g",
        "round"
      ],
      [
        "or",
        "ing"
      ],
      [
        "an",
        "ti"
      ],
      [
        "all",
        "en"
      ],
      [
        "bo",
        "to"
      ],
      [
        "m",
        "al"
      ],
      [
        "ĠĠĠĠĠĠĠĠĠĠĠĠ",
        "Ġ"
      ],
      [
        "low",
        "er"
      ],
      [
        "Test",
        "s"
      ],
      [
        "char",
        "ac"
      ],
      [
        "hist",
        "ory"
      ],
      [
        "T",
        "ask"
      ],
      [
        "le",
        "ad"
      ],
      [
        "di",
        "ction"
      ],
      [
        "class",
        "method"
      ],
      [
        "sa",
        "ction"
      ],
      [
        "Mo",
        "ck"
      ],
      [
        "cry",
        "p"
      ],
      [
        "attr",
        "s"
      ],
      [
        "oper",
        "ations"
      ],
      [
        "M",
        "an"
      ],
      [
        "tran",
        "sport"
      ],
      [
        "Inter",
        "face"
      ],
      [
        "D",
        "es"
      ],
      [
        "f",
        "n"
      ],
      [
        "we",
        "ver"
      ],
      [
        "path",
        "s"
      ],
      [
        "ĠĠĠĠĠĠĠĠĠĠĠĠĠĠĠĠĠĠĠĠĠĠĠĠ",
        "ĠĠ"
      ],
      [
        "re",
        "port"
      ],
      [
        "res",
        "ources"
      ],
      [
        "The",
        "se"
      ],
      [
        "sor",
        "ted"
      ],
      [
        "u",
        "ff"
      ],
      [
        "id",
        "enti"
      ],
      [
        "quest",
        "ion"
      ],
      [
        "host",
        "s"
      ],
      [
        "JO",
        "IN"
      ],
      [
        "ma",
        "de"
      ],
      [
        "comp",
        "lex"
      ],
      [
        "base",
        "d"
      ],
      [
        "lo",
        "ss"
      ],
      [
        "ser",
        "ved"
      ],
      [
        "ci",
        "i"
      ],
      [
        "module",
        "s"
      ],
      [
        "other",
        "s"
      ],
      [
        "Pro",
        "to"
      ],
      [
        "H",
        "as"
      ],
      [
        "b",
        "row"
      ],
      [
        "en",
        "ses"
      ],
      [
        "al",
        "gorithm"
      ],
      [
        "is",
        "s"
      ],
      [
        "pro",
        "vided"
      ],
      [
        "state",
        "s"
      ],
      [
        "I",
        "O"
      ],
      [
        "c",
        "ar"
      ],
      [
        "par",
        "tition"
      ],
      [
        "TH",
        "E"
      ],
      [
        "tra",
        "ce"
      ],
      [
        "clas",
        "ses"
      ],
      [
        "I",
        "nt"
      ],
      [
        "g",
        "g"
      ],
      [
        "l",
        "and"
      ],
      [
        "com",
        "ment"
      ],
      [
        "indi",
        "vid"
      ],
      [
        "sec",
        "ret"
      ],
      [
        "a",
        "ded"
      ],
      [
        "s",
        "pa"
      ],
      [
        "re",
        "ference"
      ],
      [
        "be",
        "gin"
      ],
      [
        "sa",
        "fe"
      ],
      [
        "bl",
        "ank"
      ],
      [
        "li",
        "ter"
      ],
      [
        "follow",
        "ing"
      ],
      [
        "ce",
        "ll"
      ],
      [
        "inst",
        "all"
      ],
      [
        "F",
        "F"
      ],
      [
        "r",
        "an"
      ],
      [
        "co",
        "der"
      ],
      [
        "dis",
        "co"
      ],
      [
        "input",
        "s"
      ],
      [
        "G",
        "oogle"
      ],
      [
        "c",
        "v"
      ],
      [
        "c",
        "ity"
      ],
      [
        "n",
        "one"
      ],
      [
        "li",
        "m"
      ],
      [
        "ag",
        "a"
      ],
      [
        "lic",
        "enses"
      ],
      [
        "CO",
        "M"
      ],
      [
        "EV",
        "T"
      ],
      [
        "Cur",
        "rent"
      ],
      [
        "p",
        "an"
      ],
      [
        "mis",
        "sing"
      ],
      [
        "Out",
        "put"
      ],
      [
        "i",
        "a"
      ],
      [
        "Re",
        "ference"
      ],
      [
        "sele",
        "cted"
      ],
      [
        "u",
        "ally"
      ],
      [
        "TY",
        "PE"
      ],
      [
        "thou",
        "ght"
      ],
      [
        "sin",
        "ce"
      ],
      [
        "Wrap",
        "per"
      ],
      [
        "S",
        "h"
      ],
      [
        "S",
        "ys"
      ],
      [
        "e",
        "k"
      ],
      [
        "ti",
        "st"
      ],
      [
        "ate",
        "r"
      ],
      [
        "he",
        "al"
      ],
      [
        "iz",
        "ed"
      ],
      [
        "ini",
        "ti"
      ],
      [
        "vide",
        "o"
      ],
      [
        "f",
        "la"
      ],
      [
        "ĠĠĠĠĠĠĠĠĠĠĠĠĠĠĠĠĠĠĠĠĠĠĠĠ",
        "ĠĠĠ"
      ],
      [
        "ĠĠĠĠĠĠĠĠĠĠĠĠĠĠĠĠĠĠĠĠĠĠĠĠĠĠĠĠ",
        "ĠĠĠ"
      ],
      [
        "xx",
        "xx"
      ],
      [
        "S",
        "oftware"
      ],
      [
        "excep",
        "tions"
      ],
      [
        "im",
        "um"
      ],
      [
        "DA",
        "TA"
      ],
      [
        "X",
        "T"
      ],
      [
        "c",
        "ard"
      ],
      [
        "d",
        "river"
      ],
      [
        "k",
        "ind"
      ],
      [
        "si",
        "ve"
      ],
      [
        "di",
        "men"
      ],
      [
        "Con",
        "tro"
      ],
      [
        "pay",
        "load"
      ],
      [
        "Pack",
        "et"
      ],
      [
        "g",
        "ed"
      ],
      [
        "at",
        "ta"
      ],
      [
        "St",
        "at"
      ],
      [
        "At",
        "tr"
      ],
      [
        "Par",
        "am"
      ],
      [
        "exec",
        "utable"
      ],
      [
        "pub",
        "lish"
      ],
      [
        "es",
        "sion"
      ],
      [
        "fic",
        "ation"
      ],
      [
        "stat",
        "s"
      ],
      [
        "Conne",
        "ction"
      ],
      [
        "A",
        "V"
      ],
      [
        "B",
        "I"
      ],
      [
        "M",
        "y"
      ],
      [
        "b",
        "ind"
      ],
      [
        "de",
        "red"
      ],
      [
        "WITH",
        "OUT"
      ],
      [
        "map",
        "ping"
      ],
      [
        "EN",
        "D"
      ],
      [
        "mask",
        "ed"
      ],
      [
        "HT",
        "TP"
      ],
      [
        "i",
        "ble"
      ],
      [
        "en",
        "ces"
      ],
      [
        "ti",
        "cal"
      ],
      [
        "Proto",
        "col"
      ],
      [
        "H",
        "and"
      ],
      [
        "t",
        "urn"
      ],
      [
        "instance",
        "s"
      ],
      [
        "ff",
        "ect"
      ],
      [
        "men",
        "ted"
      ],
      [
        "Bo",
        "x"
      ],
      [
        "I",
        "ter"
      ],
      [
        "u",
        "red"
      ],
      [
        "w",
        "ell"
      ],
      [
        "in",
        "p"
      ],
      [
        "al",
        "ready"
      ],
      [
        "ch",
        "allen"
      ],
      [
        "Con",
        "tain"
      ],
      [
        "Po",
        "si"
      ],
      [
        "B",
        "E"
      ],
      [
        "in",
        "s"
      ],
      [
        "ve",
        "lo"
      ],
      [
        "event",
        "s"
      ],
      [
        "G",
        "ER"
      ],
      [
        "as",
        "ic"
      ],
      [
        "un",
        "til"
      ],
      [
        "Inte",
        "ger"
      ],
      [
        "N",
        "ow"
      ],
      [
        "c",
        "ri"
      ],
      [
        "d",
        "one"
      ],
      [
        "e",
        "mb"
      ],
      [
        "ru",
        "les"
      ],
      [
        "exten",
        "sion"
      ],
      [
        "Fr",
        "ame"
      ],
      [
        "m",
        "ing"
      ],
      [
        "comp",
        "lete"
      ],
      [
        "cal",
        "cul"
      ],
      [
        "Parame",
        "ters"
      ],
      [
        "B",
        "it"
      ],
      [
        "F",
        "ore"
      ],
      [
        "M",
        "S"
      ],
      [
        "def",
        "ined"
      ],
      [
        "cle",
        "ar"
      ],
      [
        "JO",
        "B"
      ],
      [
        "d",
        "t"
      ],
      [
        "m",
        "and"
      ],
      [
        "ro",
        "om"
      ],
      [
        "En",
        "able"
      ],
      [
        "Call",
        "back"
      ],
      [
        "J",
        "o"
      ],
      [
        "t",
        "ab"
      ],
      [
        "oo",
        "lean"
      ],
      [
        "exist",
        "ing"
      ],
      [
        "Vi",
        "ew"
      ],
      [
        "L",
        "ink"
      ],
      [
        "S",
        "how"
      ],
      [
        "ue",
        "s"
      ],
      [
        "TE",
        "XT"
      ],
      [
        "serializ",
        "e"
      ],
      [
        "b",
        "ad"
      ],
      [
        "j",
        "our"
      ],
      [
        "s",
        "pace"
      ],
      [
        "ur",
        "i"
      ],
      [
        "ter",
        "ms"
      ],
      [
        "imp",
        "lied"
      ],
      [
        "call",
        "able"
      ],
      [
        "s",
        "of"
      ],
      [
        "an",
        "e"
      ],
      [
        "et",
        "s"
      ],
      [
        "fa",
        "ke"
      ],
      [
        "man",
        "ager"
      ],
      [
        "Up",
        "date"
      ],
      [
        "aga",
        "inst"
      ],
      [
        "C",
        "L"
      ],
      [
        "M",
        "ulti"
      ],
      [
        "S",
        "ource"
      ],
      [
        "f",
        "et"
      ],
      [
        "t",
        "xt"
      ],
      [
        "cor",
        "rect"
      ],
      [
        "Cl",
        "oud"
      ],
      [
        "coun",
        "try"
      ],
      [
        "b",
        "ound"
      ],
      [
        "d",
        "mp"
      ],
      [
        "imp",
        "lement"
      ],
      [
        "recor",
        "d"
      ],
      [
        "cli",
        "ck"
      ],
      [
        "sign",
        "ature"
      ],
      [
        "bet",
        "ter"
      ],
      [
        "in",
        "cre"
      ],
      [
        "ter",
        "m"
      ],
      [
        "c",
        "enter"
      ],
      [
        "r",
        "s"
      ],
      [
        "lic",
        "it"
      ],
      [
        "En",
        "try"
      ],
      [
        "names",
        "pace"
      ],
      [
        "bet",
        "a"
      ],
      [
        "T",
        "able"
      ],
      [
        "m",
        "ig"
      ],
      [
        "w",
        "are"
      ],
      [
        "in",
        "vo"
      ],
      [
        "Ima",
        "ge"
      ],
      [
        "IP",
        "v"
      ],
      [
        "custom",
        "er"
      ],
      [
        "S",
        "imple"
      ],
      [
        "W",
        "id"
      ],
      [
        "e",
        "mo"
      ],
      [
        "He",
        "ader"
      ],
      [
        "b",
        "ility"
      ],
      [
        "n",
        "ed"
      ],
      [
        "ex",
        "tend"
      ],
      [
        "sp",
        "i"
      ],
      [
        "del",
        "ta"
      ],
      [
        "assertIs",
        "None"
      ],
      [
        "bla",
        "h"
      ],
      [
        "diction",
        "ary"
      ],
      [
        "O",
        "per"
      ],
      [
        "V",
        "AL"
      ],
      [
        "v",
        "l"
      ],
      [
        "ĠĠĠĠĠĠĠĠĠĠĠĠĠĠĠĠĠĠĠĠ",
        "ĠĠĠ"
      ],
      [
        "Pro",
        "du"
      ],
      [
        "mu",
        "ch"
      ],
      [
        "h",
        "igh"
      ],
      [
        "bu",
        "ffer"
      ],
      [
        "Tr",
        "an"
      ],
      [
        "pl",
        "u"
      ],
      [
        "SI",
        "ON"
      ],
      [
        "en",
        "sor"
      ],
      [
        "po",
        "se"
      ],
      [
        "every",
        "one"
      ],
      [
        "mon",
        "th"
      ],
      [
        "en",
        "s"
      ],
      [
        "he",
        "ther"
      ],
      [
        "sha",
        "red"
      ],
      [
        "ish",
        "ed"
      ],
      [
        "OUR",
        "CE"
      ],
      [
        "f",
        "d"
      ],
      [
        "ou",
        "qu"
      ],
      [
        "ab",
        "o"
      ],
      [
        "Th",
        "at"
      ],
      [
        "te",
        "ch"
      ],
      [
        "dire",
        "ct"
      ],
      [
        "m",
        "il"
      ],
      [
        "se",
        "quence"
      ],
      [
        "ci",
        "p"
      ],
      [
        "permis",
        "sions"
      ],
      [
        "comp",
        "ile"
      ],
      [
        "Type",
        "Id"
      ],
      [
        "LI",
        "ST"
      ],
      [
        "da",
        "ys"
      ],
      [
        "recei",
        "ved"
      ],
      [
        "Qu",
        "ery"
      ],
      [
        "F",
        "un"
      ],
      [
        "g",
        "ate"
      ],
      [
        "n",
        "g"
      ],
      [
        "inter",
        "val"
      ],
      [
        "UL",
        "L"
      ],
      [
        "ye",
        "ar"
      ],
      [
        "down",
        "load"
      ],
      [
        "pk",
        "g"
      ],
      [
        "d",
        "raw"
      ],
      [
        "ou",
        "se"
      ],
      [
        "ci",
        "es"
      ],
      [
        "Con",
        "tent"
      ],
      [
        "u",
        "ses"
      ],
      [
        "up",
        "on"
      ],
      [
        "IN",
        "E"
      ],
      [
        "Num",
        "ber"
      ],
      [
        "c",
        "rip"
      ],
      [
        "h",
        "ol"
      ],
      [
        "the",
        "me"
      ],
      [
        "No",
        "te"
      ],
      [
        "inte",
        "ger"
      ],
      [
        "Sys",
        "tem"
      ],
      [
        "C",
        "S"
      ],
      [
        "g",
        "row"
      ],
      [
        "en",
        "e"
      ],
      [
        "es",
        "ca"
      ],
      [
        "request",
        "s"
      ],
      [
        "run",
        "ning"
      ],
      [
        "plu",
        "gin"
      ],
      [
        "b",
        "i"
      ],
      [
        "st",
        "ill"
      ],
      [
        "feren",
        "ces"
      ],
      [
        "B",
        "ar"
      ],
      [
        "H",
        "ow"
      ],
      [
        "ri",
        "x"
      ],
      [
        "S",
        "pe"
      ],
      [
        "c",
        "tive"
      ],
      [
        "LI",
        "TY"
      ],
      [
        "B",
        "ack"
      ],
      [
        "C",
        "K"
      ],
      [
        "D",
        "ATE"
      ],
      [
        "G",
        "RO"
      ],
      [
        "m",
        "aster"
      ],
      [
        "p",
        "ur"
      ],
      [
        "re",
        "ci"
      ],
      [
        "on",
        "s"
      ],
      [
        "fa",
        "st"
      ],
      [
        "CH",
        "AN"
      ],
      [
        "ĠĠĠĠĠĠĠĠĠĠĠĠĠĠĠĠĠĠĠĠĠĠĠĠĠĠĠĠ",
        "Ġ"
      ],
      [
        "st",
        "mt"
      ],
      [
        "pa",
        "ir"
      ],
      [
        "fe",
        "ed"
      ],
      [
        "secon",
        "ds"
      ],
      [
        "BI",
        "LITY"
      ],
      [
        "h",
        "idden"
      ],
      [
        "to",
        "ol"
      ],
      [
        "con",
        "tri"
      ],
      [
        "lo",
        "aded"
      ],
      [
        "ING",
        "S"
      ],
      [
        "e",
        "ar"
      ],
      [
        "t",
        "u"
      ],
      [
        "re",
        "ed"
      ],
      [
        "ou",
        "gh"
      ],
      [
        "vel",
        "y"
      ],
      [
        "m",
        "ys"
      ],
      [
        "ar",
        "ing"
      ],
      [
        "ord",
        "in"
      ],
      [
        "h",
        "ard"
      ],
      [
        "m",
        "ate"
      ],
      [
        "re",
        "lease"
      ],
      [
        "it",
        "u"
      ],
      [
        "ra",
        "in"
      ],
      [
        "Ser",
        "ver"
      ],
      [
        "tern",
        "al"
      ],
      [
        "understand",
        "ing"
      ],
      [
        "b",
        "al"
      ],
      [
        "f",
        "p"
      ],
      [
        "he",
        "ight"
      ],
      [
        "pi",
        "ck"
      ],
      [
        "sample",
        "s"
      ],
      [
        "Contro",
        "l"
      ],
      [
        "F",
        "in"
      ],
      [
        "P",
        "ick"
      ],
      [
        "e",
        "ve"
      ],
      [
        "if",
        "t"
      ],
      [
        "am",
        "l"
      ],
      [
        "col",
        "lect"
      ],
      [
        "ite",
        "ra"
      ],
      [
        "lay",
        "out"
      ],
      [
        "heal",
        "th"
      ],
      [
        "h",
        "y"
      ],
      [
        "re",
        "la"
      ],
      [
        "set",
        "ting"
      ],
      [
        "exp",
        "lo"
      ],
      [
        "dif",
        "y"
      ],
      [
        "does",
        "n"
      ],
      [
        "y",
        "et"
      ],
      [
        "res",
        "h"
      ],
      [
        "arg",
        "e"
      ],
      [
        "sub",
        "ject"
      ],
      [
        "de",
        "code"
      ],
      [
        "us",
        "r"
      ],
      [
        "emp",
        "loye"
      ],
      [
        "Au",
        "th"
      ],
      [
        "Z",
        "Z"
      ],
      [
        "h",
        "ar"
      ],
      [
        "p",
        "rac"
      ],
      [
        "de",
        "le"
      ],
      [
        "IN",
        "TE"
      ],
      [
        "zer",
        "o"
      ],
      [
        "multip",
        "le"
      ],
      [
        "tiv",
        "ity"
      ],
      [
        "COM",
        "M"
      ],
      [
        "I",
        "mple"
      ],
      [
        "S",
        "u"
      ],
      [
        "U",
        "se"
      ],
      [
        "v",
        "m"
      ],
      [
        "in",
        "ner"
      ],
      [
        "st",
        "ub"
      ],
      [
        "mo",
        "dify"
      ],
      [
        "cl",
        "f"
      ],
      [
        "assert",
        "False"
      ],
      [
        "SE",
        "T"
      ],
      [
        "olu",
        "tion"
      ],
      [
        "conver",
        "t"
      ],
      [
        "Fore",
        "ign"
      ],
      [
        "A",
        "ction"
      ],
      [
        "a",
        "h"
      ],
      [
        "par",
        "sed"
      ],
      [
        "start",
        "swith"
      ],
      [
        "abo",
        "ve"
      ],
      [
        "D",
        "RA"
      ],
      [
        "R",
        "ed"
      ],
      [
        "T",
        "im"
      ],
      [
        "X",
        "X"
      ],
      [
        "Y",
        "RI"
      ],
      [
        "s",
        "le"
      ],
      [
        "th",
        "ink"
      ],
      [
        "pro",
        "vid"
      ],
      [
        "pro",
        "vide"
      ],
      [
        "end",
        "ing"
      ],
      [
        "cat",
        "alog"
      ],
      [
        "GRO",
        "UP"
      ],
      [
        "ac",
        "ross"
      ],
      [
        "gener",
        "ate"
      ],
      [
        "Fil",
        "ter"
      ],
      [
        "O",
        "ver"
      ],
      [
        "g",
        "over"
      ],
      [
        "y",
        "aml"
      ],
      [
        "co",
        "ded"
      ],
      [
        "ma",
        "king"
      ],
      [
        "be",
        "li"
      ],
      [
        "has",
        "attr"
      ],
      [
        "St",
        "ream"
      ],
      [
        "EN",
        "SE"
      ],
      [
        "Fe",
        "ature"
      ],
      [
        "star",
        "ted"
      ],
      [
        "O",
        "P"
      ],
      [
        "du",
        "ce"
      ],
      [
        "wri",
        "ting"
      ],
      [
        "por",
        "ted"
      ],
      [
        "E",
        "d"
      ],
      [
        "S",
        "ta"
      ],
      [
        "in",
        "her"
      ],
      [
        "st",
        "ack"
      ],
      [
        "ro",
        "ll"
      ],
      [
        "ra",
        "ises"
      ],
      [
        "ne",
        "eded"
      ],
      [
        "ari",
        "es"
      ],
      [
        "Pro",
        "per"
      ],
      [
        "LIC",
        "ENSE"
      ],
      [
        "M",
        "I"
      ],
      [
        "T",
        "emp"
      ],
      [
        "is",
        "m"
      ],
      [
        "ge",
        "ometry"
      ],
      [
        "An",
        "sible"
      ],
      [
        "Contain",
        "er"
      ],
      [
        "B",
        "ad"
      ],
      [
        "F",
        "O"
      ],
      [
        "m",
        "ar"
      ],
      [
        "exp",
        "ress"
      ],
      [
        "task",
        "s"
      ],
      [
        "cf",
        "g"
      ],
      [
        "F",
        "ind"
      ],
      [
        "L",
        "en"
      ],
      [
        "me",
        "ans"
      ],
      [
        "to",
        "wards"
      ],
      [
        "lo",
        "y"
      ],
      [
        "mo",
        "di"
      ],
      [
        "add",
        "r"
      ],
      [
        "TI",
        "ES"
      ],
      [
        "friend",
        "s"
      ],
      [
        "O",
        "S"
      ],
      [
        "t",
        "x"
      ],
      [
        "st",
        "o"
      ],
      [
        "sy",
        "nc"
      ],
      [
        "Ho",
        "wever"
      ],
      [
        "weight",
        "s"
      ],
      [
        "sof",
        "t"
      ],
      [
        "w",
        "on"
      ],
      [
        "sh",
        "ot"
      ],
      [
        "point",
        "s"
      ],
      [
        "thou",
        "gh"
      ],
      [
        "Imp",
        "ort"
      ],
      [
        "Foreign",
        "Key"
      ],
      [
        "v",
        "g"
      ],
      [
        "an",
        "al"
      ],
      [
        "top",
        "ic"
      ],
      [
        "INTE",
        "GER"
      ],
      [
        "F",
        "l"
      ],
      [
        "ad",
        "i"
      ],
      [
        "ne",
        "y"
      ],
      [
        "inter",
        "n"
      ],
      [
        "V",
        "I"
      ],
      [
        "w",
        "al"
      ],
      [
        "con",
        "d"
      ],
      [
        "vari",
        "ous"
      ],
      [
        "tran",
        "saction"
      ],
      [
        "esca",
        "pe"
      ],
      [
        "B",
        "U"
      ],
      [
        "en",
        "cy"
      ],
      [
        "ro",
        "p"
      ],
      [
        "pro",
        "te"
      ],
      [
        "ass",
        "o"
      ],
      [
        "set",
        "Up"
      ],
      [
        "OR",
        "T"
      ],
      [
        "some",
        "one"
      ],
      [
        "child",
        "ren"
      ],
      [
        "Example",
        "s"
      ],
      [
        "in",
        "f"
      ],
      [
        "he",
        "art"
      ],
      [
        "H",
        "O"
      ],
      [
        "app",
        "ly"
      ],
      [
        "Set",
        "tings"
      ],
      [
        "Ma",
        "ke"
      ],
      [
        "WARRAN",
        "TIES"
      ],
      [
        "D",
        "S"
      ],
      [
        "c",
        "ult"
      ],
      [
        "e",
        "le"
      ],
      [
        "as",
        "c"
      ],
      [
        "ent",
        "ries"
      ],
      [
        "ne",
        "ver"
      ],
      [
        "rel",
        "ation"
      ],
      [
        "contain",
        "er"
      ],
      [
        "learn",
        "ing"
      ],
      [
        "ORD",
        "ER"
      ],
      [
        "ho",
        "pe"
      ],
      [
        "w",
        "n"
      ],
      [
        "re",
        "main"
      ],
      [
        "be",
        "g"
      ],
      [
        "be",
        "come"
      ],
      [
        "struct",
        "ure"
      ],
      [
        "te",
        "ri"
      ],
      [
        "IN",
        "D"
      ],
      [
        "A",
        "f"
      ],
      [
        "h",
        "our"
      ],
      [
        "Re",
        "ad"
      ],
      [
        "late",
        "r"
      ],
      [
        "Po",
        "int"
      ],
      [
        "PO",
        "ST"
      ],
      [
        "Wid",
        "get"
      ],
      [
        "re",
        "verse"
      ],
      [
        "ap",
        "pe"
      ],
      [
        "am",
        "ount"
      ],
      [
        "contain",
        "s"
      ],
      [
        "So",
        "me"
      ],
      [
        "mu",
        "si"
      ],
      [
        "glob",
        "al"
      ],
      [
        "origin",
        "al"
      ],
      [
        "F",
        "ont"
      ],
      [
        "O",
        "K"
      ],
      [
        "se",
        "p"
      ],
      [
        "ou",
        "l"
      ],
      [
        "que",
        "s"
      ],
      [
        "Col",
        "our"
      ],
      [
        "c",
        "ra"
      ],
      [
        "g",
        "ent"
      ],
      [
        "ĉĉ",
        "čĊ"
      ],
      [
        "ind",
        "ent"
      ],
      [
        "F",
        "ree"
      ],
      [
        "W",
        "or"
      ],
      [
        "f",
        "ro"
      ],
      [
        "si",
        "x"
      ],
      [
        "end",
        "ar"
      ],
      [
        "sh",
        "are"
      ],
      [
        "ance",
        "s"
      ],
      [
        "SI",
        "GN"
      ],
      [
        "Ac",
        "count"
      ],
      [
        "ump",
        "y"
      ],
      [
        "C",
        "an"
      ],
      [
        "c",
        "b"
      ],
      [
        "ap",
        "ache"
      ],
      [
        "list",
        "s"
      ],
      [
        "sy",
        "mp"
      ],
      [
        "L",
        "et"
      ],
      [
        "N",
        "ULL"
      ],
      [
        "f",
        "s"
      ],
      [
        "re",
        "load"
      ],
      [
        "or",
        "ph"
      ],
      [
        "sel",
        "ves"
      ],
      [
        "ch",
        "ain"
      ],
      [
        "ge",
        "st"
      ],
      [
        "ator",
        "s"
      ],
      [
        "a",
        "red"
      ],
      [
        "e",
        "m"
      ],
      [
        "fi",
        "xt"
      ],
      [
        "lo",
        "s"
      ],
      [
        "of",
        "ten"
      ],
      [
        "get",
        "attr"
      ],
      [
        "Se",
        "lection"
      ],
      [
        "Un",
        "less"
      ],
      [
        "BO",
        "X"
      ],
      [
        "Bit",
        "map"
      ],
      [
        "S",
        "ON"
      ],
      [
        "T",
        "ensor"
      ],
      [
        "a",
        "a"
      ],
      [
        "d",
        "ue"
      ],
      [
        "log",
        "in"
      ],
      [
        "sle",
        "ep"
      ],
      [
        "E",
        "xt"
      ],
      [
[...]
