{
  "version": "1.0",
  "truncation": null,
  "padding": null,
  "added_tokens": [
    {
      "id": 0,
      "content": "<unk>",
      "single_word": false,
      "lstrip": false,
      "rstrip": false,
      "normalized": false,
      "special": true
    },
    {
      "id": 1,
      "content": "<pad>",
      "single_word": false,
      "lstrip": false,
      "rstrip": false,
      "normalized": false,
      "special": true
    },
    {
      "id": 2,
      "content": "<eos>",
      "single_word": false,
      "lstrip": false,
      "rstrip": false,
      "normalized": false,
      "special": true
    }
  ],
  "normalizer": null,
  "pre_tokenizer": {
    "type": "Sequence",
    "pretokenizers": [
      {
        "type": "Split",
        "pattern": {
          "Regex": "\\p{L}+|\\p{N}|[^\\s\\p{L}\\p{N}]|\\s+"
        },
        "behavior": "Isolated",
        "invert": false
      },
      {
        "type": "ByteLevel",
        "add_prefix_space": false,
        "trim_offsets": true,
        "use_regex": false
      }
    ]
  },
  "post_processor": null,
  "decoder": {
    "type": "ByteLevel",
    "add_prefix_space": true,
    "trim_offsets": true,
    "use_regex": true
  },
  "model": {
    "type": "BPE",
    "dropout": null,
    "unk_token": "<unk>",
    "continuing_subword_prefix": null,
    "end_of_word_suffix": null,
    "fuse_unk": false,
    "byte_fallback": false,
    "ignore_merges": false,
    "vocab": {
      "<unk>": 0,
      "<pad>": 1,
      "<eos>": 2,
      "!": 3,
      "\"": 4,
      "#": 5,
      "$": 6,
      "%": 7,
      "&": 8,
      "'": 9,
      "(": 10,
      ")": 11,
      "*": 12,
      "+": 13,
      ",": 14,
      "-": 15,
      ".": 16,
      "/": 17,
      "0": 18,
      "1": 19,
      "2": 20,
      "3": 21,
      "4": 22,
      "5": 23,
      "6": 24,
      "7": 25,
      "8": 26,
      "9": 27,
      ":": 28,
      ";": 29,
      "<": 30,
      "=": 31,
      ">": 32,
      "?": 33,
      "@": 34,
      "A": 35,
      "B": 36,
      "C": 37,
      "D": 38,
      "E": 39,
      "F": 40,
      "G": 41,
      "H": 42,
      "I": 43,
      "J": 44,
      "K": 45,
      "L": 46,
      "M": 47,
      "N": 48,
      "O": 49,
      "P": 50,
      "Q": 51,
      "R": 52,
      "S": 53,
      "T": 54,
      "U": 55,
      "V": 56,
      "W": 57,
      "X": 58,
      "Y": 59,
      "Z": 60,
      "[": 61,
      "\\": 62,
      "]": 63,
      "^": 64,
      "_": 65,
      "`": 66,
      "a": 67,
      "b": 68,
      "c": 69,
      "d": 70,
      "e": 71,
      "f": 72,
      "g": 73,
      "h": 74,
      "i": 75,
      "j": 76,
      "k": 77,
      "l": 78,
      "m": 79,
      "n": 80,
      "o": 81,
      "p": 82,
      "q": 83,
      "r": 84,
      "s": 85,
      "t": 86,
      "u": 87,
      "v": 88,
      "w": 89,
      "x": 90,
      "y": 91,
      "z": 92,
      "{": 93,
      "|": 94,
      "}": 95,
      "~": 96,
      "¡": 97,
      "¢": 98,
      "£": 99,
      "¤": 100,
      "¥": 101,
      "¦": 102,
      "§": 103,
      "¨": 104,
      "©": 105,
      "ª": 106,
      "«": 107,
      "¬": 108,
      "®": 109,
      "¯": 110,
      "°": 111,
      "±": 112,
      "²": 113,
      "³": 114,
      "´": 115,
      "µ": 116,
      "¶": 117,
      "·": 118,
      "¸": 119,
      "¹": 120,
      "º": 121,
      "»": 122,
      "¼": 123,
      "½": 124,
      "¾": 125,
      "¿": 126,
      "À": 127,
      "Á": 128,
      "Â": 129,
      "Ã": 130,
      "Ä": 131,
      "Å": 132,
      "Æ": 133,
      "Ç": 134,
      "È": 135,
      "É": 136,
      "Ê": 137,
      "Ë": 138,
      "Ì": 139,
      "Í": 140,
      "Î": 141,
      "Ï": 142,
      "Ð": 143,
      "Ñ": 144,
      "Ò": 145,
      "Ó": 146,
      "Ô": 147,
      "Õ": 148,
      "Ö": 149,
      "×": 150,
      "Ø": 151,
      "Ù": 152,
      "Ú": 153,
      "Û": 154,
      "Ü": 155,
      "Ý": 156,
      "Þ": 157,
      "ß": 158,
      "à": 159,
      "á": 160,
      "â": 161,
      "ã": 162,
      "ä": 163,
      "å": 164,
      "æ": 165,
      "ç": 166,
      "è": 167,
      "é": 168,
      "ê": 169,
      "ë": 170,
      "ì": 171,
      "í": 172,
      "î": 173,
      "ï": 174,
      "ð": 175,
      "ñ": 176,
      "ò": 177,
      "ó": 178,
      "ô": 179,
      "õ": 180,
      "ö": 181,
      "÷": 182,
      "ø": 183,
      "ù": 184,
      "ú": 185,
      "û": 186,
      "ü": 187,
      "ý": 188,
      "þ": 189,
      "ÿ": 190,
      "Ā": 191,
      "ā": 192,
      "Ă": 193,
      "ă": 194,
      "Ą": 195,
      "ą": 196,
      "Ć": 197,
      "ć": 198,
      "Ĉ": 199,
      "ĉ": 200,
      "Ċ": 201,
      "ċ": 202,
      "Č": 203,
      "č": 204,
      "Ď": 205,
      "ď": 206,
      "Đ": 207,
      "đ": 208,
      "Ē": 209,
      "ē": 210,
      "Ĕ": 211,
      "ĕ": 212,
      "Ė": 213,
      "ė": 214,
      "Ę": 215,
      "ę": 216,
      "Ě": 217,
      "ě": 218,
      "Ĝ": 219,
      "ĝ": 220,
      "Ğ": 221,
      "ğ": 222,
      "Ġ": 223,
      "ġ": 224,
      "Ģ": 225,
      "ģ": 226,
      "Ĥ": 227,
      "ĥ": 228,
      "Ħ": 229,
      "ħ": 230,
      "Ĩ": 231,
      "ĩ": 232,
      "Ī": 233,
      "ī": 234,
      "Ĭ": 235,
      "ĭ": 236,
      "Į": 237,
      "į": 238,
      "İ": 239,
      "ı": 240,
      "Ĳ": 241,
      "ĳ": 242,
      "Ĵ": 243,
      "ĵ": 244,
      "Ķ": 245,
      "ķ": 246,
      "ĸ": 247,
      "Ĺ": 248,
      "ĺ": 249,
      "Ļ": 250,
      "ļ": 251,
      "Ľ": 252,
      "ľ": 253,
      "Ŀ": 254,
      "ŀ": 255,
      "Ł": 256,
      "ł": 257,
      "Ń": 258,
      "ĠĠ": 259,
      "ĠĠĠĠ": 260,
      "er": 261,
      "nt": 262,
      "at": 263,
      "re": 264,
      "on": 265,
      "st": 266,
      "ent": 267,
      "ti": 268,
      "ĠĠĠĠĠĠĠĠ": 269,
      "me": 270,
      "or": 271,
      "in": 272,
      "ar": 273,
      "li": 274,
      "de": 275,
      "str": 276,
      "ev": 277,
      "lo": 278,
      "event": 279,
      "ro": 280,
      "et": 281,
      "le": 282,
      "co": 283,
      "ur": 284,
      "ad": 285,
      "ame": 286,
      "es": 287,
      "id": 288,
      "ct": 289,
      "qu": 290,
      "ser": 291,
      "ret": 292,
      "to": 293,
      "en": 294,
      "par": 295,
      "ata": 296,
      "it": 297,
      "tion": 298,
      "ck": 299,
      "def": 300,
      "urn": 301,
      "unt": 302,
      "user": 303,
      "lient": 304,
      "return": 305,
      "ed": 306,
      "si": 307,
      "der": 308,
      "fi": 309,
      "pat": 310,
      "ub": 311,
      "time": 312,
      "load": 313,
      "ag": 314,
      "ta": 315,
      "ue": 316,
      "ate": 317,
      "ob": 318,
      "ble": 319,
      "un": 320,
      "uck": 321,
      "ery": 322,
      "ER": 323,
      "order": 324,
      "ect": 325,
      "path": 326,
      "Data": 327,
      "rame": 328,
      "events": 329,
      "table": 330,
      "ucket": 331,
      "Frame": 332,
      "ject": 333,
      "DataFrame": 334,
      "ch": 335,
      "client": 336,
      "ay": 337,
      "col": 338,
      "as": 339,
      "bucket": 340,
      "ey": 341,
      "um": 342,
      "di": 343,
      "al": 344,
      "an": 345,
      "ap": 346,
      "mo": 347,
      "name": 348,
      "ry": 349,
      "wit": 350,
      "tition": 351,
      "count": 352,
      "query": 353,
      "sion": 354,
      "with": 355,
      "ig": 356,
      "key": 357,
      "ut": 358,
      "partition": 359,
      "RO": 360,
      "ce": 361,
      "ow": 362,
      "up": 363,
      "ing": 364,
      "ession": 365,
      "pro": 366,
      "rev": 367,
      "row": 368,
      "country": 369,
      "AS": 370,
      "LE": 371,
      "df": 372,
      "ec": 373,
      "mp": 374,
      "project": 375,
      "IN": 376,
      "for": 377,
      "sh": 378,
      "sub": 379,
      "th": 380,
      "AT": 381,
      "ON": 382,
      "RE": 383,
      "data": 384,
      "date": 385,
      "job": 386,
      "ly": 387,
      "pd": 388,
      "ort": 389,
      "Non": 390,
      "bo": 391,
      "big": 392,
      "per": 393,
      "sc": 394,
      "session": 395,
      "park": 396,
      "None": 397,
      "bigquery": 398,
      "BY": 399,
      "TI": 400,
      "ali": 401,
      "amo": 402,
      "imp": 403,
      "ma": 404,
      "pay": 405,
      "res": 406,
      "lob": 407,
      "enue": 408,
      "revenue": 409,
      "the": 410,
      "amount": 411,
      "import": 412,
      "payload": 413,
      "NO": 414,
      "SE": 415,
      "ST": 416,
      "ri": 417,
      "EX": 418,
      "FRO": 419,
      "NU": 420,
      "blob": 421,
      "con": 422,
      "day": 423,
      "el": 424,
      "ex": 425,
      "ol": 426,
      "list": 427,
      "ite": 428,
      "orders": 429,
      "rows": 430,
      "boto": 431,
      "NOT": 432,
      "FROM": 433,
      "AL": 434,
      "CT": 435,
      "Client": 436,
      "fro": 437,
      "lue": 438,
      "ption": 439,
      "ql": 440,
      "run": 441,
      "ul": 442,
      "quet": 443,
      "fix": 444,
      "dict": 445,
      "and": 446,
      "scri": 447,
      "from": 448,
      "CS": 449,
      "OR": 450,
      "Qu": 451,
      "ber": 452,
      "cs": 453,
      "dow": 454,
      "gap": 455,
      "if": 456,
      "int": 457,
      "ss": 458,
      "sql": 459,
      "ter": 460,
      "wr": 461,
      "refix": 462,
      "ĠĠĠĠĠĠĠĠĠĠĠĠ": 463,
      "arg": 464,
      "users": 465,
      "object": 466,
      "che": 467,
      "umn": 468,
      "app": 469,
      "ecret": 470,
      "subscri": 471,
      "ATE": 472,
      "eld": 473,
      "Query": 474,
      "By": 475,
      "LL": 476,
      "ast": 477,
      "by": 478,
      "cal": 479,
      "da": 480,
      "iv": 481,
      "pub": 482,
      "prefix": 483,
      "se": 484,
      "tr": 485,
      "ref": 486,
      "ine": 487,
      "end": 488,
      "file": 489,
      "age": 490,
      "agg": 491,
      "LECT": 492,
      "SELECT": 493,
      "NULL": 494,
      "csv": 495,
      "chema": 496,
      "ED": 497,
      "TER": 498,
      "WH": 499,
      "ack": 500,
      "glue": 501,
      "ion": 502,
      "ield": 503,
      "our": 504,
      "set": 505,
      "spark": 506,
      "ver": 507,
      "eri": 508,
      "mess": 509,
      "lish": 510,
      "local": 511,
      "parquet": 512,
      "fig": 513,
      "unk": 514,
      "partitioned": 515,
      "write": 516,
      "ource": 517,
      "CO": 518,
      "DER": 519,
      "IST": 520,
      "SU": 521,
      "Spark": 522,
      "UP": 523,
      "gro": 524,
      "get": 525,
      "ily": 526,
      "js": 527,
      "pe": 528,
      "sum": 529,
      "source": 530,
      "ype": 531,
      "read": 532,
      "reate": 533,
      "ena": 534,
      "ERE": 535,
      "chunk": 536,
      "dataset": 537,
      "resp": 538,
      "CSV": 539,
      "WHERE": 540,
      "group": 541,
      "json": 542,
      "AB": 543,
      "AR": 544,
      "CRE": 545,
      "Col": 546,
      "ES": 547,
      "IF": 548,
      "Job": 549,
      "am": 550,
      "ant": 551,
      "min": 552,
      "nload": 553,
      "now": 554,
      "pi": 555,
      "rn": 556,
      "ror": 557,
      "sp": 558,
      "secret": 559,
      "type": 560,
      "ze": 561,
      "reg": 562,
      "indow": 563,
      "tota": 564,
      "patter": 565,
      "ages": 566,
      "ase": 567,
      "mode": 568,
      "withCol": 569,
      "EXIST": 570,
      "config": 571,
      "ult": 572,
      "subscription": 573,
      "daily": 574,
      "publish": 575,
      "messages": 576,
      "ABLE": 577,
      "CREATE": 578,
      "total": 579,
      "pattern": 580,
      "withColumn": 581,
      "EXISTS": 582,
      "Big": 583,
      "Co": 584,
      "Field": 585,
      "GRO": 586,
      "Id": 587,
      "JS": 588,
      "MAT": 589,
      "Par": 590,
      "Pub": 591,
      "PAR": 592,
      "Run": 593,
      "Sub": 594,
      "Session": 595,
      "Schema": 596,
      "Tr": 597,
      "UN": 598,
      "VAL": 599,
      "cast": 600,
      "ist": 601,
      "jo": 602,
      "py": 603,
      "pag": 604,
      "val": 605,
      "vali": 606,
      "wh": 607,
      "ering": 608,
      "ation": 609,
      "red": 610,
      "onse": 611,
      "ents": 612,
      "orage": 613,
      "art": 614,
      "ded": 615,
      "ids": 616,
      "topi": 617,
      "fil": 618,
      "cols": 619,
      "utes": 620,
      "ecu": 621,
      "ING": 622,
      "shif": 623,
      "TION": 624,
      "TITION": 625,
      "aliz": 626,
      "exce": 627,
      "ORDER": 628,
      "into": 629,
      "append": 630,
      "eries": 631,
      "SUM": 632,
      "response": 633,
      "minutes": 634,
      "patterns": 635,
      "BigQuery": 636,
      "GROUP": 637,
      "JSON": 638,
      "PARTITION": 639,
      "SchemaField": 640,
      "True": 641,
      "join": 642,
      "pagin": 643,
      "valid": 644,
      "topic": 645,
      "shift": 646,
      "AM": 647,
      "Bucket": 648,
      "Create": 649,
      "DATE": 650,
      "EN": 651,
      "Ex": 652,
      "FOR": 653,
      "Key": 654,
      "Lo": 655,
      "ME": 656,
      "QU": 657,
      "St": 658,
      "Secret": 659,
      "TABLE": 660,
      "Window": 661,
      "cur": 662,
      "dro": 663,
      "ep": 664,
      "fun": 665,
      "gn": 666,
      "gine": 667,
      "hena": 668,
      "ile": 669,
      "larg": 670,
      "os": 671,
      "out": 672,
      "over": 673,
      "pur": 674,
      "pol": 675,
      "schema": 676,
      "uf": 677,
      "us": 678,
      "ve": 679,
      "vi": 680,
      "athena": 681,
      "requ": 682,
      "rece": 683,
      "ream": 684,
      "state": 685,
      "storage": 686,
      "start": 687,
      "tive": 688,
      "ory": 689,
      "inde": 690,
      "invalid": 691,
      "arant": 692,
      "low": 693,
      "quarant": 694,
      "sert": 695,
      "engine": 696,
      "sign": 697,
      "ERI": 698,
      "orderBy": 699,
      "column": 700,
      "uments": 701,
      "dim": 702,
      "all": 703,
      "keys": 704,
      "upload": 705,
      "TIME": 706,
      "alias": 707,
      "max": 708,
      "payloads": 709,
      "ull": 710,
      "download": 711,
      "subscriber": 712,
      "ived": 713,
      "SparkSession": 714,
      "groupby": 715,
      "redshift": 716,
      "filter": 717,
      "ecution": 718,
      "drop": 719,
      "func": 720,
      "purch": 721,
      "received": 722,
      "index": 723,
      "quarantine": 724,
      "AN": 725,
      "DEX": 726,
      "DES": 727,
      "Er": 728,
      "FA": 729,
      "Glue": 730,
      "GCS": 731,
      "IS": 732,
      "IT": 733,
      "IRE": 734,
      "LU": 735,
      "Name": 736,
      "OV": 737,
      "PY": 738,
      "RING": 739,
      "Series": 740,
      "To": 741,
      "Up": 742,
      "au": 743,
      "act": 744,
      "bq": 745,
      "base": 746,
      "cl": 747,
      "create": 748,
      "db": 749,
      "ds": 750,
      "dy": 751,
      "dat": 752,
      "duck": 753,
      "ew": 754,
      "ead": 755,
      "fact": 756,
      "gle": 757,
      "il": 758,
      "ize": 759,
      "ializ": 760,
      "kw": 761,
      "lag": 762,
      "mer": 763,
      "mat": 764,
      "mory": 765,
      "num": 766,
      "oo": 767,
      "ot": 768,
      "osi": 769,
      "pl": 770,
      "put": 771,
      "prev": 772,
      "ra": 773,
      "ru": 774,
      "ud": 775,
      "ust": 776,
      "ues": 777,
      "we": 778,
      "error": 779,
      "nth": 780,
      "ator": 781,
      "stream": 782,
      "memory": 783,
      "ines": 784,
      "ars": 785,
      "deco": 786,
      "desc": 787,
      "loud": 788,
      "road": 789,
      "uri": 790,
      "serializ": 791,
      "size": 792,
      "loads": 793,
      "ager": 794,
      "under": 795,
      "disp": 796,
      "anager": 797,
      "month": 798,
      "utf": 799,
      "partitionBy": 800,
      "ceber": 801,
      "upper": 802,
      "INTER": 803,
      "INDEX": 804,
      "REQU": 805,
      "result": 806,
      "SET": 807,
      "STRING": 808,
      "NUM": 809,
      "conn": 810,
      "days": 811,
      "exist": 812,
      "item": 813,
      "ALTER": 814,
      "args": 815,
      "arguments": 816,
      "QueryEx": 817,
      "dau": 818,
      "ivot": 819,
      "pubsub": 820,
      "COPY": 821,
      "chunksize": 822,
      "JobRun": 823,
      "regate": 824,
      "region": 825,
      "publisher": 826,
      "Parquet": 827,
      "values": 828,
      "JSONB": 829,
      "paginator": 830,
      "FORMAT": 831,
      "Load": 832,
      "large": 833,
      "uff": 834,
      "using": 835,
      "via": 836,
      "lower": 837,
      "engineering": 838,
      "ERIAL": 839,
      "columns": 840,
      "function": 841,
      "purchase": 842,
      "DESC": 843,
      "Error": 844,
      "IRED": 845,
      "OVER": 846,
      "auto": 847,
      "clust": 848,
      "duckdb": 849,
      "facts": 850,
      "kwargs": 851,
      "merg": 852,
      "oogle": 853,
      "osition": 854,
      "rule": 855,
      "errors": 856,
      "roadcast": 857,
      "disposition": 858,
      "ceberg": 859,
      "INTERVAL": 860,
      "REQUIRED": 861,
      "QueryExecution": 862,
      "AP": 863,
      "AW": 864,
      "Ar": 865,
      "Ath": 866,
      "ADER": 867,
      "BER": 868,
      "CC": 869,
      "Con": 870,
      "CON": 871,
      "Dow": 872,
      "EW": 873,
      "EED": 874,
      "EADER": 875,
      "FI": 876,
      "FL": 877,
      "HEADER": 878,
      "IG": 879,
      "IZ": 880,
      "In": 881,
      "ILE": 882,
      "IAM": 883,
      "IEW": 884,
      "LTER": 885,
      "List": 886,
      "MN": 887,
      "Manager": 888,
      "Pol": 889,
      "QL": 890,
      "Ret": 891,
      "RUN": 892,
      "Str": 893,
      "SING": 894,
      "SQL": 895,
      "TL": 896,
      "TO": 897,
      "Ti": 898,
      "TEX": 899,
      "TRUN": 900,
      "UES": 901,
      "USING": 902,
      "VIEW": 903,
      "WIT": 904,
      "ac": 905,
      "af": 906,
      "av": 907,
      "ain": 908,
      "able": 909,
      "ault": 910,
      "bu": 911,
      "bat": 912,
      "bet": 913,
      "broadcast": 914,
      "cry": 915,
      "cloud": 916,
      "dt": 917,
      "est": 918,
      "eep": 919,
      "fl": 920,
      "fin": 921,
      "flo": 922,
      "fut": 923,
      "fast": 924,
      "gin": 925,
      "glob": 926,
      "google": 927,
      "hi": 928,
      "how": 929,
      "head": 930,
      "ide": 931,
      "ise": 932,
      "iam": 933,
      "iceberg": 934,
      "ked": 935,
      "lf": 936,
      "lon": 937,
      "late": 938,
      "lines": 939,
      "ment": 940,
      "mar": 941,
      "mit": 942,
      "no": 943,
      "ner": 944,
      "napp": 945,
      "new": 946,
      "of": 947,
      "ok": 948,
      "ost": 949,
      "oid": 950,
      "ps": 951,
      "page": 952,
      "pull": 953,
      "pivot": 954,
      "rk": 955,
      "rs": 956,
      "sm": 957,
      "sor": 958,
      "sec": 959,
      "sort": 960,
      "snapp": 961,
      "tes": 962,
      "tect": 963,
      "ure": 964,
      "window": 965,
      "yield": 966,
      "ĠĠĠĠĠ": 967,
      "ĠĠĠĠĠĠ": 968,
      "ntain": 969,
      "attr": 970,
      "rent": 971,
      "rect": 972,
      "only": 973,
      "onds": 974,
      "stin": 975,
      "ĠĠĠĠĠĠĠĠĠ": 976,
      "mePar": 977,
      "insert": 978,
      "arn": 979,
      "lib": 980,
      "lip": 981,
      "dest": 982,
      "detect": 983,
      "role": 984,
      "comp": 985,
      "contain": 986,
      "quant": 987,
      "queries": 988,
      "server": 989,
      "ended": 990,
      "parse": 991,
      "default": 992,
      "eds": 993,
      "side": 994,
      "field": 995,
      "obj": 996,
      "ordered": 997,
      "chan": 998,
      "direct": 999,
      "distin": 1000,
      "titioning": 1001,
      "ute": 1002,
      "ROW": 1003,
      "updat": 1004,
      "format": 1005,
      "shuff": 1006,
      "database": 1007,
      "body": 1008,
      "ression": 1009,
      "STAM": 1010,
      "ext": 1011,
      "ClientError": 1012,
      "andas": 1013,
      "writ": 1014,
      "bytes": 1015,
      "true": 1016,
      "agged": 1017,
      "aggregate": 1018,
      "NULLABLE": 1019,
      "erializ": 1020,
      "message": 1021,
      "COUN": 1022,
      "COLU": 1023
    },
    "merges": [
      [
        "Ġ",
        "Ġ"
      ],
      [
        "ĠĠ",
        "ĠĠ"
      ],
      [
        "e",
        "r"
      ],
      [
        "n",
        "t"
      ],
      [
        "a",
        "t"
      ],
      [
        "r",
        "e"
      ],
      [
        "o",
        "n"
      ],
      [
        "s",
        "t"
      ],
      [
        "e",
        "nt"
      ],
      [
        "t",
        "i"
      ],
      [
        "ĠĠĠĠ",
        "ĠĠĠĠ"
      ],
      [
        "m",
        "e"
      ],
      [
        "o",
        "r"
      ],
      [
        "i",
        "n"
      ],
      [
        "a",
        "r"
      ],
      [
        "l",
        "i"
      ],
      [
        "d",
        "e"
      ],
      [
        "st",
        "r"
      ],
      [
        "e",
        "v"
      ],
      [
        "l",
        "o"
      ],
      [
        "ev",
        "ent"
      ],
      [
        "r",
        "o"
      ],
      [
        "e",
        "t"
      ],
      [
        "l",
        "e"
      ],
      [
        "c",
        "o"
      ],
      [
        "u",
        "r"
      ],
      [
        "a",
        "d"
      ],
      [
        "a",
        "me"
      ],
      [
        "e",
        "s"
      ],
      [
        "i",
        "d"
      ],
      [
        "c",
        "t"
      ],
      [
        "q",
        "u"
      ],
      [
        "s",
        "er"
      ],
      [
        "re",
        "t"
      ],
      [
        "t",
        "o"
      ],
      [
        "e",
        "n"
      ],
      [
        "p",
        "ar"
      ],
      [
        "at",
        "a"
      ],
      [
        "i",
        "t"
      ],
      [
        "ti",
        "on"
      ],
      [
        "c",
        "k"
      ],
      [
        "de",
        "f"
      ],
      [
        "ur",
        "n"
      ],
      [
        "u",
        "nt"
      ],
      [
        "u",
        "ser"
      ],
      [
        "li",
        "ent"
      ],
      [
        "ret",
        "urn"
      ],
      [
        "e",
        "d"
      ],
      [
        "s",
        "i"
      ],
      [
        "d",
        "er"
      ],
      [
        "f",
        "i"
      ],
      [
        "p",
        "at"
      ],
      [
        "u",
        "b"
      ],
      [
        "ti",
        "me"
      ],
      [
        "lo",
        "ad"
      ],
      [
        "a",
        "g"
      ],
      [
        "t",
        "a"
      ],
      [
        "u",
        "e"
      ],
      [
        "at",
        "e"
      ],
      [
        "o",
        "b"
      ],
      [
        "b",
        "le"
      ],
      [
        "u",
        "n"
      ],
      [
        "u",
        "ck"
      ],
      [
        "er",
        "y"
      ],
      [
        "E",
        "R"
      ],
      [
        "or",
        "der"
      ],
      [
        "e",
        "ct"
      ],
      [
        "pat",
        "h"
      ],
      [
        "D",
        "ata"
      ],
      [
        "r",
        "ame"
      ],
      [
        "event",
        "s"
      ],
      [
        "ta",
        "ble"
      ],
      [
        "uck",
        "et"
      ],
      [
        "F",
        "rame"
      ],
      [
        "j",
        "ect"
      ],
      [
        "Data",
        "Frame"
      ],
      [
        "c",
        "h"
      ],
      [
        "c",
        "lient"
      ],
      [
        "a",
        "y"
      ],
      [
        "co",
        "l"
      ],
      [
        "a",
        "s"
      ],
      [
        "b",
        "ucket"
      ],
      [
        "e",
        "y"
      ],
      [
        "u",
        "m"
      ],
      [
        "d",
        "i"
      ],
      [
        "a",
        "l"
      ],
      [
        "a",
        "n"
      ],
      [
        "a",
        "p"
      ],
      [
        "m",
        "o"
      ],
      [
        "n",
        "ame"
      ],
      [
        "r",
        "y"
      ],
      [
        "w",
        "it"
      ],
      [
        "ti",
        "tion"
      ],
      [
        "co",
        "unt"
      ],
      [
        "qu",
        "ery"
      ],
      [
        "si",
        "on"
      ],
      [
        "wit",
        "h"
      ],
      [
        "i",
        "g"
      ],
      [
        "k",
        "ey"
      ],
      [
        "u",
        "t"
      ],
      [
        "par",
        "tition"
      ],
      [
        "R",
        "O"
      ],
      [
        "c",
        "e"
      ],
      [
        "o",
        "w"
      ],
      [
        "u",
        "p"
      ],
      [
        "in",
        "g"
      ],
      [
        "es",
        "sion"
      ],
      [
        "p",
        "ro"
      ],
      [
        "re",
        "v"
      ],
      [
        "ro",
        "w"
      ],
      [
        "count",
        "ry"
      ],
      [
        "A",
        "S"
      ],
      [
        "L",
        "E"
      ],
      [
        "d",
        "f"
      ],
      [
        "e",
        "c"
      ],
      [
        "m",
        "p"
      ],
      [
        "pro",
        "ject"
      ],
      [
        "I",
        "N"
      ],
      [
        "f",
        "or"
      ],
      [
        "s",
        "h"
      ],
      [
        "s",
        "ub"
      ],
      [
        "t",
        "h"
      ],
      [
        "A",
        "T"
      ],
      [
        "O",
        "N"
      ],
      [
        "R",
        "E"
      ],
      [
        "d",
        "ata"
      ],
      [
        "d",
        "ate"
      ],
      [
        "j",
        "ob"
      ],
      [
        "l",
        "y"
      ],
      [
        "p",
        "d"
      ],
      [
        "or",
        "t"
      ],
      [
        "N",
        "on"
      ],
      [
        "b",
        "o"
      ],
      [
        "b",
        "ig"
      ],
      [
        "p",
        "er"
      ],
      [
        "s",
        "c"
      ],
      [
        "s",
        "ession"
      ],
      [
        "par",
        "k"
      ],
      [
        "Non",
        "e"
      ],
      [
        "big",
        "query"
      ],
      [
        "B",
        "Y"
      ],
      [
        "T",
        "I"
      ],
      [
        "a",
        "li"
      ],
      [
        "a",
        "mo"
      ],
      [
        "i",
        "mp"
      ],
      [
        "m",
        "a"
      ],
      [
        "p",
        "ay"
      ],
      [
        "re",
        "s"
      ],
      [
        "lo",
        "b"
      ],
      [
        "en",
        "ue"
      ],
      [
        "rev",
        "enue"
      ],
      [
        "th",
        "e"
      ],
      [
        "amo",
        "unt"
      ],
      [
        "imp",
        "ort"
      ],
      [
        "pay",
        "load"
      ],
      [
        "N",
        "O"
      ],
      [
        "S",
        "E"
      ],
      [
        "S",
        "T"
      ],
      [
        "r",
        "i"
      ],
      [
        "E",
        "X"
      ],
      [
        "F",
        "RO"
      ],
      [
        "N",
        "U"
      ],
      [
        "b",
        "lob"
      ],
      [
        "c",
        "on"
      ],
      [
        "d",
        "ay"
      ],
      [
        "e",
        "l"
      ],
      [
        "e",
        "x"
      ],
      [
        "o",
        "l"
      ],
      [
        "li",
        "st"
      ],
      [
        "it",
        "e"
      ],
      [
        "order",
        "s"
      ],
      [
        "row",
        "s"
      ],
      [
        "bo",
        "to"
      ],
      [
        "NO",
        "T"
      ],
      [
        "FRO",
        "M"
      ],
      [
        "A",
        "L"
      ],
      [
        "C",
        "T"
      ],
      [
        "C",
        "lient"
      ],
      [
        "f",
        "ro"
      ],
      [
        "l",
        "ue"
      ],
      [
        "p",
        "tion"
      ],
      [
        "q",
        "l"
      ],
      [
        "r",
        "un"
      ],
      [
        "u",
        "l"
      ],
      [
        "qu",
        "et"
      ],
      [
        "fi",
        "x"
      ],
      [
        "di",
        "ct"
      ],
      [
        "an",
        "d"
      ],
      [
        "sc",
        "ri"
      ],
      [
        "fro",
        "m"
      ],
      [
        "C",
        "S"
      ],
      [
        "O",
        "R"
      ],
      [
        "Q",
        "u"
      ],
      [
        "b",
        "er"
      ],
      [
        "c",
        "s"
      ],
      [
        "d",
        "ow"
      ],
      [
        "g",
        "ap"
      ],
      [
        "i",
        "f"
      ],
      [
        "i",
        "nt"
      ],
      [
        "s",
        "s"
      ],
      [
        "s",
        "ql"
      ],
      [
        "t",
        "er"
      ],
      [
        "w",
        "r"
      ],
      [
        "re",
        "fix"
      ],
      [
        "ĠĠĠĠĠĠĠĠ",
        "ĠĠĠĠ"
      ],
      [
        "ar",
        "g"
      ],
      [
        "user",
        "s"
      ],
      [
        "ob",
        "ject"
      ],
      [
        "ch",
        "e"
      ],
      [
        "um",
        "n"
      ],
      [
        "ap",
        "p"
      ],
      [
        "ec",
        "ret"
      ],
      [
        "sub",
        "scri"
      ],
      [
        "AT",
        "E"
      ],
      [
        "el",
        "d"
      ],
      [
        "Qu",
        "ery"
      ],
      [
        "B",
        "y"
      ],
      [
        "L",
        "L"
      ],
      [
        "a",
        "st"
      ],
      [
        "b",
        "y"
      ],
      [
        "c",
        "al"
      ],
      [
        "d",
        "a"
      ],
      [
        "i",
        "v"
      ],
      [
        "p",
        "ub"
      ],
      [
        "p",
        "refix"
      ],
      [
        "s",
        "e"
      ],
      [
        "t",
        "r"
      ],
      [
        "re",
        "f"
      ],
      [
        "in",
        "e"
      ],
      [
        "en",
        "d"
      ],
      [
        "fi",
        "le"
      ],
      [
        "ag",
        "e"
      ],
      [
        "ag",
        "g"
      ],
      [
        "LE",
        "CT"
      ],
      [
        "SE",
        "LECT"
      ],
      [
        "NU",
        "LL"
      ],
      [
        "cs",
        "v"
      ],
      [
        "che",
        "ma"
      ],
      [
        "E",
        "D"
      ],
      [
        "T",
        "ER"
      ],
      [
        "W",
        "H"
      ],
      [
        "a",
        "ck"
      ],
      [
        "g",
        "lue"
      ],
      [
        "i",
        "on"
      ],
      [
        "i",
        "eld"
      ],
      [
        "o",
        "ur"
      ],
      [
        "s",
        "et"
      ],
      [
        "s",
        "park"
      ],
      [
        "v",
        "er"
      ],
      [
        "er",
        "i"
      ],
      [
        "me",
        "ss"
      ],
      [
        "li",
        "sh"
      ],
      [
        "lo",
        "cal"
      ],
      [
        "par",
        "quet"
      ],
      [
        "fi",
        "g"
      ],
      [
        "un",
        "k"
      ],
      [
        "partition",
        "ed"
      ],
      [
        "wr",
        "ite"
      ],
      [
        "our",
        "ce"
      ],
      [
        "C",
        "O"
      ],
      [
        "D",
        "ER"
      ],
      [
        "I",
        "ST"
      ],
      [
        "S",
        "U"
      ],
      [
        "S",
        "park"
      ],
      [
        "U",
        "P"
      ],
      [
        "g",
        "ro"
      ],
      [
        "g",
        "et"
      ],
      [
        "i",
        "ly"
      ],
      [
        "j",
        "s"
      ],
      [
        "p",
        "e"
      ],
      [
        "s",
        "um"
      ],
      [
        "s",
        "ource"
      ],
      [
        "y",
        "pe"
      ],
      [
        "re",
        "ad"
      ],
      [
        "re",
        "ate"
      ],
      [
        "en",
        "a"
      ],
      [
        "ER",
        "E"
      ],
      [
        "ch",
        "unk"
      ],
      [
        "data",
        "set"
      ],
      [
        "res",
        "p"
      ],
      [
        "CS",
        "V"
      ],
      [
        "WH",
        "ERE"
      ],
      [
        "gro",
        "up"
      ],
      [
        "js",
        "on"
      ],
      [
        "A",
        "B"
      ],
      [
        "A",
        "R"
      ],
      [
        "C",
        "RE"
      ],
      [
        "C",
        "ol"
      ],
      [
        "E",
        "S"
      ],
      [
        "I",
        "F"
      ],
      [
        "J",
        "ob"
      ],
      [
        "a",
        "m"
      ],
      [
        "a",
        "nt"
      ],
      [
        "m",
        "in"
      ],
      [
        "n",
        "load"
      ],
      [
        "n",
        "ow"
      ],
      [
        "p",
        "i"
      ],
      [
        "r",
        "n"
      ],
      [
        "r",
        "or"
      ],
      [
        "s",
        "p"
      ],
      [
        "s",
        "ecret"
      ],
      [
        "t",
        "ype"
      ],
      [
        "z",
        "e"
      ],
      [
        "re",
        "g"
      ],
      [
        "in",
        "dow"
      ],
      [
        "to",
        "ta"
      ],
      [
        "pat",
        "ter"
      ],
      [
        "ag",
        "es"
      ],
      [
        "as",
        "e"
      ],
      [
        "mo",
        "de"
      ],
      [
        "with",
        "Col"
      ],
      [
        "EX",
        "IST"
      ],
      [
        "con",
        "fig"
      ],
      [
        "ul",
        "t"
      ],
      [
        "subscri",
        "ption"
      ],
      [
        "da",
        "ily"
      ],
      [
        "pub",
        "lish"
      ],
      [
        "mess",
        "ages"
      ],
      [
        "AB",
        "LE"
      ],
      [
        "CRE",
        "ATE"
      ],
      [
        "tota",
        "l"
      ],
      [
        "patter",
        "n"
      ],
      [
        "withCol",
        "umn"
      ],
      [
        "EXIST",
        "S"
      ],
      [
        "B",
        "ig"
      ],
      [
        "C",
        "o"
      ],
      [
        "F",
        "ield"
      ],
      [
        "G",
        "RO"
      ],
      [
        "I",
        "d"
      ],
      [
        "J",
        "S"
      ],
      [
        "M",
        "AT"
      ],
      [
        "P",
        "ar"
      ],
      [
        "P",
        "ub"
      ],
      [
        "P",
        "AR"
      ],
      [
        "R",
        "un"
      ],
      [
        "S",
        "ub"
      ],
      [
        "S",
        "ession"
      ],
      [
        "S",
        "chema"
      ],
      [
        "T",
        "r"
      ],
      [
        "U",
        "N"
      ],
      [
        "V",
        "AL"
      ],
      [
        "c",
        "ast"
      ],
      [
        "i",
        "st"
      ],
      [
        "j",
        "o"
      ],
      [
        "p",
        "y"
      ],
      [
        "p",
        "ag"
      ],
      [
        "v",
        "al"
      ],
      [
        "v",
        "ali"
      ],
      [
        "w",
        "h"
      ],
      [
        "er",
        "ing"
      ],
      [
        "at",
        "ion"
      ],
      [
        "re",
        "d"
      ],
      [
        "on",
        "se"
      ],
      [
        "ent",
        "s"
      ],
      [
        "or",
        "age"
      ],
      [
        "ar",
        "t"
      ],
      [
        "de",
        "d"
      ],
      [
        "id",
        "s"
      ],
      [
        "to",
        "pi"
      ],
      [
        "fi",
        "l"
      ],
      [
        "col",
        "s"
      ],
      [
        "ut",
        "es"
      ],
      [
        "ec",
        "u"
      ],
      [
        "IN",
        "G"
      ],
      [
        "sh",
        "if"
      ],
      [
        "TI",
        "ON"
      ],
      [
        "TI",
        "TION"
      ],
      [
        "ali",
        "z"
      ],
      [
        "ex",
        "ce"
      ],
      [
        "OR",
        "DER"
      ],
      [
        "int",
        "o"
      ],
      [
        "app",
        "end"
      ],
      [
        "eri",
        "es"
      ],
      [
        "SU",
        "M"
      ],
      [
        "resp",
        "onse"
      ],
      [
        "min",
        "utes"
      ],
      [
        "pattern",
        "s"
      ],
      [
        "Big",
        "Query"
      ],
      [
        "GRO",
        "UP"
      ],
      [
        "JS",
        "ON"
      ],
      [
        "PAR",
        "TITION"
      ],
      [
        "Schema",
        "Field"
      ],
      [
        "Tr",
        "ue"
      ],
      [
        "jo",
        "in"
      ],
      [
        "pag",
        "in"
      ],
      [
        "vali",
        "d"
      ],
      [
        "topi",
        "c"
      ],
      [
        "shif",
        "t"
      ],
      [
        "A",
        "M"
      ],
      [
        "B",
        "ucket"
      ],
      [
        "C",
        "reate"
      ],
      [
        "D",
        "ATE"
      ],
      [
        "E",
        "N"
      ],
      [
        "E",
        "x"
      ],
      [
        "F",
        "OR"
      ],
      [
        "K",
        "ey"
      ],
      [
        "L",
        "o"
      ],
      [
        "M",
        "E"
      ],
      [
        "Q",
        "U"
      ],
      [
        "S",
        "t"
      ],
      [
        "S",
        "ecret"
      ],
      [
        "T",
        "ABLE"
      ],
      [
        "W",
        "indow"
      ],
      [
        "c",
        "ur"
      ],
      [
        "d",
        "ro"
      ],
      [
        "e",
        "p"
      ],
      [
        "f",
        "un"
      ],
      [
        "g",
        "n"
      ],
      [
        "g",
        "ine"
      ],
      [
        "h",
        "ena"
      ],
      [
        "i",
        "le"
      ],
      [
        "l",
        "arg"
      ],
      [
        "o",
        "s"
      ],
      [
        "o",
        "ut"
      ],
      [
        "o",
        "ver"
      ],
      [
        "p",
        "ur"
      ],
      [
        "p",
        "ol"
      ],
      [
        "s",
        "chema"
      ],
      [
        "u",
        "f"
      ],
      [
        "u",
        "s"
      ],
      [
        "v",
        "e"
      ],
      [
        "v",
        "i"
      ],
      [
        "at",
        "hena"
      ],
      [
        "re",
        "qu"
      ],
      [
        "re",
        "ce"
      ],
      [
        "re",
        "am"
      ],
      [
        "st",
        "ate"
      ],
      [
        "st",
        "orage"
      ],
      [
        "st",
        "art"
      ],
      [
        "ti",
        "ve"
      ],
      [
        "or",
        "y"
      ],
      [
        "in",
        "de"
      ],
      [
        "in",
        "valid"
      ],
      [
        "ar",
        "ant"
      ],
      [
        "lo",
        "w"
      ],
      [
        "qu",
        "arant"
      ],
      [
        "ser",
        "t"
      ],
      [
        "en",
        "gine"
      ],
      [
        "si",
        "gn"
      ],
      [
        "ER",
        "I"
      ],
      [
        "order",
        "By"
      ],
      [
        "col",
        "umn"
      ],
      [
        "um",
        "ents"
      ],
      [
        "di",
        "m"
      ],
      [
        "al",
        "l"
      ],
      [
        "key",
        "s"
      ],
      [
        "up",
        "load"
      ],
      [
        "TI",
        "ME"
      ],
      [
        "ali",
        "as"
      ],
      [
        "ma",
        "x"
      ],
      [
        "payload",
        "s"
      ],
      [
        "ul",
        "l"
      ],
      [
        "dow",
        "nload"
      ],
      [
        "subscri",
        "ber"
      ],
      [
        "iv",
        "ed"
      ],
      [
        "Spark",
        "Session"
      ],
      [
        "group",
        "by"
      ],
      [
        "red",
        "shift"
      ],
      [
        "fil",
        "ter"
      ],
      [
        "ecu",
        "tion"
      ],
      [
        "dro",
        "p"
      ],
      [
        "fun",
        "c"
      ],
      [
        "pur",
        "ch"
      ],
      [
        "rece",
        "ived"
      ],
      [
        "inde",
        "x"
      ],
      [
        "quarant",
        "ine"
      ],
      [
        "A",
        "N"
      ],
      [
        "D",
        "EX"
      ],
      [
        "D",
        "ES"
      ],
      [
        "E",
        "r"
      ],
      [
        "F",
        "A"
      ],
      [
        "G",
        "lue"
      ],
      [
        "G",
        "CS"
      ],
      [
        "I",
        "S"
      ],
      [
        "I",
        "T"
      ],
      [
        "I",
        "RE"
      ],
      [
        "L",
        "U"
      ],
      [
        "N",
        "ame"
      ],
      [
        "O",
        "V"
      ],
      [
        "P",
        "Y"
      ],
      [
        "R",
        "ING"
      ],
      [
        "S",
        "eries"
      ],
      [
        "T",
        "o"
      ],
      [
        "U",
        "p"
      ],
      [
        "a",
        "u"
      ],
      [
        "a",
        "ct"
      ],
      [
        "b",
        "q"
      ],
      [
        "b",
        "ase"
      ],
      [
        "c",
        "l"
      ],
      [
        "c",
        "reate"
      ],
      [
        "d",
        "b"
      ],
      [
        "d",
        "s"
      ],
      [
        "d",
        "y"
      ],
      [
        "d",
        "at"
      ],
      [
        "d",
        "uck"
      ],
      [
        "e",
        "w"
      ],
      [
        "e",
        "ad"
      ],
      [
        "f",
        "act"
      ],
      [
        "g",
        "le"
      ],
      [
        "i",
        "l"
      ],
      [
        "i",
        "ze"
      ],
      [
        "i",
        "aliz"
      ],
      [
        "k",
        "w"
      ],
      [
        "l",
        "ag"
      ],
      [
        "m",
        "er"
      ],
      [
        "m",
        "at"
      ],
      [
        "m",
        "ory"
      ],
      [
        "n",
        "um"
      ],
      [
        "o",
        "o"
      ],
      [
        "o",
        "t"
      ],
      [
        "o",
        "si"
      ],
      [
        "p",
        "l"
      ],
      [
        "p",
        "ut"
      ],
      [
        "p",
        "rev"
      ],
      [
        "r",
        "a"
      ],
      [
        "r",
        "u"
      ],
      [
        "u",
        "d"
      ],
      [
        "u",
        "st"
      ],
      [
        "u",
        "es"
      ],
      [
        "w",
        "e"
      ],
      [
        "er",
        "ror"
      ],
      [
        "nt",
        "h"
      ],
      [
        "at",
        "or"
      ],
      [
        "st",
        "ream"
      ],
      [
        "me",
        "mory"
      ],
      [
        "in",
        "es"
      ],
      [
        "ar",
        "s"
      ],
      [
        "de",
        "co"
      ],
      [
        "de",
        "sc"
      ],
      [
        "lo",
        "ud"
      ],
      [
        "ro",
        "ad"
      ],
      [
        "ur",
        "i"
      ],
      [
        "ser",
        "ializ"
      ],
      [
        "si",
        "ze"
      ],
      [
        "load",
        "s"
      ],
      [
        "ag",
        "er"
      ],
      [
        "un",
        "der"
      ],
      [
        "di",
        "sp"
      ],
      [
        "an",
        "ager"
      ],
      [
        "mo",
        "nth"
      ],
      [
        "ut",
        "f"
      ],
      [
        "partition",
        "By"
      ],
      [
        "ce",
        "ber"
      ],
      [
        "up",
        "per"
      ],
      [
        "IN",
        "TER"
      ],
      [
        "IN",
        "DEX"
      ],
      [
        "RE",
        "QU"
      ],
      [
        "res",
        "ult"
      ],
      [
        "SE",
        "T"
      ],
      [
        "ST",
        "RING"
      ],
      [
        "NU",
        "M"
      ],
      [
        "con",
        "n"
      ],
      [
        "day",
        "s"
      ],
      [
        "ex",
        "ist"
      ],
      [
        "ite",
        "m"
      ],
      [
        "AL",
        "TER"
      ],
      [
        "arg",
        "s"
      ],
      [
        "arg",
        "uments"
      ],
      [
        "Query",
        "Ex"
      ],
      [
        "da",
        "u"
      ],
      [
        "iv",
        "ot"
      ],
      [
        "pub",
        "sub"
      ],
      [
        "CO",
        "PY"
      ],
      [
        "chunk",
        "size"
      ],
      [
        "Job",
        "Run"
      ],
      [
        "reg",
        "ate"
      ],
      [
        "reg",
        "ion"
      ],
      [
        "publish",
        "er"
      ],
      [
        "Par",
        "quet"
      ],
      [
        "val",
        "ues"
      ],
      [
        "JSON",
        "B"
      ],
      [
        "pagin",
        "ator"
      ],
      [
        "FOR",
        "MAT"
      ],
      [
        "Lo",
        "ad"
      ],
      [
        "larg",
        "e"
      ],
      [
        "uf",
        "f"
      ],
      [
        "us",
        "ing"
      ],
      [
        "vi",
        "a"
      ],
      [
        "low",
        "er"
      ],
      [
        "engine",
        "ering"
      ],
      [
        "ERI",
        "AL"
      ],
      [
        "column",
        "s"
      ],
      [
        "func",
        "tion"
      ],
      [
        "purch",
        "ase"
      ],
      [
        "DES",
        "C"
      ],
      [
        "Er",
        "ror"
      ],
      [
        "IRE",
        "D"
      ],
      [
        "OV",
        "ER"
      ],
      [
        "au",
        "to"
      ],
      [
        "cl",
        "ust"
      ],
      [
        "duck",
        "db"
      ],
      [
        "fact",
        "s"
      ],
      [
        "kw",
        "args"
      ],
      [
        "mer",
        "g"
      ],
      [
        "oo",
        "gle"
      ],
      [
        "osi",
        "tion"
      ],
      [
        "ru",
        "le"
      ],
      [
        "error",
        "s"
      ],
      [
        "road",
        "cast"
      ],
      [
        "disp",
        "osition"
      ],
      [
        "ceber",
        "g"
      ],
      [
        "INTER",
        "VAL"
      ],
      [
        "REQU",
        "IRED"
      ],
      [
        "QueryEx",
        "ecution"
      ],
      [
        "A",
        "P"
      ],
      [
        "A",
        "W"
      ],
      [
        "A",
        "r"
      ],
      [
        "A",
        "th"
      ],
      [
        "A",
        "DER"
      ],
      [
        "B",
        "ER"
      ],
      [
        "C",
        "C"
      ],
      [
        "C",
        "on"
      ],
      [
        "C",
        "ON"
      ],
      [
        "D",
        "ow"
      ],
      [
        "E",
        "W"
      ],
      [
        "E",
        "ED"
      ],
      [
        "E",
        "ADER"
      ],
      [
        "F",
        "I"
      ],
      [
        "F",
        "L"
      ],
      [
        "H",
        "EADER"
      ],
      [
        "I",
        "G"
      ],
      [
        "I",
        "Z"
      ],
      [
        "I",
        "n"
      ],
      [
        "I",
        "LE"
      ],
      [
        "I",
        "AM"
      ],
      [
        "I",
        "EW"
      ],
      [
        "L",
        "TER"
      ],
      [
        "L",
        "ist"
      ],
      [
        "M",
        "N"
      ],
      [
        "M",
        "anager"
      ],
      [
        "P",
        "ol"
      ],
      [
        "Q",
        "L"
      ],
      [
        "R",
        "et"
      ],
      [
        "R",
        "UN"
      ],
      [
        "S",
        "tr"
      ],
      [
        "S",
        "ING"
      ],
      [
        "S",
        "QL"
      ],
      [
        "T",
        "L"
      ],
      [
        "T",
        "O"
      ],
      [
        "T",
        "i"
      ],
      [
        "T",
        "EX"
      ],
      [
        "T",
        "RUN"
      ],
      [
        "U",
        "ES"
      ],
      [
        "U",
        "SING"
      ],
      [
        "V",
        "IEW"
      ],
      [
        "W",
        "IT"
      ],
      [
        "a",
        "c"
      ],
      [
        "a",
        "f"
      ],
      [
        "a",
        "v"
      ],
      [
        "a",
        "in"
      ],
      [
        "a",
        "ble"
      ],
      [
        "a",
        "ult"
      ],
      [
        "b",
        "u"
      ],
      [
        "b",
        "at"
      ],
      [
        "b",
        "et"
      ],
      [
        "b",
        "roadcast"
      ],
      [
        "c",
        "ry"
      ],
      [
        "c",
        "loud"
      ],
      [
        "d",
        "t"
      ],
      [
        "e",
        "st"
      ],
      [
        "e",
        "ep"
      ],
      [
        "f",
        "l"
      ],
      [
        "f",
        "in"
      ],
      [
        "f",
        "lo"
      ],
      [
        "f",
        "ut"
      ],
      [
        "f",
        "ast"
      ],
      [
        "g",
        "in"
      ],
      [
        "g",
        "lob"
      ],
      [
        "g",
        "oogle"
      ],
      [
        "h",
        "i"
      ],
      [
        "h",
        "ow"
      ],
      [
        "h",
        "ead"
      ],
      [
        "i",
        "de"
      ],
      [
        "i",
        "se"
      ],
      [
        "i",
        "am"
      ],
      [
        "i",
        "ceberg"
      ],
      [
        "k",
        "ed"
      ],
      [
        "l",
        "f"
      ],
      [
        "l",
        "on"
      ],
      [
        "l",
        "ate"
      ],
      [
        "l",
        "ines"
      ],
      [
        "m",
        "ent"
      ],
      [
        "m",
        "ar"
      ],
      [
        "m",
        "it"
      ],
      [
        "n",
        "o"
      ],
      [
        "n",
        "er"
      ],
      [
        "n",
        "app"
      ],
      [
        "n",
        "ew"
      ],
      [
        "o",
        "f"
      ],
      [
        "o",
        "k"
      ],
      [
        "o",
        "st"
      ],
      [
        "o",
        "id"
      ],
      [
        "p",
        "s"
      ],
      [
        "p",
        "age"
      ],
      [
        "p",
        "ull"
      ],
      [
        "p",
        "ivot"
      ],
      [
        "r",
        "k"
      ],
      [
        "r",
        "s"
      ],
      [
        "s",
        "m"
      ],
      [
        "s",
        "or"
      ],
      [
        "s",
        "ec"
      ],
      [
        "s",
        "ort"
      ],
      [
        "s",
        "napp"
      ],
      [
        "t",
        "es"
      ],
      [
        "t",
        "ect"
      ],
      [
        "u",
        "re"
      ],
      [
        "w",
        "indow"
      ],
      [
        "y",
        "ield"
      ],
      [
        "ĠĠĠĠ",
        "Ġ"
      ],
      [
        "ĠĠĠĠ",
        "ĠĠ"
      ],
      [
        "nt",
        "ain"
      ],
      [
        "at",
        "tr"
      ],
      [
        "re",
        "nt"
      ],
      [
        "re",
        "ct"
      ],
      [
        "on",
        "ly"
      ],
      [
        "on",
        "ds"
      ],
      [
        "st",
        "in"
      ],
      [
        "ĠĠĠĠĠĠĠĠ",
        "Ġ"
      ],
      [
        "me",
        "Par"
      ],
      [
        "in",
        "sert"
      ],
      [
        "ar",
        "n"
      ],
      [
        "li",
        "b"
      ],
      [
        "li",
        "p"
      ],
      [
        "de",
        "st"
      ],
      [
        "de",
        "tect"
      ],
      [
        "ro",
        "le"
      ],
      [
        "co",
        "mp"
      ],
      [
        "co",
        "ntain"
      ],
      [
        "qu",
        "ant"
      ],
      [
        "qu",
        "eries"
      ],
      [
        "ser",
        "ver"
      ],
      [
        "en",
        "ded"
      ],
      [
        "par",
        "se"
      ],
      [
        "def",
        "ault"
      ],
      [
        "ed",
        "s"
      ],
      [
        "si",
        "de"
      ],
      [
        "fi",
        "eld"
      ],
      [
        "ob",
        "j"
      ],
      [
        "order",
        "ed"
      ],
      [
        "ch",
        "an"
      ],
      [
        "di",
        "rect"
      ],
      [
        "di",
        "stin"
      ],
      [
        "tition",
        "ing"
      ],
      [
        "ut",
        "e"
      ],
      [
        "RO",
        "W"
      ],
      [
        "up",
        "dat"
      ],
      [
        "for",
        "mat"
      ],
      [
        "sh",
        "uff"
      ],
      [
        "data",
        "base"
      ],
      [
        "bo",
        "dy"
      ],
      [
        "res",
        "sion"
      ],
      [
        "ST",
        "AM"
      ],
      [
        "ex",
        "t"
      ],
      [
        "Client",
        "Error"
      ],
      [
        "and",
        "as"
      ],
      [
        "wr",
        "it"
      ],
      [
        "by",
        "tes"
      ],
      [
        "tr",
        "ue"
      ],
      [
        "agg",
        "ed"
      ],
      [
        "agg",
        "regate"
      ],
      [
        "NULL",
        "ABLE"
      ],
      [
        "eri",
        "aliz"
      ],
      [
        "mess",
        "age"
      ],
      [
        "CO",
        "UN"
      ],
      [
        "CO",
        "LU"
      ]
    ]
  }
}